{
  "version": "1.0",
  "truncation": null,
  "padding": null,
  "added_tokens": [
    {
      "id": 0,
      "content": "[UNK]",
      "single_word": false,
      "lstrip": false,
      "rstrip": false,
      "normalized": false,
      "special": true
    },
    {
      "id": 1,
      "content": "[PAD]",
      "single_word": false,
      "lstrip": false,
      "rstrip": false,
      "normalized": false,
      "special": true
    },
    {
      "id": 2,
      "content": "[CLS]",
      "single_word": false,
      "lstrip": false,
      "rstrip": false,
      "normalized": false,
      "special": true
    },
    {
      "id": 3,
      "content": "[SEP]",
      "single_word": false,
      "lstrip": false,
      "rstrip": false,
      "normalized": false,
      "special": true
    },
    {
      "id": 4,
      "content": "[MASK]",
      "single_word": false,
      "lstrip": false,
      "rstrip": false,
      "normalized": false,
      "special": true
    }
  ],
  "normalizer": {
    "type": "Sequence",
    "normalizers": [
      {
        "type": "NFD"
      }
    ]
  },
  "pre_tokenizer": null,
  "post_processor": {
    "type": "TemplateProcessing",
    "single": [
      {
        "SpecialToken": {
          "id": "[CLS]",
          "type_id": 0
        }
      },
      {
        "Sequence": {
          "id": "A",
          "type_id": 0
        }
      },
      {
        "SpecialToken": {
          "id": "[SEP]",
          "type_id": 0
        }
      }
    ],
    "pair": [
      {
        "SpecialToken": {
          "id": "[CLS]",
          "type_id": 0
        }
      },
      {
        "Sequence": {
          "id": "A",
          "type_id": 0
        }
      },
      {
        "SpecialToken": {
          "id": "[SEP]",
          "type_id": 0
        }
      },
      {
        "Sequence": {
          "id": "B",
          "type_id": 1
        }
      },
      {
        "SpecialToken": {
          "id": "[SEP]",
          "type_id": 1
        }
      }
    ],
    "special_tokens": {
      "[CLS]": {
        "id": "[CLS]",
        "ids": [
          2
        ],
        "tokens": [
          "[CLS]"
        ]
      },
      "[SEP]": {
        "id": "[SEP]",
        "ids": [
          3
        ],
        "tokens": [
          "[SEP]"
        ]
      }
    }
  },
  "decoder": {
    "type": "WordPiece",
    "prefix": "##",
    "cleanup": true
  },
  "model": {
    "type": "WordPiece",
    "unk_token": "[UNK]",
    "continuing_subword_prefix": "##",
    "max_input_chars_per_word": 100,
    "vocab": {
      "[UNK]": 0,
      "[PAD]": 1,
      "[CLS]": 2,
      "[SEP]": 3,
      "[MASK]": 4,
      "\n": 5,
      "\r": 6,
      " ": 7,
      "0": 8,
      "1": 9,
      "2": 10,
      "3": 11,
      "4": 12,
      "5": 13,
      "6": 14,
      "7": 15,
      "8": 16,
      "9": 17,
      "ا": 18,
      "ب": 19,
      "ت": 20,
      "ث": 21,
      "ج": 22,
      "ح": 23,
      "خ": 24,
      "د": 25,
      "ذ": 26,
      "ر": 27,
      "ز": 28,
      "س": 29,
      "ش": 30,
      "ص": 31,
      "ض": 32,
      "ط": 33,
      "ظ": 34,
      "ع": 35,
      "غ": 36,
      "ؼ": 37,
      "ف": 38,
      "ق": 39,
      "ك": 40,
      "ل": 41,
      "م": 42,
      "ن": 43,
      "ه": 44,
      "و": 45,
      "ى": 46,
      "ي": 47,
      "##4": 48,
      "## ": 49,
      "##ه": 50,
      "##ي": 51,
      "##س": 52,
      "##ن": 53,
      "##ف": 54,
      "##ا": 55,
      "##ل": 56,
      "##ت": 57,
      "##ق": 58,
      "##و": 59,
      "##م": 60,
      "##ج": 61,
      "##ر": 62,
      "##د": 63,
      "##ب": 64,
      "##6": 65,
      "##9": 66,
      "##3": 67,
      "##\r": 68,
      "##\n": 69,
      "##ك": 70,
      "##ط": 71,
      "##ع": 72,
      "##ح": 73,
      "##ظ": 74,
      "##2": 75,
      "##1": 76,
      "##ص": 77,
      "##0": 78,
      "##ز": 79,
      "##8": 80,
      "##7": 81,
      "##ش": 82,
      "##غ": 83,
      "##خ": 84,
      "##5": 85,
      "##ث": 86,
      "##ض": 87,
      "##ى": 88,
      "##ذ": 89,
      "##ؼ": 90,
      "## ا": 91,
      "## ال": 92,
      "##ه ": 93,
      "##ا ": 94,
      "##ي ": 95,
      "##ن ": 96,
      "##ال": 97,
      "##ه ال": 98,
      "## م": 99,
      "## و": 100,
      "##يه ": 101,
      "##ات": 102,
      "##ان": 103,
      "## الم": 104,
      "##ام": 105,
      "##ار": 106,
      "## ب": 107,
      "## ف": 108,
      "##ن ال": 109,
      "##عل": 110,
      "##ول": 111,
      "##ري": 112,
      "##دي": 113,
      "## الا": 114,
      "## ت": 115,
      "##ير": 116,
      "## ل": 117,
      "##ي ال": 118,
      "##اب": 119,
      "##ور": 120,
      "##اد": 121,
      "##ست": 122,
      "## ع": 123,
      "##ها ": 124,
      "##في ": 125,
      "##على": 126,
      "##ه و": 127,
      "##ين ": 128,
      "##ان ": 129,
      "## ك": 130,
      "##ه ا": 131,
      "##اس": 132,
      "##ا ال": 133,
      "## ي": 134,
      "##يل": 135,
      "##ه م": 136,
      "##عد": 137,
      "##ين": 138,
      "##يه ال": 139,
      "##وم": 140,
      "## في ": 141,
      "##ما ": 142,
      "##لك": 143,
      "##بر": 144,
      "## 1": 145,
      "## س": 146,
      "## ن": 147,
      "##اف": 148,
      "## الت": 149,
      "##ون": 150,
      "##قد": 151,
      "## ح": 152,
      "##ي ا": 153,
      "##وال": 154,
      "##يم": 155,
      "##اع": 156,
      "##ون ": 157,
      "##رب": 158,
      "##ه ب": 159,
      "## وال": 160,
      "##سب": 161,
      "## ه": 162,
      "## ان": 163,
      "##بل": 164,
      "##شر": 165,
      "##سم": 166,
      "## الع": 167,
      "##لل": 168,
      "##اح": 169,
      "##هم": 170,
      "##تر": 171,
      "##تم": 172,
      "##جم": 173,
      "## من ": 174,
      "##وس": 175,
      "##كل": 176,
      "## على": 177,
      "##تح": 178,
      "##اق": 179,
      "##يد": 180,
      "##من": 181,
      "## 2": 182,
      "## من ال": 183,
      "##ات ال": 184,
      "##ا ا": 185,
      "##خل": 186,
      "##وب": 187,
      "## من": 188,
      "##يا ": 189,
      "##ود": 190,
      "##ه ف": 191,
      "##مر": 192,
      "##اك": 193,
      "## ق": 194,
      "##يت": 195,
      "##كان": 196,
      "##يع": 197,
      "##عام": 198,
      "##سل": 199,
      "## الح": 200,
      "##مل": 201,
      "##اط": 202,
      "##وج": 203,
      "##من ": 204,
      "##00": 205,
      "##ه ل": 206,
      "##اج": 207,
      "##ند": 208,
      "## د": 209,
      "##يك": 210,
      "##وع": 211,
      "##يب": 212,
      "## الى": 213,
      "##صل": 214,
      "##رف": 215,
      "##وت": 216,
      "## ج": 217,
      "##ه الم": 218,
      "##وق": 219,
      "##كت": 220,
      "##فر": 221,
      "## الق": 222,
      "##ا ل": 223,
      "##ثل": 224,
      "##هو": 225,
      "## 19": 226,
      "##ين ال": 227,
      "##خر": 228,
      "##ذلك": 229,
      "##وف": 230,
      "##هر": 231,
      "## ش": 232,
      "## في ال": 233,
      "##مع": 234,
      "##يق": 235,
      "##اص": 236,
      "##جل": 237,
      "## الب": 238,
      "##حد": 239,
      "##نه ": 240,
      "## الن": 241,
      "##از": 242,
      "## ر": 243,
      "##يات": 244,
      "## الس": 245,
      "##ا ب": 246,
      "##قل": 247,
      "##اث": 248,
      "##اض": 249,
      "##يو": 250,
      "## بال": 251,
      "##ي ت": 252,
      "## ان ": 253,
      "## او": 254,
      "##يس": 255,
      "## لل": 256,
      "##رك": 257,
      "##حت": 258,
      "##في ال": 259,
      "##كان ": 260,
      "##يه و": 261,
      "##يف": 262,
      "##ه وال": 263,
      "##يز": 264,
      "##كر": 265,
      "##عب": 266,
      "##ه في ": 267,
      "##ي الم": 268,
      "## مع": 269,
      "##قر": 270,
      "##دم": 271,
      "##ا م": 272,
      "##ديد": 273,
      "##در": 274,
      "##هذ": 275,
      "##ه ت": 276,
      "##سر": 277,
      "## الج": 278,
      "##تل": 279,
      "## الر": 280,
      "##صر": 281,
      "##نت": 282,
      "##بع": 283,
      "##حي": 284,
      "##غير": 285,
      "## الف": 286,
      "##ثر": 287,
      "##وري": 288,
      "##ي و": 289,
      "##يه ب": 290,
      "##طل": 291,
      "##الم": 292,
      "## الك": 293,
      "##\r\n": 294,
      "##انت": 295,
      "##يه ا": 296,
      "##ي ب": 297,
      "##ستخ": 298,
      "##يه وال": 299,
      "##يش": 300,
      "##مال": 301,
      "## هذ": 302,
      "##01": 303,
      "## الذ": 304,
      "##كانت": 305,
      "##ها ال": 306,
      "## الل": 307,
      "##مت": 308,
      "##ا و": 309,
      "##هد": 310,
      "##سي": 311,
      "##ريق": 312,
      "## الش": 313,
      "##يض": 314,
      "## عام": 315,
      "##سبه ": 316,
      "##او": 317,
      "##مد": 318,
      "##طب": 319,
      "##ه الت": 320,
      "##عر": 321,
      "##ي م": 322,
      "##ه ع": 323,
      "##حل": 324,
      "##صب": 325,
      "##تب": 326,
      "##ثم": 327,
      "##وز": 328,
      "##يج": 329,
      "##كن": 330,
      "##ي ل": 331,
      "## اب": 332,
      "##وا ": 333,
      "##دول": 334,
      "##يخ": 335,
      "##ه الى": 336,
      "##ه على": 337,
      "##ها": 338,
      "##ه في ال": 339,
      "##خص": 340,
      "##تق": 341,
      "##دد": 342,
      "##وا": 343,
      "##بد": 344,
      "##كم": 345,
      "##جن": 346,
      "##طر": 347,
      "##اول": 348,
      "##ه لل": 349,
      "##يه ل": 350,
      "##نف": 351,
      "##عض": 352,
      "## 201": 353,
      "##حر": 354,
      "##يه م": 355,
      "##صف": 356,
      "## عل": 357,
      "##ريك": 358,
      "##قط": 359,
      "##ه من ": 360,
      "##اش": 361,
      "## وت": 362,
      "##جر": 363,
      "##نو": 364,
      "##دين": 365,
      "##بلغ": 366,
      "## خ": 367,
      "##شكل": 368,
      "##يه في ": 369,
      "## ول": 370,
      "##وسط": 371,
      "##كن ": 372,
      "##ي الا": 373,
      "##نس": 374,
      "##نظ": 375,
      "##ا ف": 376,
      "##عت": 377,
      "##يدي": 378,
      "## ص": 379,
      "## 200": 380,
      "##قبل": 381,
      "##بن": 382,
      "## 3": 383,
      "##طق": 384,
      "##بير": 385,
      "##مس": 386,
      "##خلال": 387,
      "##تف": 388,
      "## الام": 389,
      "##است": 390,
      "##ي لل": 391,
      "##لغ": 392,
      "##كثر": 393,
      "##19": 394,
      "## الص": 395,
      "##ون ال": 396,
      "##ه الع": 397,
      "##ابع": 398,
      "##يه ت": 399,
      "## يس": 400,
      "##وك": 401,
      "##ه من ال": 402,
      "##غل": 403,
      "##جز": 404,
      "##ه الك": 405,
      "##يين ": 406,
      "##تص": 407,
      "##خرى": 408,
      "##وط": 409,
      "##ات الم": 410,
      "## من ا": 411,
      "##بال": 412,
      "##اه": 413,
      "##ا الم": 414,
      "## الخ": 415,
      "##ستخدم": 416,
      "##فل": 417,
      "##ثان": 418,
      "##عام 19": 419,
      "##ا ت": 420,
      "##قال": 421,
      "##تحد": 422,
      "## عدد": 423,
      "##دار": 424,
      "##ظم": 425,
      "##شار": 426,
      "##علم": 427,
      "##عم": 428,
      "##وح": 429,
      "##كتاب": 430,
      "##يه ف": 431,
      "## است": 432,
      "##قدم": 433,
      "## اس": 434,
      "##حيث": 435,
      "##عمل": 436,
      "##ولا": 437,
      "## بعد": 438,
      "##اخ": 439,
      "##من ال": 440,
      "## ط": 441,
      "##ات و": 442,
      "##بار": 443,
      "## الان": 444,
      "##ا ر": 445,
      "##مو": 446,
      "## في ا": 447,
      "##نا ": 448,
      "##جموع": 449,
      "##يها ": 450,
      "##سط": 451,
      "##هي ": 452,
      "## 5": 453,
      "## غ": 454,
      "##ه من": 455,
      "## كل": 456,
      "##ادي": 457,
      "## تم": 458,
      "##ا في ": 459,
      "## 4": 460,
      "##ي في ": 461,
      "## ذلك": 462,
      "##ه ك": 463,
      "## المن": 464,
      "##يث": 465,
      "##ه بال": 466,
      "## مر": 467,
      "## ام": 468,
      "##حمد": 469,
      "##احد": 470,
      "##ها ا": 471,
      "##قو": 472,
      "##سبب": 473,
      "##ختل": 474,
      "##ه ح": 475,
      "##يوم": 476,
      "## عن ": 477,
      "## 6": 478,
      "##جميع": 479,
      "##م ي": 480,
      "##غر": 481,
      "## الد": 482,
      "##اي": 483,
      "## هو": 484,
      "##دام": 485,
      "##وض": 486,
      "## ذ": 487,
      "## الذي ": 488,
      "##ي وال": 489,
      "##ه الس": 490,
      "## كانت": 491,
      "##جد": 492,
      "##ه الح": 493,
      "##قيق": 494,
      "##غرب": 495,
      "## بن ": 496,
      "##ه او": 497,
      "##رين ": 498,
      "##قب": 499,
      "##يكيب": 500,
      "##يكيبيدي": 501,
      "##كس": 502,
      "## 7": 503,
      "## ض": 504,
      "##ديم": 505,
      "##هن": 506,
      "##يار": 507,
      "##ا ع": 508,
      "##تي ": 509,
      "##ثلاث": 510,
      "##يه لل": 511,
      "##تك": 512,
      "##اريخ": 513,
      "##يون": 514,
      "##فت": 515,
      "##حو": 516,
      "##حرف": 517,
      "##عداد": 518,
      "##عدد": 519,
      "##ا الا": 520,
      "##اسم": 521,
      "##ات الت": 522,
      "##عشر": 523,
      "##ي ف": 524,
      "##الب": 525,
      "##طريق": 526,
      "## ز": 527,
      "## اله": 528,
      "##شرق": 529,
      "## اع": 530,
      "##يون ": 531,
      "##يه الم": 532,
      "## ار": 533,
      "## في م": 534,
      "##تع": 535,
      "##نب": 536,
      "##ستخدام": 537,
      "## الاب": 538,
      "##ثال": 539,
      "## كان ": 540,
      "##ذي ": 541,
      "##جمع": 542,
      "##قام": 543,
      "##ريب": 544,
      "##امل": 545,
      "## انت": 546,
      "## مت": 547,
      "##بعد": 548,
      "##فض": 549,
      "##يات الم": 550,
      "##امع": 551,
      "##ثير": 552,
      "##ه س": 553,
      "##قاط": 554,
      "##حتى": 555,
      "## نسبه ": 556,
      "##وى": 557,
      "##عن": 558,
      "##وجد": 559,
      "##تى": 560,
      "## 8": 561,
      "##هل": 562,
      "## بد": 563,
      "##اعد": 564,
      "##نفس": 565,
      "## بعض": 566,
      "##كتب": 567,
      "##زل": 568,
      "##جار": 569,
      "## عند": 570,
      "## اكثر": 571,
      "##ات الا": 572,
      "##خط": 573,
      "##دينه ": 574,
      "##تش": 575,
      "##بعض": 576,
      "## هذه ال": 577,
      "##ظهر": 578,
      "## من الم": 579,
      "##ارس": 580,
      "##كوم": 581,
      "##امس": 582,
      "## 9": 583,
      "##جنوب": 584,
      "##قص": 585,
      "##شرك": 586,
      "## اول": 587,
      "##جتم": 588,
      "##قدر": 589,
      "##وجود": 590,
      "##تد": 591,
      "##ياس": 592,
      "## ايض": 593,
      "##يه على": 594,
      "##غم": 595,
      "## في الم": 596,
      "##يح": 597,
      "##ترك": 598,
      "## حيث": 599,
      "##تحت": 600,
      "##هذه ال": 601,
      "## مل": 602,
      "##طان": 603,
      "##قت": 604,
      "##ابل": 605,
      "##ها ل": 606,
      "## ان ال": 607,
      "##ات م": 608,
      "## نسم": 609,
      "##حم": 610,
      "##ا لل": 611,
      "##ختلف": 612,
      "##جال": 613,
      "##اير": 614,
      "##نسبه ": 615,
      "##شمال": 616,
      "## الاول": 617,
      "##ربع": 618,
      "##دو": 619,
      "##من ا": 620,
      "## تع": 621,
      "## الاسر": 622,
      "##خاص": 623,
      "##حال": 624,
      "##تي ت": 625,
      "##اخل": 626,
      "##اغ": 627,
      "##جه": 628,
      "## الار": 629,
      "##اه ال": 630,
      "##تن": 631,
      "##ه ن": 632,
      "##صول": 633,
      "## الو": 634,
      "## 18": 635,
      "##صن": 636,
      "##وروب": 637,
      "##جدي": 638,
      "## تق": 639,
      "##يان": 640,
      "##طول": 641,
      "##صبح": 642,
      "## القر": 643,
      "##هذا ال": 644,
      "##ه مع": 645,
      "##اذ": 646,
      "## المر": 647,
      "## ما ": 648,
      "##ياد": 649,
      "## بر": 650,
      "##ي على": 651,
      "##ا على": 652,
      "##ه الر": 653,
      "##ابق": 654,
      "## العالم": 655,
      "##طو": 656,
      "##ا من ": 657,
      "##وقت": 658,
      "## دول": 659,
      "## بلغ": 660,
      "##ولايات الم": 661,
      "##ولايات المتحد": 662,
      "##يه في ال": 663,
      "##مح": 664,
      "##كانت نسبه ": 665,
      "##ثام": 666,
      "##خامس": 667,
      "##ديث": 668,
      "## احد": 669,
      "##بلد": 670,
      "## كم": 671,
      "##واج": 672,
      "##فس": 673,
      "## اخ": 674,
      "## الز": 675,
      "##عود": 676,
      "##عمر": 677,
      "##هب": 678,
      "##رق": 679,
      "##يست": 680,
      "##هم و": 681,
      "##واب": 682,
      "##شب": 683,
      "##سلام": 684,
      "##يه": 685,
      "##كو": 686,
      "##دل": 687,
      "##دور": 688,
      "##كبر": 689,
      "## وف": 690,
      "## مثل": 691,
      "##ا الى": 692,
      "## بل": 693,
      "## در": 694,
      "## تش": 695,
      "## حتى": 696,
      "##تال": 697,
      "##ضر": 698,
      "##افظ": 699,
      "##ا د": 700,
      "##با": 701,
      "##بري": 702,
      "##لم": 703,
      "##ثق": 704,
      "## المت": 705,
      "##دى": 706,
      "##امريك": 707,
      "## الغ": 708,
      "##هور": 709,
      "## وقد": 710,
      "##كور": 711,
      "##صور": 712,
      "## اسم": 713,
      "## بين": 714,
      "## مس": 715,
      "##كون": 716,
      "##يات ال": 717,
      "## الاس": 718,
      "##ات ت": 719,
      "##عاد": 720,
      "## العرب": 721,
      "##ات وال": 722,
      "##ارج": 723,
      "## الط": 724,
      "##دين ": 725,
      "##انب": 726,
      "## اش": 727,
      "## بين ال": 728,
      "##جلس": 729,
      "## وم": 730,
      "## عن": 731,
      "##ه ول": 732,
      "##تها ": 733,
      "##يط": 734,
      "## غير": 735,
      "##عالم": 736,
      "## 0": 737,
      "##ه ج": 738,
      "## هذا ال": 739,
      "##يتم": 740,
      "## وهو": 741,
      "##روف": 742,
      "##كون ": 743,
      "##اصر": 744,
      "## مست": 745,
      "##حق": 746,
      "##هناك": 747,
      "##تج": 748,
      "##عبد": 749,
      "##اسر": 750,
      "##طور": 751,
      "##ضع": 752,
      "##ي س": 753,
      "## تعداد": 754,
      "##ه الكور": 755,
      "##ه الن": 756,
      "##18": 757,
      "##ا وال": 758,
      "##فتر": 759,
      "##اقع": 760,
      "##يه من ": 761,
      "## عام 19": 762,
      "## بم": 763,
      "## الدول": 764,
      "##طلق": 765,
      "##000": 766,
      "ال": 767,
      "## نظ": 768,
      "## ويكيبيدي": 769,
      "## تح": 770,
      "##سلم": 771,
      "##زب": 772,
      "##يا ال": 773,
      "##بح": 774,
      "## ثم": 775,
      "##طبيع": 776,
      "##دف": 777,
      "## التي ": 778,
      "##ريف": 779,
      "##انس": 780,
      "##قاطع": 781,
      "##صح": 782,
      "##ين و": 783,
      "## البر": 784,
      "##حاد": 785,
      "## في": 786,
      "##وطن": 787,
      "## كما ": 788,
      "##كما ": 789,
      "## المو": 790,
      "## اسر": 791,
      "##كال": 792,
      "## فر": 793,
      "## دي": 794,
      "##ملك": 795,
      "## سب": 796,
      "##عش": 797,
      "##هما ": 798,
      "## بن": 799,
      "##ريه ال": 800,
      "## وج": 801,
      "##اني ": 802,
      "##ادر": 803,
      "##ضم": 804,
      "## و و": 805,
      "##ها و": 806,
      "##عند": 807,
      "##تز": 808,
      "##فال": 809,
      "## الفر": 810,
      "##نوع": 811,
      "##غن": 812,
      "##ا ان": 813,
      "##سنه ": 814,
      "##قار": 815,
      "##صو": 816,
      "##عتبر": 817,
      "##عام 200": 818,
      "##ثامنه ": 819,
      "## التي ت": 820,
      "##قد ت": 821,
      "##اطق": 822,
      "## عشر": 823,
      "##تس": 824,
      "##شخص": 825,
      "##دير": 826,
      "##ثامنه عشر": 827,
      "##يام": 828,
      "##ه ر": 829,
      "##دع": 830,
      "##منطق": 831,
      "## السل": 832,
      "## العا ل": 833,
      "##ثن": 834,
      "## الملك": 835,
      "## كان": 836,
      "##درس": 837,
      "##مثل": 838,
      "##سمى": 839,
      "##ه ه": 840,
      "##قرن ال": 841,
      "##نج": 842,
      "## كبير": 843,
      "##جامع": 844,
      "## المست": 845,
      "##فريق": 846,
      "##ا بال": 847,
      "##عرض": 848,
      "##دن": 849,
      "## تحت": 850,
      "##ات ا": 851,
      "##وار": 852,
      "##وبر": 853,
      "##بت": 854,
      "##يغ": 855,
      "##اسل": 856,
      "##ركز": 857,
      "##قطع": 858,
      "##ه في ا": 859,
      "##اربع": 860,
      "##رير": 861,
      "##ا في ال": 862,
      "##اضاف": 863,
      "##اسع": 864,
      "##يكون ": 865,
      "##والي ": 866,
      "##ا يل": 867,
      "##ارض": 868,
      "##وقع": 869,
      "## الخل": 870,
      "##ما ف": 871,
      "##صدر": 872,
      "## عمل": 873,
      "##يه وم": 874,
      "## المع": 875,
      "##جليز": 876,
      "##15": 877,
      "##ذكر": 878,
      "##حص": 879,
      "##اسب": 880,
      "##ثور": 881,
      "##ه الش": 882,
      "##بلاد": 883,
      "## سل": 884,
      "##اهر": 885,
      "## سنه ": 886,
      "## قبل": 887,
      "##ها في ": 888,
      "##دت": 889,
      "##كلم": 890,
      "##حسب": 891,
      "##ان و": 892,
      "##ياب": 893,
      "##كار": 894,
      "##اعل": 895,
      "##تحرك": 896,
      "##ا من ال": 897,
      "##يري": 898,
      "##ثالث": 899,
      "## الاست": 900,
      "##صال": 901,
      "## الاحرف": 902,
      "##نش": 903,
      "##انيه ": 904,
      "##شف": 905,
      "## وفي ": 906,
      "##سن": 907,
      "##خامسه وال": 908,
      "##ذا ": 909,
      "##خب": 910,
      "##رض": 911,
      "##يمكن ": 912,
      "##م ت": 913,
      "## سكان": 914,
      "## وب": 915,
      "##رياض": 916,
      "##ما ا": 917,
      "##امر": 918,
      "##20": 919,
      "##ها ب": 920,
      "##ديد من ال": 921,
      "##ه الب": 922,
      "##جديد": 923,
      "## مح": 924,
      "##يول": 925,
      "##اه ": 926,
      "##تاب": 927,
      "##ي من ": 928,
      "##طلب": 929,
      "##لت": 930,
      "##واع": 931,
      "##قيم": 932,
      "##ه التي ": 933,
      "##ا ك": 934,
      "##مرك": 935,
      "##10": 936,
      "##يين ال": 937,
      "##اولى": 938,
      "##ين وال": 939,
      "##ه عن ": 940,
      "## تر": 941,
      "##سك": 942,
      "##عليم": 943,
      "##متوسط": 944,
      "## خلال": 945,
      "##هار": 946,
      "##طار": 947,
      "##تو": 948,
      "##يا و": 949,
      "## ميل": 950,
      "##ه الق": 951,
      "## المس": 952,
      "## قر": 953,
      "##يه بال": 954,
      "##كن ان ": 955,
      "##طاق": 956,
      "##اصل": 957,
      "##تاريخ": 958,
      "##ين م": 959,
      "##ين ل": 960,
      "##عن ": 961,
      "##سياس": 962,
      "##في ا": 963,
      "##12": 964,
      "## عن ال": 965,
      "##ا ان ": 966,
      "##سكان ": 967,
      "##طبق": 968,
      "##انج": 969,
      "##اعب": 970,
      "## الكتاب": 971,
      "##وريا ال": 972,
      "##عرف": 973,
      "##امج": 974,
      "## دولار": 975,
      "##زم": 976,
      "##ريد": 977,
      "##يعت": 978,
      "## جميع": 979,
      "## وس": 980,
      "##حكم": 981,
      "##ه في الم": 982,
      "## عبد": 983,
      "##ضو": 984,
      "##زال": 985,
      "##براط": 986,
      "##ي في ال": 987,
      "## وي": 988,
      "## الثان": 989,
      "##ا من": 990,
      "##ه بعد": 991,
      "##يه او": 992,
      "##هند": 993,
      "##خرج": 994,
      "##200": 995,
      "## سس": 996,
      "## والم": 997,
      "##عمال": 998,
      "##افق": 999,
      "##حدث": 1000,
      "##عشرين ": 1001,
      "## العل": 1002,
      "##نظام": 1003,
      "## وبلغ": 1004,
      "##تصاد": 1005,
      "##سكر": 1006,
      "##شارك": 1007,
      "## قد": 1008,
      "##ا ي": 1009,
      "##لكن ": 1010,
      "##اتحاد": 1011,
      "##درج": 1012,
      "##شا": 1013,
      "##ونسبه ": 1014,
      "##هج": 1015,
      "##ين ا": 1016,
      "##نين ": 1017,
      "##ه الف": 1018,
      "## يم": 1019,
      "##فضل": 1020,
      "##عيش": 1021,
      "##جتماع": 1022,
      "##ات ل": 1023,
      "##ت ب": 1024,
      "##ان ب": 1025,
      "##ا ما ": 1026,
      "##تبار": 1027,
      "##فرنس": 1028,
      "##تلك": 1029,
      "## واحد": 1030,
      "##جتمع": 1031,
      "##قابل": 1032,
      "##17": 1033,
      "##اند": 1034,
      "##يا": 1035,
      "##اكن": 1036,
      "## اللغ": 1037,
      "##يه وت": 1038,
      "##نظر": 1039,
      "##جديه الكور": 1040,
      "##زر": 1041,
      "##يلم": 1042,
      "##دراس": 1043,
      "##ارك": 1044,
      "##عمار": 1045,
      "##بو": 1046,
      "##حس": 1047,
      "## من م": 1048,
      "##14": 1049,
      "##هدف": 1050,
      "##13": 1051,
      "##صار": 1052,
      "##حرب": 1053,
      "##جو": 1054,
      "##ه ي": 1055,
      "##نها": 1056,
      "##بنى": 1057,
      "##صاب": 1058,
      "## الال": 1059,
      "## انش": 1060,
      "## العلم": 1061,
      "## استخدام": 1062,
      "##غط": 1063,
      "##ليل": 1064,
      "##ه ق": 1065,
      "##201": 1066,
      "##داخل": 1067,
      "## بشكل": 1068,
      "##احق": 1069,
      "## هي ": 1070,
      "##ثاف": 1071,
      "##ثقاف": 1072,
      "##50": 1073,
      "##داد": 1074,
      "##ضاف": 1075,
      "##ه وت": 1076,
      "##سو": 1077,
      "##ر يس": 1078,
      "##اضافه الى": 1079,
      "##يه مع": 1080,
      "##ا ز": 1081,
      "##تيب": 1082,
      "##رو": 1083,
      "##سمح": 1084,
      "##حب": 1085,
      "##عام 201": 1086,
      "##اهم": 1087,
      "##فرد": 1088,
      "##انيا ": 1089,
      "##عام 1": 1090,
      "##قول": 1091,
      "##عال": 1092,
      "##نى": 1093,
      "## الكل": 1094,
      "##بات": 1095,
      "##تبع": 1096,
      "## وه": 1097,
      "## حد": 1098,
      "##ا ق": 1099,
      "##عو": 1100,
      "##ها الى": 1101,
      "##ه ان": 1102,
      "##ف ": 1103,
      "##ويل": 1104,
      "##شهر": 1105,
      "##باب": 1106,
      "##ها م": 1107,
      "## وكان ": 1108,
      "##جع": 1109,
      "## الرغم": 1110,
      "##يور": 1111,
      "##حرك": 1112,
      "## كتاب": 1113,
      "##وفي ": 1114,
      "##ثنا ": 1115,
      "## مجموع": 1116,
      "##خاب": 1117,
      "##ريم": 1118,
      "##ين ب": 1119,
      "##يه الى": 1120,
      "## العام": 1121,
      "##يه الت": 1122,
      "##16": 1123,
      "##مركز": 1124,
      "## خل": 1125,
      "##ولد": 1126,
      "## نفس": 1127,
      "##رس": 1128,
      "##فق": 1129,
      "##شع": 1130,
      "## اخر": 1131,
      "##فظ": 1132,
      "##رابع": 1133,
      "##ادي ": 1134,
      "##27": 1135,
      "## اكت": 1136,
      "## بان": 1137,
      "##سلسل": 1138,
      "## دخل": 1139,
      "##نق": 1140,
      "##تكون ": 1141,
      "## محمد": 1142,
      "## سكانها ": 1143,
      "## بلغ عدد": 1144,
      "##كثير": 1145,
      "##وان": 1146,
      "## هن": 1147,
      "##وسيق": 1148,
      "##عيد": 1149,
      "##21": 1150,
      "##عرب": 1151,
      "## بين ": 1152,
      "##ات ف": 1153,
      "## سن ال": 1154,
      "##ا او": 1155,
      "##اخر": 1156,
      "##ها مع": 1157,
      "##ين الم": 1158,
      "##ايه ال": 1159,
      "##ايه ": 1160,
      "##ايو": 1161,
      "## حجم": 1162,
      "##جماع": 1163,
      "##ثمان": 1164,
      "## 10": 1165,
      "##ان م": 1166,
      "## الميل": 1167,
      "## كيل": 1168,
      "##انجليز": 1169,
      "## مربع": 1170,
      "##ها ت": 1171,
      "## ثلاث": 1172,
      "##وضع": 1173,
      "##وص": 1174,
      "##ادل": 1175,
      "##ين في ": 1176,
      "##ها ف": 1177,
      "## المدين": 1178,
      "##ه الص": 1179,
      "##علق": 1180,
      "## الر يس": 1181,
      "## درج": 1182,
      "## عبر": 1183,
      "## المل": 1184,
      "## العمل": 1185,
      "##ا ن": 1186,
      "##قض": 1187,
      "##ظر": 1188,
      "##ه ش": 1189,
      "##ديل": 1190,
      "##هاب": 1191,
      "##روم": 1192,
      "## الاخ": 1193,
      "##خارج": 1194,
      "##عدل": 1195,
      "##نوب": 1196,
      "##زير": 1197,
      "##راق": 1198,
      "##ه اخرى": 1199,
      "##سام": 1200,
      "## في الا": 1201,
      "##ناع": 1202,
      "##احل": 1203,
      "## ين": 1204,
      "##اسط": 1205,
      "## شخص": 1206,
      "## ر يس": 1207,
      "##رم": 1208,
      "## عد": 1209,
      "##جمال": 1210,
      "## قام": 1211,
      "##سيح": 1212,
      "##كن ال": 1213,
      "##ه لك": 1214,
      "##صطل": 1215,
      "## عندما ": 1216,
      "## نسب": 1217,
      "## 20": 1218,
      "## سن الثامنه عشر": 1219,
      "##ارد": 1220,
      "## لكل": 1221,
      "## الاسلام": 1222,
      "##يه في ا": 1223,
      "##ينما ": 1224,
      "## الولايات المتحد": 1225,
      "## دون ": 1226,
      "##سف": 1227,
      "##ه د": 1228,
      "## المح": 1229,
      "##ه السكان": 1230,
      "##احرف": 1231,
      "## يوم": 1232,
      "##ذهب": 1233,
      "##لق": 1234,
      "##25": 1235,
      "##ي الى": 1236,
      "##ون ب": 1237,
      "##ضل": 1238,
      "## ونسبه ": 1239,
      "##30": 1240,
      "## اي ": 1241,
      "##ركيب": 1242,
      "##يه من ال": 1243,
      "##قرب": 1244,
      "##ه العرب": 1245,
      "##ان في ": 1246,
      "##نتيج": 1247,
      "##ه المن": 1248,
      "## فيها ": 1249,
      "##اكم": 1250,
      "##يه من": 1251,
      "##حيط": 1252,
      "##هام": 1253,
      "##يه التي ": 1254,
      "##يه ول": 1255,
      "##سمبر": 1256,
      "##ونغ": 1257,
      "##ا س": 1258,
      "## حرف": 1259,
      "##قع": 1260,
      "##ما فوق": 1261,
      "##حدى": 1262,
      "##ه في م": 1263,
      "##اور": 1264,
      "##ون في ": 1265,
      "##حرار": 1266,
      "## نظام": 1267,
      "##صطلح": 1268,
      "##ذر": 1269,
      "##ات ب": 1270,
      "##ات على": 1271,
      "##هرب": 1272,
      "## اما ": 1273,
      "##ستر": 1274,
      "## الحرب": 1275,
      "##ه الل": 1276,
      "## مو": 1277,
      "##اتب": 1278,
      "##خت": 1279,
      "## اغ": 1280,
      "##ومتر": 1281,
      "##ايا ال": 1282,
      "##ي هو": 1283,
      "## ابن ": 1284,
      "##22": 1285,
      "##ى و": 1286,
      "##اثير": 1287,
      "##ايا ": 1288,
      "##ايت": 1289,
      "##يه ك": 1290,
      "##اليا ": 1291,
      "## تم ت": 1292,
      "##ي او": 1293,
      "## 000": 1294,
      "## ات": 1295,
      "##ه الام": 1296,
      "##ارب": 1297,
      "##ه الاولى": 1298,
      "##طفال": 1299,
      "##دخل": 1300,
      "## خط": 1301,
      "##يل الم": 1302,
      "##ان وال": 1303,
      "##ثار": 1304,
      "## مصر": 1305,
      "## وجود": 1306,
      "##اي ": 1307,
      "##ات من ال": 1308,
      "## سنو": 1309,
      "## من اصل": 1310,
      "##تمد": 1311,
      "##نتج": 1312,
      "##زوج": 1313,
      "##ن ل": 1314,
      "##باشر": 1315,
      "## 16": 1316,
      "##قن": 1317,
      "##ه ام": 1318,
      "##تغ": 1319,
      "## القرن ال": 1320,
      "##ه التي ت": 1321,
      "## التال": 1322,
      "##24": 1323,
      "##سرح": 1324,
      "##ابعه ل": 1325,
      "## سم": 1326,
      "##ات الس": 1327,
      "##عامل": 1328,
      "## من قبل": 1329,
      "## لا ": 1330,
      "##ه مثل": 1331,
      "##اثر": 1332,
      "## الض": 1333,
      "## في عام 19": 1334,
      "##ي بال": 1335,
      "##ما ب": 1336,
      "##نامج": 1337,
      "##سيم": 1338,
      "##حين ": 1339,
      "##ا في ا": 1340,
      "##استخدام": 1341,
      "##صد": 1342,
      "## 199": 1343,
      "##عاما ": 1344,
      "##قتل": 1345,
      "##يا ا": 1346,
      "##ورد": 1347,
      "##ن م": 1348,
      "##كذلك": 1349,
      "##ريع": 1350,
      "## تلك": 1351,
      "##وقف": 1352,
      "##اسلام": 1353,
      "## اذ": 1354,
      "## انه ": 1355,
      "##ي وم": 1356,
      "##يذ": 1357,
      "##اتج": 1358,
      "##ي من ال": 1359,
      "##وحيد": 1360,
      "##اصم": 1361,
      "##غالب": 1362,
      "##يه ه": 1363,
      "##نظيم": 1364,
      "##علام": 1365,
      "##قد ا": 1366,
      "##كوريا ال": 1367,
      "##صبحت": 1368,
      "##نسب": 1369,
      "## الانس": 1370,
      "##يير": 1371,
      "##ا ح": 1372,
      "## لي": 1373,
      "##ان ل": 1374,
      "##ات في ": 1375,
      "##ادم": 1376,
      "## فل": 1377,
      "##تحدث": 1378,
      "##طاع": 1379,
      "##خم": 1380,
      "##زيز": 1381,
      "##ه\r\n": 1382,
      "##ولى": 1383,
      "##قليد": 1384,
      "##وي ": 1385,
      "## وحد": 1386,
      "##ريل": 1387,
      "##بريطان": 1388,
      "##بط": 1389,
      "##ما في ": 1390,
      "## مليون ": 1391,
      "##حف": 1392,
      "##ين الخامسه وال": 1393,
      "##تقع": 1394,
      "## ور": 1395,
      "##عراق": 1396,
      "##سطين": 1397,
      "##عاما ونسبه ": 1398,
      "## حول": 1399,
      "##وزع": 1400,
      "##ه من ا": 1401,
      "## ذكر": 1402,
      "## الابجديه الكور": 1403,
      "##سلط": 1404,
      "##عهد": 1405,
      "##ابط": 1406,
      "## جز": 1407,
      "## القو": 1408,
      "## عام 200": 1409,
      "##زار": 1410,
      "## وبلغ عدد": 1411,
      "## فان": 1412,
      "##غلب": 1413,
      "##23": 1414,
      "##ريت": 1415,
      "##ونس": 1416,
      "##يعتبر": 1417,
      "##واسط": 1418,
      "##تحقيق": 1419,
      "##ن ب": 1420,
      "## من الامريك": 1421,
      "##جب": 1422,
      "## الانت": 1423,
      "##نبات": 1424,
      "##يوس": 1425,
      "## ون": 1426,
      "## عاد": 1427,
      "## الميلاد": 1428,
      "##ها على": 1429,
      "## البحر": 1430,
      "## كيلومتر": 1431,
      "##يص": 1432,
      "##كيل": 1433,
      "##ريطان": 1434,
      "##فراد": 1435,
      "##قتصاد": 1436,
      "## احت": 1437,
      "## منذ": 1438,
      "## 17": 1439,
      "##ه هو": 1440,
      "##ا ج": 1441,
      "## لم": 1442,
      "## البواب": 1443,
      "##حكوم": 1444,
      "##11": 1445,
      "##واعد": 1446,
      "##يوت": 1447,
      "## حس": 1448,
      "##تهم": 1449,
      "##ه وم": 1450,
      "##ين الى": 1451,
      "##انغل": 1452,
      "## المش": 1453,
      "##خف": 1454,
      "## الاسم": 1455,
      "##26": 1456,
      "##وذ": 1457,
      "##نها ": 1458,
      "##اهد": 1459,
      "## الوقت": 1460,
      "##حلول": 1461,
      "## علم": 1462,
      "##طح": 1463,
      "##ذين ": 1464,
      "##شعب": 1465,
      "## الوطن": 1466,
      "##طوير": 1467,
      "##رين": 1468,
      "## دور": 1469,
      "##تمام": 1470,
      "## هناك": 1471,
      "##تبط": 1472,
      "## وح": 1473,
      "##ضد": 1474,
      "## انواع": 1475,
      "##ها الم": 1476,
      "##فن": 1477,
      "##ستقبل": 1478,
      "##ها من ": 1479,
      "## شكل": 1480,
      "## 15": 1481,
      "## الحال": 1482,
      "##ه القدم": 1483,
      "##يا في ": 1484,
      "## قو": 1485,
      "##ركب": 1486,
      "##شل": 1487,
      "##ادس": 1488,
      "## اليم": 1489,
      "## الاخرى": 1490,
      "##ستين ": 1491,
      "##وث": 1492,
      "## كر": 1493,
      "## المجموع": 1494,
      "##يال": 1495,
      "## والت": 1496,
      "## اساس": 1497,
      "##محافظ": 1498,
      "##28": 1499,
      "## شر": 1500,
      "##ه الا": 1501,
      "## ما ب": 1502,
      "##يوان": 1503,
      "## الجز": 1504,
      "##عرق": 1505,
      "##قسم": 1506,
      "##ات الع": 1507,
      "##رابعه وال": 1508,
      "##سجل": 1509,
      "##صم": 1510,
      "##خدم": 1511,
      "##اجر": 1512,
      "## الحكوم": 1513,
      "##ترون": 1514,
      "##ها في ال": 1515,
      "##صيل": 1516,
      "##جمهور": 1517,
      "##من الم": 1518,
      "##ه حيث": 1519,
      "##ه عند": 1520,
      "##قم": 1521,
      "##عام 18": 1522,
      "##اتين": 1523,
      "##صالح": 1524,
      "## الوسط": 1525,
      "##وش": 1526,
      "##ه ان ": 1527,
      "##جزير": 1528,
      "## شريك": 1529,
      "## لت": 1530,
      "##ا مع": 1531,
      "## من الاسر": 1532,
      "##الك": 1533,
      "## يتم": 1534,
      "##قدس": 1535,
      "##يه في الم": 1536,
      "##يما ": 1537,
      "## شرك": 1538,
      "##جيش": 1539,
      "## متوسط": 1540,
      "##زد": 1541,
      "##ذات": 1542,
      "##دب": 1543,
      "## فتر": 1544,
      "##تين ": 1545,
      "##افر": 1546,
      "##مبر": 1547,
      "##ضار": 1548,
      "## امر": 1549,
      "## من خلال": 1550,
      "##يهود": 1551,
      "##يوب": 1552,
      "## بها ": 1553,
      "##تفع": 1554,
      "##ويت": 1555,
      "##ا وم": 1556,
      "##انيه ال": 1557,
      "## لدي": 1558,
      "##اسيس": 1559,
      "## العديد من ال": 1560,
      "## بالم": 1561,
      "##خفض": 1562,
      "##خصص": 1563,
      "##يه مثل": 1564,
      "## متر": 1565,
      "## لف": 1566,
      "## ست": 1567,
      "## يد": 1568,
      "## انها ": 1569,
      "##ه الكوري": 1570,
      "## نشر": 1571,
      "##يميا ": 1572,
      "##يدر": 1573,
      "##عصر": 1574,
      "##هاد": 1575,
      "##ه الثان": 1576,
      "##انش": 1577,
      "##خذ": 1578,
      "## بسبب": 1579,
      "##يروس": 1580,
      "## دون وجود": 1581,
      "##ه عل": 1582,
      "##قى": 1583,
      "##ها معيل": 1584,
      "##حديث": 1585,
      "##طرق": 1586,
      "## دون وجود شريك": 1587,
      "##هول": 1588,
      "##ي ك": 1589,
      "##ازم": 1590,
      "##ت ل": 1591,
      "##زو": 1592,
      "##ظل": 1593,
      "##نط": 1594,
      "##اناث": 1595,
      "## للم": 1596,
      "##دارس": 1597,
      "## الغرب": 1598,
      "##يمكن ان ": 1599,
      "##صناع": 1600,
      "## اعل": 1601,
      "##سير": 1602,
      "##قوم": 1603,
      "##خمس": 1604,
      "##ارق": 1605,
      "##40": 1606,
      "##نطق": 1607,
      "## اخرى": 1608,
      "##بطول": 1609,
      "##الف": 1610,
      "## السياس": 1611,
      "## الفل": 1612,
      "##عق": 1613,
      "## بينما ": 1614,
      "## لم ي": 1615,
      "## ابو": 1616,
      "##يه وب": 1617,
      "##ين او": 1618,
      "##حدد": 1619,
      "##سطس": 1620,
      "##ت م": 1621,
      "## البعض": 1622,
      "## الارض": 1623,
      "##ظاهر": 1624,
      "##شير": 1625,
      "## اف": 1626,
      "##يه س": 1627,
      "##جمهو": 1628,
      "##فصل": 1629,
      "## الاش": 1630,
      "## الذي ا": 1631,
      "## اصبح": 1632,
      "##حزب": 1633,
      "##طلاق": 1634,
      "##ضح": 1635,
      "##ظام": 1636,
      "##صغير": 1637,
      "##ارت": 1638,
      "##وفمبر": 1639,
      "##دا ": 1640,
      "## خاص": 1641,
      "##طويل": 1642,
      "##وصف": 1643,
      "##ضمن ": 1644,
      "##حول": 1645,
      "##سخ": 1646,
      "##قديم": 1647,
      "## رب": 1648,
      "##و و": 1649,
      "## عديد": 1650,
      "##فز": 1651,
      "##براير": 1652,
      "##تمل": 1653,
      "##نا": 1654,
      "## اكبر": 1655,
      "##ا ات": 1656,
      "## عا ل": 1657,
      "## عليها ": 1658,
      "## الاح": 1659,
      "## نوع": 1660,
      "##براطوري": 1661,
      "##بارا": 1662,
      "##سرع": 1663,
      "##صط": 1664,
      "##يكل": 1665,
      "## اقل": 1666,
      "##افع": 1667,
      "##ترتيب": 1668,
      "##صلاح": 1669,
      "##ني ": 1670,
      "##زيد": 1671,
      "##رع": 1672,
      "## 198": 1673,
      "##يان ": 1674,
      "##روس": 1675,
      "## باسم": 1676,
      "## ير": 1677,
      "## التركيب": 1678,
      "##ارز": 1679,
      "##شروع": 1680,
      "##ه اب": 1681,
      "## 100": 1682,
      "##يه الس": 1683,
      "##ا بعد": 1684,
      "##قراط": 1685,
      "## فقد": 1686,
      "##اعر": 1687,
      "## 13": 1688,
      "##شت": 1689,
      "## على م": 1690,
      "##يو 201": 1691,
      "##علوم": 1692,
      "##ت ال": 1693,
      "## الذين ": 1694,
      "##جعل": 1695,
      "##عدم": 1696,
      "##بيض": 1697,
      "## 197": 1698,
      "##هذه الم": 1699,
      "##فيل": 1700,
      "## يت": 1701,
      "##صنع": 1702,
      "##47": 1703,
      "##كامل": 1704,
      "## اح": 1705,
      "##وحد": 1706,
      "## اكثر من ": 1707,
      "##افي ": 1708,
      "## فيما ": 1709,
      "##يهم": 1710,
      "## الاجتماع": 1711,
      "##43": 1712,
      "##هي ال": 1713,
      "##ت في ": 1714,
      "##ذكور": 1715,
      "##ه واحد": 1716,
      "## مستوى": 1717,
      "##قان": 1718,
      "##غان": 1719,
      "##غاز": 1720,
      "## حوالي ": 1721,
      "##لند": 1722,
      "## يون": 1723,
      "## جانب": 1724,
      "##ه لا ": 1725,
      "##شد": 1726,
      "##اقل": 1727,
      "##سع": 1728,
      "## الشرق": 1729,
      "##اكثر": 1730,
      "## عن طريق": 1731,
      "##ارات": 1732,
      "##اول مر": 1733,
      "##تمبر": 1734,
      "## سبيل الم": 1735,
      "##ه الج": 1736,
      "##افس": 1737,
      "##29": 1738,
      "##صري": 1739,
      "## وان": 1740,
      "##تحديد": 1741,
      "##في الم": 1742,
      "##ولوج": 1743,
      "## شب": 1744,
      "## ث": 1745,
      "##هي ا": 1746,
      "##يعرف": 1747,
      "##ه السكانيه ": 1748,
      "##لب": 1749,
      "##ظيم": 1750,
      "##ا ان ال": 1751,
      "##تفاع": 1752,
      "##سج": 1753,
      "##عا ل": 1754,
      "##ي من": 1755,
      "##فرق": 1756,
      "##ى ب": 1757,
      "## الامر": 1758,
      "## ضمن ": 1759,
      "## سبيل المثال": 1760,
      "##ن و": 1761,
      "## وكانت": 1762,
      "##هير": 1763,
      "## التر": 1764,
      "##ون و": 1765,
      "##ه تم": 1766,
      "##احب": 1767,
      "## اشهر": 1768,
      "##فع": 1769,
      "##ينت": 1770,
      "##جلد": 1771,
      "##ي للسكان ": 1772,
      "##حسب تعداد": 1773,
      "##هذا ": 1774,
      "##ذو": 1775,
      "## لان": 1776,
      "## المنطق": 1777,
      "##نظم": 1778,
      "## وق": 1779,
      "##وزع التركيب": 1780,
      "##شعر": 1781,
      "## ولكن ": 1782,
      "## الحديث": 1783,
      "## الدم": 1784,
      "##48": 1785,
      "##ي وت": 1786,
      "## منت": 1787,
      "##سد": 1788,
      "##ناح": 1789,
      "##ين وت": 1790,
      "##ي الذي ": 1791,
      "##علاج": 1792,
      "##سبع": 1793,
      "##ه حتى": 1794,
      "##ينغ": 1795,
      "##تاح": 1796,
      "##طال": 1797,
      "##شق": 1798,
      "##براطور": 1799,
      "##ميز": 1800,
      "## الاوروب": 1801,
      "##ريس": 1802,
      "##ستمر": 1803,
      "##جاب": 1804,
      "## فقط": 1805,
      "## حسب": 1806,
      "## السلط": 1807,
      "##اوم": 1808,
      "##مب": 1809,
      "## الثالث": 1810,
      "##عروف": 1811,
      "##عناصر": 1812,
      "## وهي ": 1813,
      "##حمل": 1814,
      "##نم": 1815,
      "## ومع": 1816,
      "##سبان": 1817,
      "##عندما ": 1818,
      "##ن ا": 1819,
      "## وتوزع التركيب": 1820,
      "## ان ت": 1821,
      "##نص": 1822,
      "## معظم": 1823,
      "## مارس": 1824,
      "## رسم": 1825,
      "##ايد": 1826,
      "## افريق": 1827,
      "## اليوم": 1828,
      "##يا ل": 1829,
      "##ذي ا": 1830,
      "## واست": 1831,
      "##ندر": 1832,
      "## الطبيع": 1833,
      "##سال": 1834,
      "##نقل": 1835,
      "##ه وقد": 1836,
      "##تحرير": 1837,
      "## على ا": 1838,
      "##ي ول": 1839,
      "## منطق": 1840,
      "##ى م": 1841,
      "## لكن ": 1842,
      "##غراض": 1843,
      "## الاتحاد": 1844,
      "##علاق": 1845,
      "##خلف": 1846,
      "##حوالي ": 1847,
      "##زيم": 1848,
      "## المسلم": 1849,
      "##199": 1850,
      "##ما في ذلك": 1851,
      "##ه للم": 1852,
      "##يه\r\n": 1853,
      "##شح": 1854,
      "## يعيش": 1855,
      "##اهل": 1856,
      "##لال": 1857,
      "##شهد": 1858,
      "##منت": 1859,
      "##قلال": 1860,
      "##كون ال": 1861,
      "##يه حيث": 1862,
      "##ه وفي ": 1863,
      "##حافظ": 1864,
      "##رفض": 1865,
      "## قال": 1866,
      "## الخاص": 1867,
      "##خصوص": 1868,
      "##طع": 1869,
      "##طالب": 1870,
      "##حصل": 1871,
      "## الى م": 1872,
      "##يه بعد": 1873,
      "##ي للم": 1874,
      "##ونم": 1875,
      "##ظهور": 1876,
      "## سن": 1877,
      "##يمكن": 1878,
      "##ساس": 1879,
      "## تحت سن الثامنه عشر": 1880,
      "##بي ": 1881,
      "##60": 1882,
      "## كثير": 1883,
      "## كان ل": 1884,
      "## نحو": 1885,
      "##معنى": 1886,
      "## ضد": 1887,
      "## الاهل": 1888,
      "## التع": 1889,
      "## حم": 1890,
      "## الهند": 1891,
      "##عام 199": 1892,
      "##امير": 1893,
      "##جانب": 1894,
      "##ات في ال": 1895,
      "## الامريك": 1896,
      "##قياد": 1897,
      "## في ت": 1898,
      "##حدود": 1899,
      "##ي وفي ": 1900,
      "##يش مع": 1901,
      "## وذلك": 1902,
      "##لعب": 1903,
      "##يمن": 1904,
      "## العراق": 1905,
      "##سلح": 1906,
      "##33": 1907,
      "##برز": 1908,
      "##اخذ": 1909,
      "##ه لكل": 1910,
      "##كاس": 1911,
      "##نيس": 1912,
      "##صوت": 1913,
      "##شاف": 1914,
      "##وليك": 1915,
      "##دين ال": 1916,
      "## الشيخ": 1917,
      "##يه التي ت": 1918,
      "##نواع": 1919,
      "## احمد": 1920,
      "##ه كان ": 1921,
      "##وا ال": 1922,
      "##مرض": 1923,
      "## اعاد": 1924,
      "##كبير": 1925,
      "##ا ول": 1926,
      "##قتر": 1927,
      "##وغ": 1928,
      "## جديد": 1929,
      "##ي ي": 1930,
      "##هربا ": 1931,
      "## وا": 1932,
      "##يا وال": 1933,
      "##نفيذ": 1934,
      "## كيلومتر مربع": 1935,
      "##ي مع": 1936,
      "##طبيق": 1937,
      "##ن الم": 1938,
      "## اوروب": 1939,
      "##ه وب": 1940,
      "## القديم": 1941,
      "##يون ال": 1942,
      "## الشمال": 1943,
      "##ا فما فوق": 1944,
      "## الوحد": 1945,
      "## من الامريكيين ال": 1946,
      "## نها": 1947,
      "##ابت": 1948,
      "##تميز": 1949,
      "## عام 201": 1950,
      "##شمل": 1951,
      "## مما ": 1952,
      "##تحمل": 1953,
      "##كانت ت": 1954,
      "##لا ": 1955,
      "##عديد من ال": 1956,
      "##عاب": 1957,
      "## انتاج": 1958,
      "##واد": 1959,
      "##ا الت": 1960,
      "## ومن": 1961,
      "##سطح": 1962,
      "##خير": 1963,
      "## مد": 1964,
      "## 14": 1965,
      "##ونت": 1966,
      "## سطح": 1967,
      "##هذا الم": 1968,
      "## وكانت نسبه ": 1969,
      "## اسرا يل": 1970,
      "##ه كما ": 1971,
      "##وسيقى": 1972,
      "## المتحرك": 1973,
      "## منها ": 1974,
      "##صل الى": 1975,
      "## الكثاف": 1976,
      "##ه حسب": 1977,
      "##وظ": 1978,
      "##شيخ": 1979,
      "##مرور": 1980,
      "##اهيم": 1981,
      "##رين ال": 1982,
      "## اغسطس": 1983,
      "##ن وال": 1984,
      "##اظ": 1985,
      "##تيار": 1986,
      "##قرار": 1987,
      "##طا ر": 1988,
      "##حث": 1989,
      "##احظ": 1990,
      "##ديمقراط": 1991,
      "## عالم": 1992,
      "##عام 2004": 1993,
      "##ه من الم": 1994,
      "##فتوح": 1995,
      "##تحتو": 1996,
      "## الشر": 1997,
      "## حال": 1998,
      "##وفيت": 1999,
      "##ت ا": 2000,
      "##واقع": 2001,
      "##ه ما ": 2002,
      "##يقوم": 2003,
      "##نز": 2004,
      "##بول": 2005,
      "## تاريخ": 2006,
      "##حيان": 2007,
      "##ا وكانت نسبه ": 2008,
      "## طول": 2009,
      "## 65": 2010,
      "## اكتوبر": 2011,
      "##مز": 2012,
      "## عم": 2013,
      "## الرابع": 2014,
      "## يناير": 2015,
      "## بعضهم": 2016,
      "## ديسمبر": 2017,
      "## سكان ": 2018,
      "## والذي ": 2019,
      "## العمر": 2020,
      "##ترف": 2021,
      "## اعمال": 2022,
      "##قياس": 2023,
      "##وا ب": 2024,
      "##ريض": 2025,
      "##اضر": 2026,
      "##موسم": 2027,
      "## جمع": 2028,
      "## المركز": 2029,
      "##ورج": 2030,
      "## بت": 2031,
      "## الحر": 2032,
      "## الجيش": 2033,
      "## عكس": 2034,
      "## يول": 2035,
      "## الكبير": 2036,
      "##دينه ب": 2037,
      "##عبر": 2038,
      "##ثى": 2039,
      "##ه الد": 2040,
      "##جنس": 2041,
      "## تقريب": 2042,
      "## قبل الميلاد": 2043,
      "## العرق": 2044,
      "##قاوم": 2045,
      "##رتب": 2046,
      "## اد": 2047,
      "##ها من ال": 2048,
      "##كتور": 2049,
      "##طيع": 2050,
      "##ذج": 2051,
      "##ا وت": 2052,
      "##اتف": 2053,
      "##تحول": 2054,
      "## طريق": 2055,
      "## وبعد": 2056,
      "## هي ا": 2057,
      "##ي د": 2058,
      "##يوع": 2059,
      "##سابق": 2060,
      "##غول": 2061,
      "##ذاك": 2062,
      "## ومن ": 2063,
      "##اثوليك": 2064,
      "##كاف": 2065,
      "##ه لم ي": 2066,
      "## هذه الم": 2067,
      "##هندس": 2068,
      "##ختلط": 2069,
      "##ناس": 2070,
      "##م الم": 2071,
      "## البل": 2072,
      "## فبراير": 2073,
      "##ه بم": 2074,
      "## شعب": 2075,
      "##الج": 2076,
      "## المب": 2077,
      "##38": 2078,
      "##سيطر": 2079,
      "##خول": 2080,
      "## سور": 2081,
      "##ه بن ": 2082,
      "## الخط": 2083,
      "##ه وهو": 2084,
      "## الساكن": 2085,
      "##لغه ال": 2086,
      "##جاز": 2087,
      "##ه غير": 2088,
      "##يجب": 2089,
      "## نسمه ب": 2090,
      "##ه انواع": 2091,
      "##كنيه ": 2092,
      "## ابريل": 2093,
      "## مساح": 2094,
      "##قا ل": 2095,
      "## العديد": 2096,
      "## نت": 2097,
      "##ظمه ال": 2098,
      "##حيح": 2099,
      "##بلغت": 2100,
      "## مختلف": 2101,
      "## مايو": 2102,
      "##ستور": 2103,
      "##تمثل": 2104,
      "## نوفمبر": 2105,
      "##ي دي": 2106,
      "##شترك": 2107,
      "##صرف": 2108,
      "##شاب": 2109,
      "##ظهرت": 2110,
      "##نشر": 2111,
      "##ويه ": 2112,
      "##تقال": 2113,
      "## ميل2": 2114,
      "##كام": 2115,
      "##اجه": 2116,
      "##تاسع": 2117,
      "## الكثير": 2118,
      "##سول": 2119,
      "##اديم": 2120,
      "##ا عن ": 2121,
      "##ات التي ": 2122,
      "## ولك": 2123,
      "## تمر": 2124,
      "##موذج": 2125,
      "##ه الاز": 2126,
      "##يا ب": 2127,
      "## و و و و": 2128,
      "## احص": 2129,
      "##ه كم": 2130,
      "##ريه ا": 2131,
      "## تل": 2132,
      "##ه والم": 2133,
      "## المسيح": 2134,
      "##سيد": 2135,
      "##زهر": 2136,
      "## يمكن ان ": 2137,
      "## حق": 2138,
      "## داخل": 2139,
      "## الروم": 2140,
      "## الدين ": 2141,
      "##ي ج": 2142,
      "##ن في ": 2143,
      "##كتوبر": 2144,
      "##يقول": 2145,
      "##واصل": 2146,
      "##فاعل": 2147,
      "##70": 2148,
      "##ثيل": 2149,
      "##ي لك": 2150,
      "##فكر": 2151,
      "## ثر": 2152,
      "##مارس": 2153,
      "##جاج": 2154,
      "##ه ثم": 2155,
      "## والد": 2156,
      "##معظم": 2157,
      "##رسم": 2158,
      "##اجتم": 2159,
      "##عن ال": 2160,
      "## العزيز": 2161,
      "##بين": 2162,
      "##زخ": 2163,
      "## الكور": 2164,
      "## سبتمبر": 2165,
      "##ها الا": 2166,
      "##ستقل": 2167,
      "## هذا الم": 2168,
      "##198": 2169,
      "## تعريف": 2170,
      "##يطال": 2171,
      "##اخير": 2172,
      "##يطر": 2173,
      "##ودي": 2174,
      "##ات ي": 2175,
      "##كنيس": 2176,
      "## ملك": 2177,
      "## لاحق": 2178,
      "## الجديد": 2179,
      "##35": 2180,
      "##اتر": 2181,
      "##ه بين ال": 2182,
      "## اير": 2183,
      "##ه مر": 2184,
      "## امام": 2185,
      "## اما متوسط": 2186,
      "##يبر": 2187,
      "## الوز": 2188,
      "##ادار": 2189,
      "## للتف": 2190,
      "##كوريا الجنوب": 2191,
      "##يه ي": 2192,
      "## المقال": 2193,
      "##جنب": 2194,
      "##ابر": 2195,
      "##نوع من ال": 2196,
      "##خز": 2197,
      "##ي ان ": 2198,
      "##ويس": 2199,
      "## من غير": 2200,
      "##اطنين ": 2201,
      "##قليل": 2202,
      "##46": 2203,
      "##فعل": 2204,
      "## مجلس": 2205,
      "## كو": 2206,
      "##ون من ال": 2207,
      "##ازل": 2208,
      "##صغر": 2209,
      "##ان ت": 2210,
      "##طرف": 2211,
      "## على ت": 2212,
      "## انتقل": 2213,
      "##ريج": 2214,
      "## نش": 2215,
      "## الشخص": 2216,
      "## امريك": 2217,
      "##فه": 2218,
      "##جسم": 2219,
      "##خال": 2220,
      "##تراك": 2221,
      "##ه الاسلام": 2222,
      "## الاع": 2223,
      "##احث": 2224,
      "##ويه ال": 2225,
      "##ه عن ال": 2226,
      "##زدوج": 2227,
      "##عديد": 2228,
      "## واقع": 2229,
      "##ين من ": 2230,
      "## التاريخ": 2231,
      "##وسف": 2232,
      "##ديق": 2233,
      "##ه است": 2234,
      "##ه قدر": 2235,
      "## شرق": 2236,
      "## على ال": 2237,
      "##جزر": 2238,
      "##وسع": 2239,
      "## السن": 2240,
      "##ان الم": 2241,
      "## 196": 2242,
      "##يه والم": 2243,
      "##وي ال": 2244,
      "##رد": 2245,
      "##عقد": 2246,
      "## اصبحت": 2247,
      "## كثاف": 2248,
      "## نج": 2249,
      "## سياس": 2250,
      "##اقب": 2251,
      "##ي بعد": 2252,
      "##يتر": 2253,
      "##بحر": 2254,
      "##كانوا ": 2255,
      "##ه الاست": 2256,
      "##اتل": 2257,
      "##ي ام": 2258,
      "## من العمر": 2259,
      "##ات الح": 2260,
      "##ه او الم": 2261,
      "##غيير": 2262,
      "## ادار": 2263,
      "##ه كل": 2264,
      "## الجنوب": 2265,
      "## عليه ": 2266,
      "## نسمه لكل": 2267,
      "##31": 2268,
      "##قد ي": 2269,
      "##سيط": 2270,
      "##45": 2271,
      "##سوم": 2272,
      "##ور و": 2273,
      "##يها ال": 2274,
      "##ارث": 2275,
      "##انتاج": 2276,
      "##افل": 2277,
      "## اربع": 2278,
      "## التي ا": 2279,
      "## حكم": 2280,
      "##جلتر": 2281,
      "## الامير": 2282,
      "## 12": 2283,
      "##تم ت": 2284,
      "## ايضا ": 2285,
      "##ه وعدد": 2286,
      "##اجتماع": 2287,
      "## اهم": 2288,
      "##يه في م": 2289,
      "##جزا ر": 2290,
      "##وصل": 2291,
      "##ين ف": 2292,
      "## نسمه حسب": 2293,
      "## الحكم": 2294,
      "##وجب": 2295,
      "## 2014": 2296,
      "## بن عبد": 2297,
      "##ه ايض": 2298,
      "##وا ل": 2299,
      "##قلب": 2300,
      "##مار": 2301,
      "## اسب": 2302,
      "## المد": 2303,
      "##ي ن": 2304,
      "##يعمل": 2305,
      "##سليم": 2306,
      "##ه العمر": 2307,
      "##يين و": 2308,
      "##غداد": 2309,
      "##اضح": 2310,
      "##تفاق": 2311,
      "##ورت": 2312,
      "##وفي ال": 2313,
      "## جدار": 2314,
      "##ا الانجليز": 2315,
      "##زخرف": 2316,
      "##م و": 2317,
      "##زع": 2318,
      "## هي ت": 2319,
      "##هداف": 2320,
      "## الصين": 2321,
      "## اضاف": 2322,
      "##ديها ا": 2323,
      "##يابان": 2324,
      "##ويكيبيدي": 2325,
      "## الكر": 2326,
      "##يه ما ب": 2327,
      "## الحد": 2328,
      "##ي وهو": 2329,
      "## العالميه ال": 2330,
      "##يه كما ": 2331,
      "##ه توفي ": 2332,
      "##ي لا ": 2333,
      "##فرع": 2334,
      "## القادم": 2335,
      "##ريح": 2336,
      "##ه اذ": 2337,
      "##ف ه ال": 2338,
      "##49": 2339,
      "##ته ال": 2340,
      "## كال": 2341,
      "## انح": 2342,
      "## عدد سكانها ": 2343,
      "##صوص": 2344,
      "## اثن": 2345,
      "## الدين": 2346,
      "##ستان ": 2347,
      "##زياد": 2348,
      "##ي وب": 2349,
      "## المصر": 2350,
      "## البارز": 2351,
      "##ه بل": 2352,
      "## منها ل": 2353,
      "## رخ": 2354,
      "##ه الان": 2355,
      "## فقد ت": 2356,
      "##طراب": 2357,
      "## ويكيبيديا ": 2358,
      "##ه بر": 2359,
      "## الاف": 2360,
      "##ا الا ان": 2361,
      "##دفع": 2362,
      "##نغ": 2363,
      "##اخرى": 2364,
      "##تركيب": 2365,
      "##ذب": 2366,
      "##قا ": 2367,
      "##حصول": 2368,
      "## يوجد": 2369,
      "##ين على": 2370,
      "## الشعب": 2371,
      "##ي\r\n": 2372,
      "##قاد": 2373,
      "## البريطان": 2374,
      "##قا م": 2375,
      "##اقتصاد": 2376,
      "## قص": 2377,
      "##قالات و": 2378,
      "##ين في ال": 2379,
      "##اسست": 2380,
      "## التجار": 2381,
      "##جهاز": 2382,
      "##هي م": 2383,
      "##ه الامريك": 2384,
      "##ه بشكل": 2385,
      "##مده ": 2386,
      "##غار": 2387,
      "##ها بال": 2388,
      "##قوش": 2389,
      "## بعضهم البعض": 2390,
      "##ته ": 2391,
      "##دون ": 2392,
      "## الث": 2393,
      "## البلد": 2394,
      "## انثى": 2395,
      "##واج الق": 2396,
      "##رغم": 2397,
      "##ي مقال": 2398,
      "##فلسطين": 2399,
      "## اهل": 2400,
      "##خلاف": 2401,
      "## 2013": 2402,
      "## متحرك": 2403,
      "## لغ": 2404,
      "##ين بال": 2405,
      "##اصب": 2406,
      "## الاساس": 2407,
      "##37": 2408,
      "##ادب": 2409,
      "##عد من ال": 2410,
      "## منهم": 2411,
      "##خامسه والستين ": 2412,
      "## من البيض": 2413,
      "## الاقل": 2414,
      "## نسخ": 2415,
      "## الجنس": 2416,
      "##زراع": 2417,
      "##ت الم": 2418,
      "##روا": 2419,
      "##الفت": 2420,
      "## الاسره الم": 2421,
      "##واجد": 2422,
      "## ويكيبيديا ب": 2423,
      "##ي مقاله على": 2424,
      "##را": 2425,
      "##ينيات": 2426,
      "##يناير": 2427,
      "## المناطق": 2428,
      "##شاهد": 2429,
      "##سمح بال": 2430,
      "##بشر": 2431,
      "##36": 2432,
      "##ضا ": 2433,
      "##ه لت": 2434,
      "## اسره ": 2435,
      "## لكل 100": 2436,
      "## ضمن ف ه ال": 2437,
      "##هي ت": 2438,
      "##ضاد": 2439,
      "##ضاع": 2440,
      "##سميه ": 2441,
      "##ه لذلك": 2442,
      "##انتخاب": 2443,
      "##بلغ من العمر": 2444,
      "## 11": 2445,
      "##مناطق": 2446,
      "## راس": 2447,
      "## الاسيو": 2448,
      "##ف ه العمر": 2449,
      "##انك": 2450,
      "##يا لل": 2451,
      "## بالاضافه الى": 2452,
      "## العا لات": 2453,
      "##مج": 2454,
      "##ولايه ": 2455,
      "## ولد": 2456,
      "## صح": 2457,
      "## الكلي لل": 2458,
      "## عا له م": 2459,
      "## يوليو": 2460,
      "##ه لم": 2461,
      "##طلاب": 2462,
      "## الرياض": 2463,
      "##ا ش": 2464,
      "## الاخر": 2465,
      "##بروت": 2466,
      "##ه لتحقيق": 2467,
      "##برنامج": 2468,
      "## حرك": 2469,
      "##وجه": 2470,
      "##نا ال": 2471,
      "##تغال": 2472,
      "##فهوم": 2473,
      "##ندي": 2474,
      "##ون وال": 2475,
      "##ه بين ": 2476,
      "## والتي ": 2477,
      "##تماد": 2478,
      "## الابواب": 2479,
      "## نسمه بحسب تعداد": 2480,
      "##فيد": 2481,
      "##ميم": 2482,
      "##ينج": 2483,
      "##مع بعضهم البعض": 2484,
      "##قرر": 2485,
      "## وبلغ عدد الاسر": 2486,
      "##0 وبلغ عدد الاسر": 2487,
      "## فريق": 2488,
      "##عاما فما فوق": 2489,
      "##المان": 2490,
      "##ه في الف ه العمر": 2491,
      "## كانت ما ب": 2492,
      "## كانت واقع": 2493,
      "## كانت ضمن ف ه ال": 2494,
      "##تالف": 2495,
      "## اسره وعدد": 2496,
      "##ين الخامسه والاربع": 2497,
      "## الوسطي للسكان ": 2498,
      "## يونيو": 2499,
      "## العمر الوسطي للسكان ": 2500,
      "##يه ما بين الخامسه وال": 2501,
      "## عا له مقيم": 2502,
      "##ه في الف ه العمريه ما بين الخامسه وال": 2503,
      "## كانت ما بين الخامسه والاربع": 2504,
      "## كانت واقعه في الف ه العمريه ما بين الخامسه وال": 2505,
      "## اسره وعدد العا لات": 2506,
      "##نيو": 2507,
      "## في س": 2508,
      "## شتى": 2509,
      "## عاما وكانت نسبه ": 2510,
      "## تعيش مع": 2511,
      "## بلغ العمر الوسطي للسكان ": 2512,
      "##بلغت نسب": 2513,
      "##كري": 2514,
      "## يقام": 2515,
      "## بين الثامنه عشر": 2516,
      "## تعداد سكانها ": 2517,
      "## منها لديها ا": 2518,
      "##ت على": 2519,
      "## المجموع الكلي لل": 2520,
      "##تيش": 2521,
      "##صفر": 2522,
      "##ديسمبر": 2523,
      "##صراع": 2524,
      "##وضوع": 2525,
      "##ي في ا": 2526,
      "##هم وبلغت نسب": 2527,
      "##ات فبلغ": 2528,
      "##طفال تحت سن الثامنه عشر": 2529,
      "## من اصل المجموع الكلي لل": 2530,
      "## كان لدي": 2531,
      "##ه الازواج الق": 2532,
      "## من غير العا ل": 2533,
      "##اطنين مع بعضهم البعض": 2534,
      "## اسره كانت نسبه ": 2535,
      "## تعيش معهم وبلغت نسب": 2536,
      "## منها لديها اطفال تحت سن الثامنه عشر": 2537,
      "## من اصل المجموع الكلي للاسر": 2538,
      "##ه الازواج القاطنين مع بعضهم البعض": 2539,
      "## تعيش معهم وبلغت نسبه الازواج القاطنين مع بعضهم البعض": 2540,
      "## منها لديها اطفال تحت سن الثامنه عشر تعيش معهم وبلغت نسبه الازواج القاطنين مع بعضهم البعض": 2541,
      "## لاعب": 2542,
      "## عرض": 2543,
      "##لك التي ت": 2544,
      "## الفتر": 2545,
      "## الرغم من ": 2546,
      "##يران": 2547,
      "##بدا ال": 2548,
      "##ملكه الم": 2549,
      "## بين الثامنه عشر وال": 2550,
      "## المحيط": 2551,
      "##كثير من ال": 2552,
      "##سجلت": 2553,
      "##عط": 2554,
      "## الثلاث": 2555,
      "## نادي": 2556,
      "## الكوري": 2557,
      "##ه كبير": 2558,
      "##غراف": 2559,
      "## قدر": 2560,
      "##ت الى": 2561,
      "## المحل": 2562,
      "## تن": 2563,
      "##اعمال": 2564,
      "##صلب": 2565,
      "## 30": 2566,
      "##بحث": 2567,
      "##بيل": 2568,
      "##اعتبار": 2569,
      "##قاطنين ": 2570,
      "## العا لات فبلغ": 2571,
      "##عيشيه ": 2572,
      "## حجم الاسره الم": 2573,
      "## حجم العا لات فبلغ": 2574,
      "## متوسط حجم الاسره الم": 2575,
      "## اما متوسط حجم العا لات فبلغ": 2576,
      "## متوسط حجم الاسره المعيشيه ": 2577,
      "##وه": 2578,
      "##غب": 2579,
      "##ضب": 2580,
      "## الكثافه السكانيه ": 2581,
      "## مركب": 2582,
      "##يه هو": 2583,
      "##بريل": 2584,
      "##جيل": 2585,
      "## 25": 2586,
      "## لكل 100 انثى": 2587,
      "##دون": 2588,
      "##دوري": 2589,
      "##32": 2590,
      "##ا ص": 2591,
      "## من القاطنين ": 2592,
      "##يتعلق": 2593,
      "## شهر": 2594,
      "##تحت سن الثامنه عشر": 2595,
      "## من القاطنين تحت سن الثامنه عشر": 2596,
      "##اشر": 2597,
      "##كوري": 2598,
      "##اتها ": 2599,
      "##يكون ال": 2600,
      "## كم2": 2601,
      "## من القاطنين تحت سن الثامنه عشر وكانت نسبه ": 2602,
      "##ايل": 2603,
      "## تت": 2604,
      "## الحم": 2605,
      "##كتل": 2606,
      "##ه عشر": 2607,
      "## الرغم من": 2608,
      "##ناد": 2609,
      "##ستون ": 2610,
      "##ه مبنى": 2611,
      "## نطق": 2612,
      "## بلد": 2613,
      "##شاكل": 2614,
      "##ات من الاناث": 2615,
      "## من الاسر كان لدي": 2616,
      "##ها معيلات من الاناث": 2617,
      "## من اصل المجموع الكلي للاسر ونسبه ": 2618,
      "## من الاسر كان لديها معيلات من الاناث": 2619,
      "## من الاسر كان لديها معيلات من الاناث دون وجود شريك": 2620,
      "##يها ا": 2621,
      "##ى ل": 2622,
      "##ذور": 2623,
      "## مقابل": 2624,
      "##اتهم": 2625,
      "## بن ال": 2626,
      "##يكب": 2627,
      "## تقع": 2628,
      "##نصف": 2629,
      "##تعليم": 2630,
      "##عار": 2631,
      "##اليه ": 2632,
      "##ترجم": 2633,
      "##عبير": 2634,
      "##حاث": 2635,
      "##ه بمتوسط": 2636,
      "##اصبح": 2637,
      "##راع": 2638,
      "##صدار": 2639,
      "## الحرك": 2640,
      "##يعتقد": 2641,
      "##تاسع عشر": 2642,
      "##ه قدره ": 2643,
      "##وسم": 2644,
      "## الثور": 2645,
      "##ه الدول": 2646,
      "## مصطلح": 2647,
      "##ه ار": 2648,
      "## في ح": 2649,
      "##ه العالم": 2650,
      "##جهز": 2651,
      "##حين سجلت": 2652,
      "## جه": 2653,
      "## الصوت": 2654,
      "## جميع الاسر": 2655,
      "##نحو": 2656,
      "##فصيل": 2657,
      "##وفر": 2658,
      "## لعب": 2659,
      "## الحروف": 2660,
      "##ه في العمار": 2661,
      "##ات السكنيه ": 2662,
      "## الوحدات السكنيه ": 2663,
      "## 65 عام": 2664,
      "##وند": 2665,
      "##ه الملك": 2666,
      "## النفس": 2667,
      "الباب": 2668,
      "## وحده بمتوسط": 2669,
      "## وبلغ عدد الوحدات السكنيه ": 2670,
      "## وتوزع التركيب العرق": 2671,
      "## كثافه قدره ": 2672,
      "##حين سجلت الكثافه السكانيه ": 2673,
      "## وحده بمتوسط كثافه قدره ": 2674,
      "##وان ": 2675,
      "##كث": 2676,
      "## ابر": 2677,
      "##انها ": 2678,
      "## حر": 2679,
      "##ه فتز": 2680,
      "##قصير": 2681,
      "##ه انواع عديد": 2682,
      "## الهو": 2683,
      "## البلاد": 2684,
      "##اضي ال": 2685,
      "##ات تالفت": 2686,
      "## من اصل جميع الاسر": 2687,
      "## من غير العا لات تالفت": 2688,
      "## من غير العا لات تالفت نسبه ": 2689,
      "##والد": 2690,
      "## او البواب": 2691,
      "##واخر": 2692,
      "## وتستقبل": 2693,
      "##ات التي ت": 2694,
      "## نظر": 2695,
      "##بنى\r\n": 2696,
      "##ين الى المدين": 2697,
      "##مرور عبر": 2698,
      "## للتفتيش": 2699,
      "## جدار او": 2700,
      "## هي تلك التي ت": 2701,
      "## فقد تستخدم": 2702,
      "##بلغ من العمر 65 عام": 2703,
      "##يزيا ": 2704,
      "## وله انواع عديد": 2705,
      "##ه او للتفتيش": 2706,
      "## مثلا الا ان": 2707,
      "##باغراض": 2708,
      "## بلغ عدد الاسر": 2709,
      "## ليسمح بال": 2710,
      "## البوابه لتحقيق": 2711,
      "##جمهوريه ال": 2712,
      "## اشهر الابواب": 2713,
      "##ين وتزخرف": 2714,
      "##عناصر البارز": 2715,
      "## سور وله انواع عديد": 2716,
      "## تعريفه او للتفتيش": 2717,
      "##ه او المبنى\r\n": 2718,
      "##ه توفي باغراض": 2719,
      "## القادمين الى المدين": 2720,
      "##عد من العناصر البارز": 2721,
      "## شتى فقد تستخدم": 2722,
      "## يقام ليسمح بال": 2723,
      "##ه مبنى يقام ليسمح بال": 2724,
      "##ه في العماره فتز": 2725,
      "الباب او البواب": 2726,
      "## وتستقبل القادمين الى المدين": 2727,
      "##مرور عبر جدار او": 2728,
      "## هي تلك التي تعد من العناصر البارز": 2729,
      "## مثلا الا ان اشهر الابواب": 2730,
      "## البوابه لتحقيق تعريفه او للتفتيش": 2731,
      "##ين وتزخرف وتستقبل القادمين الى المدين": 2732,
      "## سور وله انواع عديده توفي باغراض": 2733,
      "## شتى فقد تستخدم البوابه لتحقيق تعريفه او للتفتيش": 2734,
      "##ه مبنى يقام ليسمح بالمرور عبر جدار او": 2735,
      "##ه في العماره فتزين وتزخرف وتستقبل القادمين الى المدين": 2736,
      "الباب او البوابه مبنى يقام ليسمح بالمرور عبر جدار او": 2737,
      "## هي تلك التي تعد من العناصر البارزه في العماره فتزين وتزخرف وتستقبل القادمين الى المدين": 2738,
      "## مثلا الا ان اشهر الابواب هي تلك التي تعد من العناصر البارزه في العماره فتزين وتزخرف وتستقبل القادمين الى المدين": 2739,
      "## سور وله انواع عديده توفي باغراض شتى فقد تستخدم البوابه لتحقيق تعريفه او للتفتيش": 2740,
      "الباب او البوابه مبنى يقام ليسمح بالمرور عبر جدار او سور وله انواع عديده توفي باغراض شتى فقد تستخدم البوابه لتحقيق تعريفه او للتفتيش": 2741,
      "## مثلا الا ان اشهر الابواب هي تلك التي تعد من العناصر البارزه في العماره فتزين وتزخرف وتستقبل القادمين الى المدينه او المبنى\r\n": 2742,
      "الباب او البوابه مبنى يقام ليسمح بالمرور عبر جدار او سور وله انواع عديده توفي باغراض شتى فقد تستخدم البوابه لتحقيق تعريفه او للتفتيش مثلا الا ان اشهر الابواب هي تلك التي تعد من العناصر البارزه في العماره فتزين وتزخرف وتستقبل القادمين الى المدينه او المبنى\r\n": 2743,
      "##وام": 2744,
      "##نه في ": 2745,
      "##انون": 2746,
      "## 195": 2747,
      "##يه تق": 2748,
      "##يعود": 2749,
      "## الفريق": 2750,
      "## من اجل": 2751,
      "## وبلغ متوسط حجم الاسره المعيشيه ": 2752,
      "##سعود": 2753,
      "## الاحت": 2754,
      "## كتب": 2755,
      "##ون م": 2756,
      "##عبار": 2757,
      "## الطب": 2758,
      "## الناس": 2759,
      "## اك": 2760,
      "## كانت ت": 2761,
      "##يستخدم": 2762,
      "##خار": 2763,
      "##ه غ": 2764,
      "##اوح": 2765,
      "## الفرد": 2766,
      "## الفرنس": 2767,
      "##ره القدم": 2768,
      "##عاصم": 2769,
      "##حن": 2770,
      "##اليه ال": 2771,
      "##ات مع": 2772,
      "##ابجديه الكور": 2773,
      "## عدم": 2774,
      "##اطر": 2775,
      "##ه التي ا": 2776,
      "##جديه الكوري": 2777,
      "##نع": 2778,
      "## التش": 2779,
      "##ه في الا": 2780,
      "##قريه ": 2781,
      "##ت ت": 2782,
      "##مساعد": 2783,
      "##ته و": 2784,
      "##80": 2785,
      "##اكس": 2786,
      "##يه بشكل": 2787,
      "##نان": 2788,
      "##تها ال": 2789,
      "##انغ": 2790,
      "## الى ت": 2791,
      "## جامع": 2792,
      "## الجامع": 2793,
      "## الدور": 2794,
      "## النظام": 2795,
      "##عباس": 2796,
      "##حقوق": 2797,
      "##ورغ": 2798,
      "##اده ال": 2799,
      "## الجدول": 2800,
      "## غرب": 2801,
      "##حاب": 2802,
      "## مركز": 2803,
      "##اتصال": 2804,
      "##يه ان ": 2805,
      "##اوز": 2806,
      "## 2016": 2807,
      "##فيلم": 2808,
      "##ي حيث": 2809,
      "## مار": 2810,
      "## عمر": 2811,
      "##عده ا": 2812,
      "## النو": 2813,
      "## مدينه ": 2814,
      "##ين من ال": 2815,
      "## حل": 2816,
      "## حصل": 2817,
      "##دعم": 2818,
      "##75": 2819,
      "## وضع": 2820,
      "## بار": 2821,
      "##ومب": 2822,
      "## هدف": 2823,
      "## جنس": 2824,
      "##جا": 2825,
      "##90": 2826,
      "## في 19": 2827,
      "##وتو": 2828,
      "##ه ور": 2829,
      "## يقول": 2830,
      "##حيا": 2831,
      "##خطوط": 2832,
      "##ه الجديد": 2833,
      "## وغير": 2834,
      "## بق": 2835,
      "##يه وقد": 2836,
      "## بلغ عدد سكان ": 2837,
      "## المغرب": 2838,
      "##عام 2004\r\n": 2839,
      "##ياه ال": 2840,
      "##ت و": 2841,
      "## الشرك": 2842,
      "##ه كانت": 2843,
      "##ات ": 2844,
      "## والتي ت": 2845,
      "##عتمد": 2846,
      "## المج": 2847,
      "##وماس": 2848,
      "##ون ل": 2849,
      "##منذ": 2850,
      "##هيار": 2851,
      "##سكري": 2852,
      "##غالبا ما ": 2853,
      "## التابعه ل": 2854,
      "## كلم": 2855,
      "##يولوج": 2856,
      "##بق": 2857,
      "##واليد": 2858,
      "## السابق": 2859,
      "## دراس": 2860,
      "##39": 2861,
      "## جنوب": 2862,
      "##ختلاف": 2863,
      "##دفاع": 2864,
      "##ين او اكثر": 2865,
      "##بكر": 2866,
      "##اني ال": 2867,
      "##صفح": 2868,
      "##انه ": 2869,
      "##نسبه لل": 2870,
      "##41": 2871,
      "##بيت": 2872,
      "## حروف": 2873,
      "## طويل": 2874,
      "## حساب": 2875,
      "##واز": 2876,
      "##كاتب": 2877,
      "##عظم": 2878,
      "## الاصل": 2879,
      "## المنزل": 2880,
      "##عوب": 2881,
      "## الاقتصاد": 2882,
      "##ان ف": 2883,
      "##ي ان": 2884,
      "##وزيع": 2885,
      "## سر": 2886,
      "## البشر": 2887,
      "##عشرون ": 2888,
      "##وا في ": 2889,
      "##ملكه المتحد": 2890,
      "##حاول": 2891,
      "##اسك": 2892,
      "## الى ا": 2893,
      "##حتو": 2894,
      "##صين": 2895,
      "##ضرب": 2896,
      "##ا وب": 2897,
      "##ات او": 2898,
      "## الان ": 2899,
      "## القمر": 2900,
      "##معروف": 2901,
      "##يقع": 2902,
      "## ارتفاع": 2903,
      "##كوريا الشمال": 2904,
      "##يورك": 2905,
      "##هم ل": 2906,
      "## جر": 2907,
      "##قصر": 2908,
      "##96": 2909,
      "##مرحل": 2910,
      "##م المتحد": 2911,
      "##ا الل": 2912,
      "##حداث": 2913,
      "##ه انت": 2914,
      "##سرا يل": 2915,
      "## صغير": 2916,
      "##ساعد": 2917,
      "## الذي ت": 2918,
      "##طباع": 2919,
      "##راس": 2920,
      "##ه وج": 2921,
      "## حكوم": 2922,
      "##يزال": 2923,
      "## الرح": 2924,
      "##مجموع": 2925,
      "## لها ": 2926,
      "## حزب": 2927,
      "##كان ل": 2928,
      "##عتقد": 2929,
      "## ري": 2930,
      "##ياف": 2931,
      "##نيف": 2932,
      "##فا ": 2933,
      "##ايم": 2934,
      "##34": 2935,
      "##2000": 2936,
      "## المال": 2937,
      "## الساك": 2938,
      "##فلام": 2939,
      "## فان ": 2940,
      "## ابن": 2941,
      "##تفاعل": 2942,
      "##سار": 2943,
      "##رحل": 2944,
      "##ي الت": 2945,
      "## فرنس": 2946,
      "##ا كبير": 2947,
      "## طر": 2948,
      "##رجال": 2949,
      "## السم": 2950,
      "##ين لل": 2951,
      "## قليل": 2952,
      "##اطفال": 2953,
      "## من عرق": 2954,
      "## ان ي": 2955,
      "##2010": 2956,
      "##وست": 2957,
      "## مباشر": 2958,
      "## وبال": 2959,
      "##عامي ": 2960,
      "##قارن": 2961,
      "##ه في المدينه ": 2962,
      "## عبد الل": 2963,
      "##سنو": 2964,
      "## الحزب": 2965,
      "##يه وفي ": 2966,
      "## الذين ل": 2967,
      "##سيحي": 2968,
      "##قطاع": 2969,
      "##يه كانت": 2970,
      "##سبق": 2971,
      "## جد": 2972,
      "##ه من قبل": 2973,
      "## الاخير": 2974,
      "##يين": 2975,
      "##نك": 2976,
      "##فاد": 2977,
      "## اه": 2978,
      "## كانوا ": 2979,
      "##ين مختلط": 2980,
      "##ازيل": 2981,
      "## من عرقين مختلط": 2982,
      "## من عرقين مختلطين او اكثر": 2983,
      "##فار": 2984,
      "##وير": 2985,
      "##الت": 2986,
      "## وتر": 2987,
      "## نقل": 2988,
      "##ون على": 2989,
      "## صوت": 2990,
      "##وا ا": 2991,
      "##زام": 2992,
      "##ه هي ": 2993,
      "##يه مت": 2994,
      "## الاولى": 2995,
      "##شبك": 2996,
      "##اسيك": 2997,
      "## غالب": 2998,
      "## المرض": 2999,
      "## تعداد الولايات المتحد": 3000,
      "##ثبت": 3001,
      "##يه تم": 3002,
      "## رجل": 3003,
      "## خمس": 3004,
      "## ذات": 3005,
      "##كتب تعداد الولايات المتحد": 3006,
      "##شباب": 3007,
      "## واسع": 3008,
      "## نهر": 3009,
      "## شمال": 3010,
      "##يسار": 3011,
      "##سنه 19": 3012,
      "##نح": 3013,
      "##حقيق": 3014,
      "##ظروف": 3015,
      "##صيف": 3016,
      "## مبارا": 3017,
      "##ونز": 3018,
      "##شرف": 3019,
      "##ذلك الوقت": 3020,
      "## الانجليز": 3021,
      "##ن لعام 2004\r\n": 3022,
      "##ناطق": 3023,
      "##ديه ال": 3024,
      "##عام 198": 3025,
      "## احيان": 3026,
      "##ه العمل": 3027,
      "## خر": 3028,
      "##خلايا ال": 3029,
      "## للت": 3030,
      "##قيد": 3031,
      "##غيل": 3032,
      "## ان ا": 3033,
      "## الحديد": 3034,
      "##يكون": 3035,
      "##فرض": 3036,
      "##جوم": 3037,
      "##رش": 3038,
      "##95": 3039,
      "## ثان": 3040,
      "##هانغل": 3041,
      "## وتم": 3042,
      "##صلح": 3043,
      "##هى": 3044,
      "##ه جد": 3045,
      "## من اله": 3046,
      "##وكس": 3047,
      "##وضح": 3048,
      "##من اجل": 3049,
      "##يكان": 3050,
      "##سود": 3051,
      "## خارج": 3052,
      "## المتوسط": 3053,
      "##اربعه و": 3054,
      "##سا ل": 3055,
      "##ما": 3056,
      "##مرار": 3057,
      "##وريد": 3058,
      "## الجدول التال": 3059,
      "##اكز": 3060,
      "##تكون ال": 3061,
      "## يمكن ": 3062,
      "##ضغط": 3063,
      "## بان ": 3064,
      "##جمل": 3065,
      "##بس": 3066,
      "##صاحب": 3067,
      "## اجر": 3068,
      "## المنت": 3069,
      "## حرب": 3070,
      "##ه بن": 3071,
      "## الهانج": 3072,
      "##خطط": 3073,
      "## نتيج": 3074,
      "##سوق": 3075,
      "##قاعد": 3076,
      "##99": 3077,
      "##تحف": 3078,
      "##وخ": 3079,
      "## امت": 3080,
      "## م سس": 3081,
      "## وكذلك": 3082,
      "## الاكثر": 3083,
      "##سلوب": 3084,
      "##ا عن ال": 3085,
      "##سان": 3086,
      "##وصول": 3087,
      "##خيص": 3088,
      "## بطول": 3089,
      "## كذلك": 3090,
      "##يونان": 3091,
      "## ميل مربع": 3092,
      "##نظرا ل": 3093,
      "##فك": 3094,
      "##يوضح": 3095,
      "##ه من م": 3096,
      "##ي الاحرف": 3097,
      "##وافق": 3098,
      "## تج": 3099,
      "## عام 18": 3100,
      "##كثر من ": 3101,
      "## المواد": 3102,
      "##ات من ": 3103,
      "## كوريا ال": 3104,
      "## تعداد اليم": 3105,
      "##لوح": 3106,
      "##ويد": 3107,
      "##ه خلال": 3108,
      "##يه وس": 3109,
      "## الحرف": 3110,
      "##عبد الل": 3111,
      "## طبيع": 3112,
      "##سادس": 3113,
      "## تد": 3114,
      "##اساس": 3115,
      "## العظيم": 3116,
      "## على الم": 3117,
      "##وا على": 3118,
      "## الداخل": 3119,
      "##ييز": 3120,
      "##ويف": 3121,
      "##يمر": 3122,
      "##ات الى": 3123,
      "##يت و": 3124,
      "##اصو": 3125,
      "##فاو": 3126,
      "##ريش": 3127,
      "##يين وال": 3128,
      "##صحاب": 3129,
      "##44": 3130,
      "##جين": 3131,
      "##76": 3132,
      "##ه خ": 3133,
      "##افارق": 3134,
      "##ربيع": 3135,
      "## ولم ي": 3136,
      "##تكون": 3137,
      "## زوج": 3138,
      "##بعض الا": 3139,
      "## برنامج": 3140,
      "##ه 1": 3141,
      "## ترك": 3142,
      "##يران ": 3143,
      "##ونيس": 3144,
      "##جميل": 3145,
      "##79": 3146,
      "##ه ط": 3147,
      "##ا حيث": 3148,
      "## وفي ال": 3149,
      "## بحلول": 3150,
      "##ستان": 3151,
      "##ات الك": 3152,
      "##ه الروم": 3153,
      "##تار": 3154,
      "##تجار": 3155,
      "## وعلى": 3156,
      "##ورن": 3157,
      "##ادت": 3158,
      "##ادو": 3159,
      "##ه مت": 3160,
      "##ي ات": 3161,
      "## بعد ذلك": 3162,
      "##يوجد": 3163,
      "##سكان": 3164,
      "##هم ي": 3165,
      "##هم في ": 3166,
      "## السكان": 3167,
      "## الفقر": 3168,
      "##عراض": 3169,
      "##تشكيل": 3170,
      "##صنيف": 3171,
      "##مان": 3172,
      "##ي في الم": 3173,
      "##متوسط دخل": 3174,
      "##يسل": 3175,
      "##سور": 3176,
      "##55": 3177,
      "## مدين": 3178,
      "## وكان": 3179,
      "## الموجود": 3180,
      "## التعليم": 3181,
      "##ات اخرى": 3182,
      "##سين": 3183,
      "##نصب": 3184,
      "##كنه ": 3185,
      "##ه الغ": 3186,
      "##انون ": 3187,
      "##ي الح": 3188,
      "##ه وكانت نسبه ": 3189,
      "## منصب": 3190,
      "##خفاض": 3191,
      "## من الاسر لدي": 3192,
      "##ها معيلون من ال": 3193,
      "## من الاسر لديها معيلون من ال": 3194,
      "## من الاسر لديها معيلون من الذكور": 3195,
      "##ا\r\n": 3196,
      "## فاز": 3197,
      "##اكر": 3198,
      "##قف": 3199,
      "##رج": 3200,
      "##صنف": 3201,
      "## الاوسط": 3202,
      "##هم ب": 3203,
      "## دون وجود شريكه وكانت نسبه ": 3204,
      "## بينما كانت نسبه ": 3205,
      "## من الاسر كان لديها معيلات من الاناث دون وجود شريك بينما كانت نسبه ": 3206,
      "## من الاسر لديها معيلون من الذكور دون وجود شريكه وكانت نسبه ": 3207,
      "##باد": 3208,
      "## هي م": 3209,
      "## ولا ": 3210,
      "##قوى": 3211,
      "##اتفاق": 3212,
      "##ارف": 3213,
      "##باس": 3214,
      "##طن": 3215,
      "##اه و": 3216,
      "##با ل": 3217,
      "##ترنت": 3218,
      "##كلف": 3219,
      "## الامام": 3220,
      "##واحد": 3221,
      "## روم": 3222,
      "##يات و": 3223,
      "##صيب": 3224,
      "##ه المت": 3225,
      "## اللاتين": 3226,
      "##دعى": 3227,
      "## تعداد اليمن لعام 2004\r\n": 3228,
      "##3 7": 3229,
      "## كامل": 3230,
      "## من الان": 3231,
      "##رفع": 3232,
      "##كريم": 3233,
      "## العصر": 3234,
      "##يسر": 3235,
      "##مالك": 3236,
      "## الشمس": 3237,
      "##ه يت": 3238,
      "##اعت": 3239,
      "##صوير": 3240,
      "## قرى": 3241,
      "##زواج": 3242,
      "##ا تل": 3243,
      "## 2011": 3244,
      "##حقق": 3245,
      "## المواقع": 3246,
      "##ات لل": 3247,
      "##ه الحديث": 3248,
      "##سوف": 3249,
      "##قاهر": 3250,
      "##قواعد": 3251,
      "##اعيل": 3252,
      "##هذا الا": 3253,
      "##امراض": 3254,
      "##صميم": 3255,
      "##جري": 3256,
      "## مش": 3257,
      "##ولاد": 3258,
      "##ا الشمال": 3259,
      "## 2019": 3260,
      "##دا": 3261,
      "## المقاطع": 3262,
      "##خصا ص": 3263,
      "## الخارج": 3264,
      "## قدم": 3265,
      "##65": 3266,
      "## وع": 3267,
      "##ه بالم": 3268,
      "##صباح": 3269,
      "## افضل": 3270,
      "##ه البر": 3271,
      "## فيه ": 3272,
      "## عزل": 3273,
      "##قام ب": 3274,
      "## الفلسطين": 3275,
      "##يبلغ": 3276,
      "##ها لل": 3277,
      "##ه اي ": 3278,
      "## يكون ": 3279,
      "##تراف": 3280,
      "##كان م": 3281,
      "##ه منذ": 3282,
      "##قبا ل": 3283,
      "##جان": 3284,
      "##67": 3285,
      "## الخبر": 3286,
      "## الجزا ر": 3287,
      "##صطناع": 3288,
      "##ضيف": 3289,
      "##ا هو": 3290,
      "##شرط": 3291,
      "## على يد": 3292,
      "##تحق": 3293,
      "##ناصر": 3294,
      "##عى": 3295,
      "## شار": 3296,
      "## الفيلم": 3297,
      "##يجعل": 3298,
      "## ابي ": 3299,
      "##جرد": 3300,
      "##جميع انح": 3301,
      "##ات الاخرى": 3302,
      "##تنوع": 3303,
      "## سميت": 3304,
      "##يه هي ": 3305,
      "## جا ز": 3306,
      "## البح": 3307,
      "##تلف": 3308,
      "##ا عند": 3309,
      "##نقسم": 3310,
      "##يسمى": 3311,
      "##تين ال": 3312,
      "##ه المر": 3313,
      "##ديس": 3314,
      "##ين ت": 3315,
      "## كاس": 3316,
      "##سمع": 3317,
      "##ا تزال": 3318,
      "##رال": 3319,
      "##يمثل": 3320,
      "##وا ف": 3321,
      "##فلسف": 3322,
      "##تالف من ": 3323,
      "##لو": 3324,
      "##ه الار": 3325,
      "## بير": 3326,
      "## الاطفال": 3327,
      "##تراوح": 3328,
      "## في الولايات المتحد": 3329,
      "## ذو": 3330,
      "## اول ك": 3331,
      "##قوط": 3332,
      "##مصر": 3333,
      "##ه الز": 3334,
      "##ه الاب": 3335,
      "## وصل": 3336,
      "## عبار": 3337,
      "##ي محمد": 3338,
      "##هاجم": 3339,
      "## بن م": 3340,
      "##قرن العشرين ": 3341,
      "##نصر": 3342,
      "##شور": 3343,
      "## فيل": 3344,
      "##هجر": 3345,
      "##ه تحت": 3346,
      "## بام": 3347,
      "## سابق": 3348,
      "##ه باسم": 3349,
      "##عن طريق": 3350,
      "## واب": 3351,
      "##يه وع": 3352,
      "## عرف": 3353,
      "## في كل": 3354,
      "##خلص": 3355,
      "##يوخ": 3356,
      "##وزار": 3357,
      "##اشع": 3358,
      "##نسي": 3359,
      "##53": 3360,
      "## يستخدم": 3361,
      "##تحاد": 3362,
      "##يه وهو": 3363,
      "##تصادي": 3364,
      "## زياد": 3365,
      "##تدا ": 3366,
      "## نهايه ": 3367,
      "##هت": 3368,
      "##فين": 3369,
      "## عضو": 3370,
      "## عدد من ال": 3371,
      "##عادل": 3372,
      "##يمكن ل": 3373,
      "##اعاد": 3374,
      "##ه الرسم": 3375,
      "##اربعين ": 3376,
      "## الالك": 3377,
      "##فوز": 3378,
      "##رات": 3379,
      "##بن ": 3380,
      "## الطريق": 3381,
      "##ا ط": 3382,
      "##ها وت": 3383,
      "## كار": 3384,
      "##سلف": 3385,
      "##صليب": 3386,
      "## الجو": 3387,
      "## 50": 3388,
      "## ارض": 3389,
      "##حيوان": 3390,
      "## مك": 3391,
      "##سلال": 3392,
      "##مريك": 3393,
      "##غال": 3394,
      "## قسم": 3395,
      "##رقم": 3396,
      "##كوين": 3397,
      "##رويج": 3398,
      "##يه غير": 3399,
      "## فتح": 3400,
      "##ه اس": 3401,
      "## نطاق": 3402,
      "##وسوع": 3403,
      "##ه الحال": 3404,
      "##عني ": 3405,
      "##يا الم": 3406,
      "##وي س": 3407,
      "## المجتمع": 3408,
      "##ام و": 3409,
      "##امبراطوري": 3410,
      "## بنا ": 3411,
      "## الانف": 3412,
      "## وبلغ متوسط حجم الاسره المعيشيه 2": 3413,
      "## الدر": 3414,
      "## مبار": 3415,
      "##ولند": 3416,
      "##تصار": 3417,
      "##جمعيه ال": 3418,
      "##ه عن طريق": 3419,
      "##خبر": 3420,
      "## بيت": 3421,
      "## باستخدام": 3422,
      "##يلعب": 3423,
      "##خلق": 3424,
      "##بدايه ": 3425,
      "##كيم": 3426,
      "## محل": 3427,
      "## ناد": 3428,
      "##اشار": 3429,
      "##قتال": 3430,
      "## احداث": 3431,
      "## ربما ": 3432,
      "##فى": 3433,
      "##مط": 3434,
      "##77": 3435,
      "## الور": 3436,
      "##ه مل": 3437,
      "##اطن": 3438,
      "##تقاد": 3439,
      "## 2012": 3440,
      "## 2007": 3441,
      "## بعد ان ": 3442,
      "##تعا": 3443,
      "##سميت": 3444,
      "##بدا": 3445,
      "##يه تتبع": 3446,
      "## 40": 3447,
      "##بيع": 3448,
      "##ه قدم": 3449,
      "##ه الحرار": 3450,
      "##ان ا": 3451,
      "## بع": 3452,
      "## فيلم": 3453,
      "##اجز": 3454,
      "##يضا ": 3455,
      "##قبيل": 3456,
      "##نهايه الم": 3457,
      "##بين ": 3458,
      "##ه قبل": 3459,
      "##ه والت": 3460,
      "##يزيد": 3461,
      "## 2006": 3462,
      "##قوات ال": 3463,
      "##اول مره في ": 3464,
      "## لكن": 3465,
      "##ستطيع": 3466,
      "##تحكم": 3467,
      "##قرى": 3468,
      "##عضو": 3469,
      "## 2008": 3470,
      "## حيث ت": 3471,
      "##ذوي الا": 3472,
      "## تقريبا ": 3473,
      "## القص": 3474,
      "## الذكور": 3475,
      "##وا ز": 3476,
      "##نسخ": 3477,
      "##ه سنه ": 3478,
      "##يطلق": 3479,
      "##فيروس": 3480,
      "## باست": 3481,
      "##ه القديم": 3482,
      "##قاب": 3483,
      "##ه الخامس": 3484,
      "##قليم": 3485,
      "##بلغ مساح": 3486,
      "##قامت": 3487,
      "##نمو": 3488,
      "##ولت": 3489,
      "## 2009": 3490,
      "## احدى": 3491,
      "## من الامريكيين الاصل": 3492,
      "##اين": 3493,
      "## اور": 3494,
      "## 28": 3495,
      "##ه ولكن ": 3496,
      "##ه هي ال": 3497,
      "## سلط": 3498,
      "## سنوات": 3499,
      "##قسام": 3500,
      "##رجل": 3501,
      "##يه لك": 3502,
      "## 21": 3503,
      "##00 م": 3504,
      "## الجه": 3505,
      "## الكنيس": 3506,
      "## الامبراطوري": 3507,
      "## بلاد": 3508,
      "##طلع": 3509,
      "## ايضا ب": 3510,
      "## الطاق": 3511,
      "##ضمن ال": 3512,
      "##يبدو": 3513,
      "## اثر": 3514,
      "##ن ت": 3515,
      "##يدل": 3516,
      "## 26": 3517,
      "##ات الب": 3518,
      "## الصح": 3519,
      "##94": 3520,
      "## اعض": 3521,
      "## في يناير": 3522,
      "##هانج": 3523,
      "##قوق": 3524,
      "##مام": 3525,
      "##ه ز": 3526,
      "## فال": 3527,
      "##ريان": 3528,
      "##ونغم": 3529,
      "##منظم": 3530,
      "##يتن": 3531,
      "##يعن": 3532,
      "##اجع": 3533,
      "## في العالم": 3534,
      "##ا يوجد": 3535,
      "##51": 3536,
      "## لقب": 3537,
      "## ساع": 3538,
      "##متد": 3539,
      "##ه حول": 3540,
      "## لديهم": 3541,
      "## من الامريكيين الافارق": 3542,
      "##يوضح الجدول التال": 3543,
      "## ظهور": 3544,
      "##يود": 3545,
      "##يصل": 3546,
      "##نيه ال": 3547,
      "##فتح": 3548,
      "##قاتل": 3549,
      "##ستعمل": 3550,
      "## هي ال": 3551,
      "## على الت": 3552,
      "##تباع": 3553,
      "##يطاليا ": 3554,
      "## تحديد": 3555,
      "## انشا ": 3556,
      "## و و و و و": 3557,
      "##ه وكان ": 3558,
      "##سميه ال": 3559,
      "## طا ر": 3560,
      "##وي سج": 3561,
      "##ايك": 3562,
      "##حام": 3563,
      "##ه ص": 3564,
      "##ه كان": 3565,
      "## ون ال": 3566,
      "## الاكبر": 3567,
      "##ان على": 3568,
      "## يعتبر": 3569,
      "## 24": 3570,
      "##وفير": 3571,
      "## الجن": 3572,
      "##وكب": 3573,
      "##دعو": 3574,
      "## اللغه ال": 3575,
      "##لم ي": 3576,
      "##قريب": 3577,
      "##ذكار": 3578,
      "## وش": 3579,
      "## قواعد": 3580,
      "##يات وال": 3581,
      "##يه والتي ت": 3582,
      "##ات ع": 3583,
      "##اسس": 3584,
      "##ه بين": 3585,
      "## جو": 3586,
      "##حمود": 3587,
      "##دى الى": 3588,
      "##واق": 3589,
      "##جا ز": 3590,
      "##73": 3591,
      "## الادار": 3592,
      "##ما يل": 3593,
      "##قدر عدد سكانها ": 3594,
      "##ثامن ": 3595,
      "##نزل": 3596,
      "##98": 3597,
      "##ما ت": 3598,
      "## على سبيل المثال": 3599,
      "##ا بشكل": 3600,
      "##ون الى": 3601,
      "## اعط": 3602,
      "## فيها ال": 3603,
      "##نوع من النبات": 3604,
      "##فير": 3605,
      "##شم": 3606,
      "##ه الاف": 3607,
      "## في يون": 3608,
      "## انس": 3609,
      "##منع": 3610,
      "## النبات": 3611,
      "## السعود": 3612,
      "##ه تش": 3613,
      "## اللاعب": 3614,
      "##دولار": 3615,
      "## ويوجد": 3616,
      "## الوزر": 3617,
      "##78": 3618,
      "##ه وذلك": 3619,
      "## حاليا ": 3620,
      "##يا م": 3621,
      "##نتيجه لذلك": 3622,
      "##ساح": 3623,
      "## باب": 3624,
      "##ولكن ": 3625,
      "## مرض": 3626,
      "##هجوم": 3627,
      "## طبق": 3628,
      "##يه وق": 3629,
      "##ه محمد": 3630,
      "##يا ف": 3631,
      "## السود": 3632,
      "## الجر": 3633,
      "##اوي ": 3634,
      "##غناط": 3635,
      "## مستوى العالم": 3636,
      "##ذوي الاصول": 3637,
      "##زن": 3638,
      "##ه الوطن": 3639,
      "## بواسط": 3640,
      "## في منطق": 3641,
      "##كتوب": 3642,
      "##معرك": 3643,
      "##كره القدم": 3644,
      "##عشرين وال": 3645,
      "## انشا م": 3646,
      "##سابع": 3647,
      "## موقع": 3648,
      "##تمال": 3649,
      "##ياط": 3650,
      "##قد بد": 3651,
      "## مناطق": 3652,
      "##يوش": 3653,
      "##حلق": 3654,
      "##ستخدمت": 3655,
      "##يون او": 3656,
      "##ه الر يس": 3657,
      "## ابراهيم": 3658,
      "##نهر": 3659,
      "##ضمن": 3660,
      "##انف": 3661,
      "##ستوى": 3662,
      "##يه بين ال": 3663,
      "## اختيار": 3664,
      "##يه منذ": 3665,
      "## هي احدى": 3666,
      "##58": 3667,
      "##ضطراب": 3668,
      "##ه خاص": 3669,
      "##ديان": 3670,
      "##يمكن ال": 3671,
      "##ي بد": 3672,
      "## 2010": 3673,
      "##ا في الم": 3674,
      "## بمفرد": 3675,
      "##حصول على": 3676,
      "##هض": 3677,
      "##71": 3678,
      "## وصف": 3679,
      "## الكويت": 3680,
      "##تصميم": 3681,
      "## سنه 19": 3682,
      "##فاع": 3683,
      "##طف": 3684,
      "##حج": 3685,
      "##56": 3686,
      "##الد": 3687,
      "## وك": 3688,
      "## المدينه ": 3689,
      "##برى": 3690,
      "##تطور": 3691,
      "##حيات": 3692,
      "##ه ومع": 3693,
      "##يعيش": 3694,
      "##ثمار": 3695,
      "##صفوف": 3696,
      "## الصناع": 3697,
      "## اشكال": 3698,
      "##ضعف": 3699,
      "## ثور": 3700,
      "## العد": 3701,
      "## سلسل": 3702,
      "##ه الذي ": 3703,
      "## وزار": 3704,
      "## المعروف": 3705,
      "##ها وال": 3706,
      "##قدار": 3707,
      "##دمير": 3708,
      "## الذي كان ": 3709,
      "## احتلت": 3710,
      "##ربط": 3711,
      "##شرع": 3712,
      "## الحقيق": 3713,
      "##ندق": 3714,
      "##من اي ": 3715,
      "## اخذ": 3716,
      "##ي عشر": 3717,
      "## لم ت": 3718,
      "## نف": 3719,
      "## العثمان": 3720,
      "##اطل": 3721,
      "##وسطى": 3722,
      "## كل من ": 3723,
      "## عن م": 3724,
      "## اكتشاف": 3725,
      "## يعيشون في ": 3726,
      "## حيث ي": 3727,
      "##دقيق": 3728,
      "##ضخم": 3729,
      "## اليها ": 3730,
      "## الكلم": 3731,
      "## الدراس": 3732,
      "##ه عام": 3733,
      "##ه الخ": 3734,
      "##ه بسبب": 3735,
      "## الامبراطور": 3736,
      "##ستين ونسبه ": 3737,
      "##خامسه والستين عاما فما فوق": 3738,
      "## كانت ضمن ف ه الخامسه والستين عاما فما فوق": 3739,
      "##اربعين عاما ونسبه ": 3740,
      "##42": 3741,
      "##واح": 3742,
      "##غذ": 3743,
      "## المخ": 3744,
      "##وليد": 3745,
      "##ين وم": 3746,
      "##اقت": 3747,
      "##عضل": 3748,
      "##شارل": 3749,
      "##حين": 3750,
      "##ه الغرب": 3751,
      "##يه وف": 3752,
      "##امام": 3753,
      "## من عمر": 3754,
      "## من عده ا": 3755,
      "## النب": 3756,
      "##ي مثل": 3757,
      "##ه من الن": 3758,
      "##ثنا ال": 3759,
      "##الح": 3760,
      "## وين": 3761,
      "##ان من ": 3762,
      "## العم": 3763,
      "##يا في ال": 3764,
      "##سيار": 3765,
      "## متعدد": 3766,
      "##جت": 3767,
      "##جير": 3768,
      "## اذا ": 3769,
      "##ه العام": 3770,
      "##يه ن": 3771,
      "## فكر": 3772,
      "##ولا ": 3773,
      "##ا العالم": 3774,
      "##تمثيل": 3775,
      "## الروا": 3776,
      "##حياه ال": 3777,
      "##يين ذوي الاصول": 3778,
      "## المقدس": 3779,
      "##ينو": 3780,
      "## نقط": 3781,
      "##ات الف": 3782,
      "##ات الل": 3783,
      "##هرم": 3784,
      "## اسس": 3785,
      "## فيما يتعلق": 3786,
      "##قترح": 3787,
      "##غاب": 3788,
      "##ي ش": 3789,
      "##ه العل": 3790,
      "## الاعمال": 3791,
      "##اسوب": 3792,
      "##ات الن": 3793,
      "##ين والرابعه وال": 3794,
      "##عشرين عاما ونسبه ": 3795,
      "## لكل كيلومتر مربع": 3796,
      "## كانت ما بين الخامسه والاربعين والرابعه وال": 3797,
      "## كانت واقعه في الف ه العمريه ما بين الخامسه والعشرين وال": 3798,
      "## كانت ما بين الخامسه والاربعين والرابعه والستين ونسبه ": 3799,
      "## قياد": 3800,
      "## روا": 3801,
      "## السكان ": 3802,
      "##اضع": 3803,
      "##ي وقد": 3804,
      "##بدايه ال": 3805,
      "## استعمال": 3806,
      "##جميع ال": 3807,
      "##شخص يعيش": 3808,
      "##نشاط": 3809,
      "## العلاق": 3810,
      "##ا او اكثر": 3811,
      "##فاف": 3812,
      "##68": 3813,
      "## بيري": 3814,
      "## سجل": 3815,
      "##اكب": 3816,
      "## الابيض": 3817,
      "## انتشار": 3818,
      "## كويكب": 3819,
      "## نسمه لكل كيلومتر مربع": 3820,
      "## من البيض و": 3821,
      "##يا الا": 3822,
      "##سهول": 3823,
      "##جح": 3824,
      "## مز": 3825,
      "##في م": 3826,
      "## في كتاب": 3827,
      "## ان م": 3828,
      "##متلك": 3829,
      "##يجر": 3830,
      "##تقديم": 3831,
      "## من الامريكيين ذوي الاصول": 3832,
      "## من الامريكيين ذوي الاصول الاسيو": 3833,
      "##هي ب": 3834,
      "##ا يه ": 3835,
      "## في عام 1": 3836,
      "##تعريف": 3837,
      "## انتخاب": 3838,
      "##نفس المنزل": 3839,
      "##هبوط": 3840,
      "##فراد يعيشون في ": 3841,
      "##وذكس": 3842,
      "##رابعه والاربعين عاما ونسبه ": 3843,
      "##رابعه والعشرين عاما ونسبه ": 3844,
      "##فزيون": 3845,
      "## ومع ذلك": 3846,
      "## ميل2 وبلغ عدد الوحدات السكنيه ": 3847,
      "## ميل2 وتوزع التركيب العرق": 3848,
      "## بين الثامنه عشر والرابعه والعشرين عاما ونسبه ": 3849,
      "## من اصل جميع الاسر من عده ا": 3850,
      "## كانت واقعه في الف ه العمريه ما بين الخامسه والعشرين والرابعه والاربعين عاما ونسبه ": 3851,
      "##فراد يعيشون في نفس المنزل": 3852,
      "## من اصل جميع الاسر من عده افراد يعيشون في نفس المنزل": 3853,
      "##طبع": 3854,
      "##صاص": 3855,
      "## الدين ال": 3856,
      "##ات ك": 3857,
      "## حمل": 3858,
      "##اقام": 3859,
      "##يشير": 3860,
      "##سيتم": 3861,
      "##اشخاص": 3862,
      "##ه يبلغ من العمر 65 عام": 3863,
      "## حدث": 3864,
      "## التعديل": 3865,
      "## كانت تتالف من ": 3866,
      "## بمفرده يبلغ من العمر 65 عام": 3867,
      "##شخص يعيش بمفرده يبلغ من العمر 65 عام": 3868,
      "## من اصل جميع الاسر من عده افراد يعيشون في نفس المنزل ونسبه ": 3869,
      "## كانت تتالف من شخص يعيش بمفرده يبلغ من العمر 65 عام": 3870,
      "## كانت تتالف من شخص يعيش بمفرده يبلغ من العمر 65 عاما او اكثر": 3871,
      "##يعد": 3872,
      "##ما ال": 3873,
      "##العاب": 3874,
      "## وقت": 3875,
      "## قتل": 3876,
      "## جيش": 3877,
      "##دمشق": 3878,
      "##ا في م": 3879,
      "## اما ال": 3880,
      "##حتمل": 3881,
      "## اعلى": 3882,
      "## اليهود": 3883,
      "## وزير": 3884,
      "##ه اسم": 3885,
      "##ه ايام": 3886,
      "##ه بعض": 3887,
      "##متاز": 3888,
      "##دوث": 3889,
      "## الحرب العالميه ال": 3890,
      "##اصبحت": 3891,
      "##69": 3892,
      "##زاب": 3893,
      "##ه حرار": 3894,
      "## ما ا": 3895,
      "## المكون": 3896,
      "## بمعنى": 3897,
      "## نادي ": 3898,
      "## الحيا": 3899,
      "##يين ب": 3900,
      "##ي في م": 3901,
      "##يحمل": 3902,
      "##عام 2019": 3903,
      "## منتخب": 3904,
      "##كسب": 3905,
      "##حظ": 3906,
      "##حاكم": 3907,
      "##شاط": 3908,
      "##52": 3909,
      "##ي ر": 3910,
      "## تاسيس": 3911,
      "## ليس": 3912,
      "## قيم": 3913,
      "## السر": 3914,
      "##وزير": 3915,
      "##يجونغ": 3916,
      "##تصنيف": 3917,
      "##جميع م": 3918,
      "## مليار": 3919,
      "##اذب": 3920,
      "##كند": 3921,
      "## ويت": 3922,
      "## لهم": 3923,
      "##يه اخرى": 3924,
      "## الخامس": 3925,
      "##تسع": 3926,
      "## وسجل": 3927,
      "## اما متوسط حجم العا لات فبلغ 2": 3928,
      "##ي هي ": 3929,
      "## فرق": 3930,
      "##ينات": 3931,
      "##مرت": 3932,
      "##يشكل": 3933,
      "## الصغير": 3934,
      "## وفات": 3935,
      "##ي يت": 3936,
      "##ه الاول": 3937,
      "## تاثير": 3938,
      "##ه ان ال": 3939,
      "##ون ا": 3940,
      "##ملوك": 3941,
      "## تحط": 3942,
      "## من الاع": 3943,
      "## روس": 3944,
      "## ذكور": 3945,
      "##البوم": 3946,
      "##يوليو 201": 3947,
      "##عام 2010": 3948,
      "## الحدود": 3949,
      "##سن ": 3950,
      "##وامل": 3951,
      "##92": 3952,
      "## المعد": 3953,
      "## باش": 3954,
      "##ه وان": 3955,
      "##ي اس": 3956,
      "##نتشر": 3957,
      "## الفن": 3958,
      "##عقيد": 3959,
      "##جبل": 3960,
      "## ممثل": 3961,
      "## انجلتر": 3962,
      "## من ت": 3963,
      "##بنسبه ": 3964,
      "##بلدان": 3965,
      "##ناحيه ال": 3966,
      "##ي للمدينه ب": 3967,
      "##يه تقريب": 3968,
      "##وا م": 3969,
      "##كاديم": 3970,
      "##ا من ا": 3971,
      "## تطور": 3972,
      "##ون مع": 3973,
      "## على اسم": 3974,
      "## 22": 3975,
      "## الابجد": 3976,
      "##طوب": 3977,
      "##ه ذ": 3978,
      "## وحتى": 3979,
      "##يه ثم": 3980,
      "##ورب": 3981,
      "## الترك": 3982,
      "## الحيوان": 3983,
      "## النها ": 3984,
      "##ه عن": 3985,
      "## الاسرا يل": 3986,
      "## الخلايا ال": 3987,
      "##ي للمدينه بنسبه ": 3988,
      "##6 من ": 3989,
      "##حجر": 3990,
      "##ي كما ": 3991,
      "##ان في ال": 3992,
      "##ون ف": 3993,
      "## على ان": 3994,
      "## صور": 3995,
      "##دلس": 3996,
      "## الاسود": 3997,
      "##اصلاح": 3998,
      "##قا د": 3999,
      "##وات": 4000,
      "##ضور": 4001,
      "## السب": 4002,
      "##حتوا": 4003,
      "##تعرف": 4004,
      "## ظهر": 4005,
      "## قد ت": 4006,
      "##62": 4007,
      "##عا": 4008,
      "##حضار": 4009,
      "##ا حتى": 4010,
      "## عقد": 4011,
      "## كون": 4012,
      "## سعود": 4013,
      "## من السكان ": 4014,
      "## قا م": 4015,
      "## قطع": 4016,
      "## الحل": 4017,
      "##يه ان": 4018,
      "##ي بن ": 4019,
      "## تم تر": 4020,
      "##غناطيس": 4021,
      "##هال": 4022,
      "##فن ال": 4023,
      "## معدل": 4024,
      "##يه الل": 4025,
      "##ه فقط": 4026,
      "##يون من اي ": 4027,
      "##تاليف": 4028,
      "##عرق بلغ عدد الاسر": 4029,
      "##سبانيون او": 4030,
      "## من الهسبانيون او": 4031,
      "## اللاتينيون من اي ": 4032,
      "## من الهسبانيون او اللاتينيون من اي ": 4033,
      "## من الهسبانيون او اللاتينيون من اي عرق بلغ عدد الاسر": 4034,
      "##ويات": 4035,
      "##93": 4036,
      "##ه 2": 4037,
      "##ه الشرق": 4038,
      "##اتش": 4039,
      "##ريط": 4040,
      "##ا است": 4041,
      "##تلال": 4042,
      "##ي لم ي": 4043,
      "##ه نسب": 4044,
      "##يه كبير": 4045,
      "##بك": 4046,
      "##بور": 4047,
      "##54": 4048,
      "##ات مثل": 4049,
      "## الالكترون": 4050,
      "##هيل": 4051,
      "##هتم": 4052,
      "##ياح": 4053,
      "##سون ": 4054,
      "##جول": 4055,
      "##ات ن": 4056,
      "## الادب": 4057,
      "## كيف": 4058,
      "##ما م": 4059,
      "## اناث": 4060,
      "##وسل": 4061,
      "##يا على": 4062,
      "##ه عمل": 4063,
      "##ان بن ": 4064,
      "##نادي": 4065,
      "##حجم": 4066,
      "##ظيف": 4067,
      "##74": 4068,
      "## المجلس": 4069,
      "##هم من ": 4070,
      "##من م": 4071,
      "## جعل": 4072,
      "## را": 4073,
      "## الرسم": 4074,
      "##بعث": 4075,
      "## الغاز": 4076,
      "##نقط": 4077,
      "##ويم": 4078,
      "##كول": 4079,
      "## الصف": 4080,
      "## الضو": 4081,
      "##ي تم": 4082,
      "##ه الاح": 4083,
      "## لا ت": 4084,
      "## التل": 4085,
      "## حدوث": 4086,
      "## رم": 4087,
      "##تغيير": 4088,
      "## العديد من الم": 4089,
      "##كثف": 4090,
      "## الثقاف": 4091,
      "## الديمقراط": 4092,
      "##ه الكتاب": 4093,
      "## ومن ال": 4094,
      "##ها وم": 4095,
      "##اطف": 4096,
      "## الكيميا ": 4097,
      "##ات التقليد": 4098,
      "##ه هي ا": 4099,
      "##نسبه ل": 4100,
      "##يدروج": 4101,
      "##زيد من ال": 4102,
      "##سطح البحر": 4103,
      "##حضر": 4104,
      "## اتفاق": 4105,
      "##ن ف": 4106,
      "## الاشع": 4107,
      "## لا": 4108,
      "## يل": 4109,
      "##ه بد": 4110,
      "## قض": 4111,
      "##عمليه ال": 4112,
      "## الكثير من ال": 4113,
      "## طلب": 4114,
      "##97": 4115,
      "## ويل": 4116,
      "## الاعلام": 4117,
      "##ي الل": 4118,
      "##ونيك": 4119,
      "##ات الر": 4120,
      "##خلايا ": 4121,
      "##يبد": 4122,
      "## معروف": 4123,
      "## امير": 4124,
      "##حمض": 4125,
      "## الواح": 4126,
      "## وفق": 4127,
      "##اسرا يل": 4128,
      "## نجاح": 4129,
      "##ه في المدينه في ": 4130,
      "##يصبح": 4131,
      "##ترب": 4132,
      "##ه فر": 4133,
      "##يديو": 4134,
      "##واجه": 4135,
      "## البروت": 4136,
      "## عا له مقيمه في المدينه في ": 4137,
      "## عا له مقيمه في المدينه في حين سجلت الكثافه السكانيه ": 4138,
      "##سيل": 4139,
      "##باق": 4140,
      "##63": 4141,
      "##ات س": 4142,
      "## الم رخ": 4143,
      "##ابايت": 4144,
      "##خليج": 4145,
      "##اكبر": 4146,
      "## جل": 4147,
      "## السوفيت": 4148,
      "##لمان": 4149,
      "##اي شخص": 4150,
      "##جمهوري": 4151,
      "## فيما بعد": 4152,
      "##نيه ": 4153,
      "##قود": 4154,
      "##ابس": 4155,
      "##جراح": 4156,
      "## غر": 4157,
      "## غيغ": 4158,
      "##يو 2019": 4159,
      "##مان ": 4160,
      "## في عام 200": 4161,
      "##كلاسيك": 4162,
      "## القوم": 4163,
      "## النحو": 4164,
      "## رقيق": 4165,
      "## اللعب": 4166,
      "## الطا ر": 4167,
      "##ه الشعب": 4168,
      "## الاخرى و": 4169,
      "## نسخه من ": 4170,
      "##يكانيك": 4171,
      "##قيام": 4172,
      "##61": 4173,
      "## وصول": 4174,
      "## في حال": 4175,
      "##تحليل": 4176,
      "##وتش": 4177,
      "## شارك": 4178,
      "## البحث": 4179,
      "##يزنط": 4180,
      "##نون ال": 4181,
      "##ه العثمان": 4182,
      "## المناع": 4183,
      "## الترتيب": 4184,
      "## من عرقين مختلطين او اكثر و": 4185,
      "##بين ال": 4186,
      "##حط": 4187,
      "##72": 4188,
      "##ه 3": 4189,
      "##ا لك": 4190,
      "## قل": 4191,
      "## الكريم": 4192,
      "## افاد": 4193,
      "##تحتوي ا": 4194,
      "##زايد": 4195,
      "##ه ضد": 4196,
      "## فوق": 4197,
      "##ما ل": 4198,
      "## 60": 4199,
      "## افريقيا ": 4200,
      "## عباره عن ": 4201,
      "##جدد": 4202,
      "##ثابت": 4203,
      "##يه الاخرى": 4204,
      "## من نص": 4205,
      "##منصب": 4206,
      "##ه المحل": 4207,
      "##كتشف": 4208,
      "## ان يكون ": 4209,
      "##ا مثل": 4210,
      "##ي بن": 4211,
      "##ا وكان ": 4212,
      "##ات المزهر": 4213,
      "##ت من ": 4214,
      "##تهر": 4215,
      "##حاج": 4216,
      "##5 اصبح": 4217,
      "## الجل": 4218,
      "##ه وفق": 4219,
      "##ون بال": 4220,
      "## 23": 4221,
      "##بنان": 4222,
      "##ا من ويكيبيدي": 4223,
      "##يتم ت": 4224,
      "## العلما ان ": 4225,
      "## الولايات المتحده في ": 4226,
      "##ي دي الى": 4227,
      "##فات": 4228,
      "##اوروب": 4229,
      "##شاعر": 4230,
      "##ي وع": 4231,
      "## فعل": 4232,
      "##ون الم": 4233,
      "## حاول": 4234,
      "##اقش": 4235,
      "## البطول": 4236,
      "## هذا الا": 4237,
      "##يه للم": 4238,
      "##ي على عكس": 4239,
      "##ساهم": 4240,
      "##و ب": 4241,
      "##به": 4242,
      "##64": 4243,
      "##ه الط": 4244,
      "##يرجع": 4245,
      "##يه الكور": 4246,
      "## التق": 4247,
      "## هانغل": 4248,
      "##اصاب": 4249,
      "##قلاب": 4250,
      "##ا مفتوح": 4251,
      "##قصى": 4252,
      "##اكل": 4253,
      "##شان": 4254,
      "##ه اكثر": 4255,
      "## التم": 4256,
      "##نجت": 4257,
      "##ا بالكامل": 4258,
      "##تحتوي على": 4259,
      "## نسمه حسب تعداد اليمن لعام 2004\r\n": 4260,
      "## تحطمت": 4261,
      "##هاج": 4262,
      "##ايين ": 4263,
      "##شام": 4264,
      "## اجمال": 4265,
      "## الوحيد": 4266,
      "## واح": 4267,
      "## وجد": 4268,
      "##ديري": 4269,
      "##ابجدي": 4270,
      "## شعر": 4271,
      "##حتل": 4272,
      "## صناع": 4273,
      "##كبرى": 4274,
      "## الساكنه الم": 4275,
      "##عباره عن ": 4276,
      "##عاش": 4277,
      "##ون في ال": 4278,
      "## الرم": 4279,
      "## الروس": 4280,
      "##بدو": 4281,
      "## علاق": 4282,
      "##حتوي على": 4283,
      "## من الامريكيين الافارقه و": 4284,
      "##عز": 4285,
      "##اليب": 4286,
      "## و2010": 4287,
      "##ات وت": 4288,
      "## الم سس": 4289,
      "## الموسوع": 4290,
      "## بها ال": 4291,
      "## القض": 4292,
      "##جرى": 4293,
      "##يه على سطح": 4294,
      "##ضرور": 4295,
      "##حادث": 4296,
      "## محاول": 4297,
      "## تم تكريم": 4298,
      "##ا في اكتوبر": 4299,
      "##هونم": 4300,
      "##تي ا": 4301,
      "##ت في ال": 4302,
      "##جبال": 4303,
      "## مكان": 4304,
      "##انواع": 4305,
      "##ينات ال": 4306,
      "## الاحرف المتحرك": 4307,
      "##رومن": 4308,
      "## حرفا س": 4309,
      "##سجيل": 4310,
      "## صحيف": 4311,
      "##ينجونغم": 4312,
      "##طباعه و": 4313,
      "## الساكنه في ": 4314,
      "## اول ك الذين ل": 4315,
      "##ع ذلك": 4316,
      "## وانت": 4317,
      "## بول": 4318,
      "## سك": 4319,
      "## العسكر": 4320,
      "##خليف": 4321,
      "## الفور و": 4322,
      "##بدا ": 4323,
      "##ا المرتب": 4324,
      "## طاق": 4325,
      "##غرض": 4326,
      "##يه على مستوى العالم": 4327,
      "## اللغو": 4328,
      "##دخول": 4329,
      "##100": 4330,
      "##747": 4331,
      "## ادو": 4332,
      "## الثق": 4333,
      "## مقاطع": 4334,
      "##يه من ا": 4335,
      "## الاسب": 4336,
      "##برامج": 4337,
      "## نصف": 4338,
      "##اضي ": 4339,
      "## عن سطح البحر": 4340,
      "## تشير": 4341,
      "##تزاز": 4342,
      "##قوشه على": 4343,
      "##لوحات": 4344,
      "## بحلول نهايه ": 4345,
      "## قرى عزل": 4346,
      "##طري": 4347,
      "##طاف": 4348,
      "##ه قد": 4349,
      "##ه الثالث": 4350,
      "##ات بال": 4351,
      "##انون ال": 4352,
      "## للك": 4353,
      "##ه اخ": 4354,
      "## النف": 4355,
      "##يس لديهم": 4356,
      "##كرم": 4357,
      "## عليهم": 4358,
      "## الابجدي": 4359,
      "##يانات الت": 4360,
      "##قرن التاسع عشر": 4361,
      "## مركبه ": 4362,
      "## في يناير 2013": 4363,
      "ويكيبيدي": 4364,
      "##زرق": 4365,
      "##اعم": 4366,
      "##وقر": 4367,
      "##نوان": 4368,
      "## غير م": 4369,
      "##نمط": 4370,
      "##يمكن لاي شخص": 4371,
      "##بان": 4372,
      "##ي 2000": 4373,
      "## لدى": 4374,
      "##اد و": 4375,
      "##ها في ا": 4376,
      "##اكن ال": 4377,
      "## رحل": 4378,
      "##قرا ": 4379,
      "##تلازم": 4380,
      "##تكو": 4381,
      "## الزراع": 4382,
      "##كويت": 4383,
      "##تالي ": 4384,
      "##ه في اكثر": 4385,
      "##ه الصوت": 4386,
      "##تحرير ا": 4387,
      "##ا تلفظ": 4388,
      "## التعديلات على": 4389,
      "##فيف": 4390,
      "##ذي ت": 4391,
      "## الايطال": 4392,
      "##ه اول": 4393,
      "##يه الدول": 4394,
      "## التح": 4395,
      "##طلقت": 4396,
      "##احداث": 4397,
      "##خطاب": 4398,
      "## الفرق": 4399,
      "##يولا و": 4400,
      "##ا في ابريل": 4401,
      "##يسلند": 4402,
      "## رفض": 4403,
      "##سن ال": 4404,
      "##ساع": 4405,
      "##دق": 4406,
      "##شيت و": 4407,
      "##57": 4408,
      "##يه ذ": 4409,
      "##ه وهي ": 4410,
      "##ومن": 4411,
      "##كرر": 4412,
      "##ا متاح": 4413,
      "## الواقع": 4414,
      "## محافظ": 4415,
      "##مركب": 4416,
      "##تقع في ": 4417,
      "##ا التذكار": 4418,
      "##يه تقريبا من": 4419,
      "##اجم": 4420,
      "##ه تح": 4421,
      "## فت": 4422,
      "##ه اشهر": 4423,
      "##ه مما ": 4424,
      "## حيات": 4425,
      "##يمن ": 4426,
      "##اصيل": 4427,
      "##كنولوج": 4428,
      "##ه من خلال": 4429,
      "##ه من ويكيبيدي": 4430,
      "## خدم": 4431,
      "## الانواع": 4432,
      "##قدره على": 4433,
      "##وقت لاحق": 4434,
      "##تسويف": 4435,
      "## تم تسميه ": 4436,
      "## كره قدم": 4437,
      "##ي وفي يوليو 201": 4438,
      "## المقالات على": 4439,
      "##قالات ويكيبيدي": 4440,
      "## المواقع شعب": 4441,
      "##00 مجلد": 4442,
      "##نوع من النباتات المزهر": 4443,
      "## في يونيو 2019": 4444,
      "##ه من النيكل": 4445,
      "## فيما يتعلق بام": 4446,
      "##حتواها ل": 4447,
      "## تم ترميز": 4448,
      "## غيغابايت": 4449,
      "## افاد العلما ان ": 4450,
      "## اول ك الذين ليس لديهم": 4451,
      "##قوشه على الواح": 4452,
      "##خيل": 4453,
      "## المصري": 4454,
      "##يرى": 4455,
      "##ادث": 4456,
      "## يسمى": 4457,
      "##ينتم": 4458,
      "## في سنه ": 4459,
      "## نها ": 4460,
      "## على ويكيبيديا ": 4461,
      "##ه فيولا و": 4462,
      "##يتش": 4463,
      "##ا مبدا ال": 4464,
      "##01 كويكب": 4465,
      "##بلغ تعداد سكانها ": 4466,
      "##ا في عام 2019": 4467,
      "##يكيبيديا في ابريل": 4468,
      "##يكيبيديا في عام 2019": 4469,
      "## ارسل": 4470,
      "## حتى اول ك الذين ليس لديهم": 4471,
      "## ويكيبيديا في اكتوبر": 4472,
      "## ويكيبيديا المرتب": 4473,
      "## ويكيبيديا التذكار": 4474,
      "## ويكيبيديا مبدا ال": 4475,
      "##قار حتى اول ك الذين ليس لديهم": 4476,
      "##يمكن تحرير ا": 4477,
      "##ا كطباعه و": 4478,
      "## جميع المقالات على": 4479,
      "## حدود": 4480,
      "##2743": 4481,
      "## 106 من ": 4482,
      "##ان محتواها ل": 4483,
      "##يه في اصطناع": 4484,
      "## 16 تم ترميز": 4485,
      "##واسطه اي ": 4486,
      "## نشر التعديلات على": 4487,
      "##ا ان اللوحات": 4488,
      "##تحمل نسخه من ": 4489,
      "## اسرا يليه على سطح": 4490,
      "## يمكن ان تحتوي ا": 4491,
      "## المقاله من ويكيبيدي": 4492,
      "## 2014 تم تكريم": 4493,
      "##ا الانجليزيه تقريبا من": 4494,
      "##ا الانجليزيه في اصطناع": 4495,
      "## ويكيبيديا 2743": 4496,
      "##قالات ويمكن تحرير ا": 4497,
      "## ويكيبيديا بنصب": 4498,
      "## ويكيبيديا بواسطه اي ": 4499,
      "##ي مقاله على\r\n": 4500,
      "##ي مقاله على ويكيبيديا بواسطه اي ": 4501,
      "##ديسمبر 2016": 4502,
      "## يقول الخبر": 4503,
      "##هيار في يونيو 2019": 4504,
      "## حساب على ويكيبيديا ": 4505,
      "## القمر بيري": 4506,
      "##3 700 مجلد": 4507,
      "## من الانهيار في يونيو 2019": 4508,
      "## 2019 تحطمت": 4509,
      "## سميت ويكيبيديا 2743": 4510,
      "## ربما نجت": 4511,
      "##يه تتبع ويكيبيديا مبدا ال": 4512,
      "## تقريبا يمكن لاي شخص": 4513,
      "##ه الخامسه في اكثر": 4514,
      "##نتيجه لذلك يمكن ان تحتوي ا": 4515,
      "## انشا مقالات ويمكن تحرير ا": 4516,
      "##قد بدا مفتوح": 4517,
      "## احتلت ويكيبيديا المرتب": 4518,
      "##جميع ال 16 تم ترميز": 4519,
      "##هبوط اسرا يليه على سطح": 4520,
      "##سيتم نشر التعديلات على": 4521,
      "##جميع مقالات ويكيبيدي": 4522,
      "## على اسم ويكيبيديا في اكتوبر": 4523,
      "##ات التقليديه تتبع ويكيبيديا مبدا ال": 4524,
      "## رقيقه من النيكل": 4525,
      "## من نص المقاله من ويكيبيدي": 4526,
      "##5 اصبح 106 من ": 4527,
      "##ا من ويكيبيديا متاح": 4528,
      "##ي على عكس الموسوع": 4529,
      "##ا بالكامل تقريبا يمكن لاي شخص": 4530,
      "## الفور ونتيجه لذلك يمكن ان تحتوي ا": 4531,
      "##يه على مستوى العالم في يناير 2013": 4532,
      "##7473 700 مجلد": 4533,
      "## بحلول نهايه ديسمبر 2016": 4534,
      "## مركبه هبوط اسرا يليه على سطح": 4535,
      "ويكيبيديا تلفظ": 4536,
      "##شيت وتحمل نسخه من ": 4537,
      "##تسويف فيما يتعلق بام": 4538,
      "## تم تسميه نوع من النباتات المزهر": 4539,
      "##ي وفي يوليو 2015 اصبح 106 من ": 4540,
      "## المواقع شعبيه على مستوى العالم في يناير 2013": 4541,
      "## غيغابايت من نص المقاله من ويكيبيدي": 4542,
      "## افاد العلما ان جميع ال 16 تم ترميز": 4543,
      "##قوشه على الواح رقيقه من النيكل": 4544,
      "##ه فيولا ويكيبيديا في ابريل": 4545,
      "##01 كويكب على اسم ويكيبيديا في اكتوبر": 4546,
      "##يكيبيديا في عام 2019 تم تسميه نوع من النباتات المزهر": 4547,
      "## ويكيبيديا التذكاري وفي يوليو 2015 اصبح 106 من ": 4548,
      "##قار حتى اول ك الذين ليس لديهم حساب على ويكيبيديا ": 4549,
      "##ا كطباعه ويكيبيديا في عام 2019 تم تسميه نوع من النباتات المزهر": 4550,
      "## جميع المقالات على الفور ونتيجه لذلك يمكن ان تحتوي ا": 4551,
      "##ان محتواها لقد بدا مفتوح": 4552,
      "##ا ان اللوحات ربما نجت": 4553,
      "## 2014 تم تكريم ويكيبيديا بنصب": 4554,
      "##ا الانجليزيه تقريبا منقوشه على الواح رقيقه من النيكل": 4555,
      "##ا الانجليزيه في اصطناعي على عكس الموسوع": 4556,
      "##ي مقاله على ويكيبيديا بواسطه اي قار حتى اول ك الذين ليس لديهم حساب على ويكيبيديا ": 4557,
      "## يقول الخبرا ان اللوحات ربما نجت": 4558,
      "## القمر بيريشيت وتحمل نسخه من ": 4559,
      "## من الانهيار في يونيو 2019 افاد العلما ان جميع ال 16 تم ترميز": 4560,
      "## 2019 تحطمت مركبه هبوط اسرا يليه على سطح": 4561,
      "## سميت ويكيبيديا 274301 كويكب على اسم ويكيبيديا في اكتوبر": 4562,
      "##ه الخامسه في اكثر المواقع شعبيه على مستوى العالم في يناير 2013": 4563,
      "## انشا مقالات ويمكن تحرير اي مقاله على ويكيبيديا بواسطه اي قار حتى اول ك الذين ليس لديهم حساب على ويكيبيديا ": 4564,
      "## احتلت ويكيبيديا المرتبه الخامسه في اكثر المواقع شعبيه على مستوى العالم في يناير 2013": 4565,
      "##سيتم نشر التعديلات على جميع المقالات على الفور ونتيجه لذلك يمكن ان تحتوي ا": 4566,
      "##جميع مقالات ويكيبيديا الانجليزيه تقريبا منقوشه على الواح رقيقه من النيكل": 4567,
      "##ات التقليديه تتبع ويكيبيديا مبدا التسويف فيما يتعلق بام": 4568,
      "##ا من ويكيبيديا متاحا كطباعه ويكيبيديا في عام 2019 تم تسميه نوع من النباتات المزهر": 4569,
      "##ا بالكامل تقريبا يمكن لاي شخص انشا مقالات ويمكن تحرير اي مقاله على ويكيبيديا بواسطه اي قار حتى اول ك الذين ليس لديهم حساب على ويكيبيديا ": 4570,
      "##7473 700 مجلدا من ويكيبيديا متاحا كطباعه ويكيبيديا في عام 2019 تم تسميه نوع من النباتات المزهر": 4571,
      "## بحلول نهايه ديسمبر 2016 احتلت ويكيبيديا المرتبه الخامسه في اكثر المواقع شعبيه على مستوى العالم في يناير 2013": 4572,
      "ويكيبيديا تلفظ بحلول نهايه ديسمبر 2016 احتلت ويكيبيديا المرتبه الخامسه في اكثر المواقع شعبيه على مستوى العالم في يناير 2013": 4573,
      "## غيغابايت من نص المقاله من ويكيبيديا الانجليزيه في اصطناعي على عكس الموسوع": 4574,
      "##ه فيولا ويكيبيديا في ابريل 2019 تحطمت مركبه هبوط اسرا يليه على سطح": 4575,
      "## ويكيبيديا التذكاري وفي يوليو 2015 اصبح 106 من 7473 700 مجلدا من ويكيبيديا متاحا كطباعه ويكيبيديا في عام 2019 تم تسميه نوع من النباتات المزهر": 4576,
      "##ان محتواها لقد بدا مفتوحا بالكامل تقريبا يمكن لاي شخص انشا مقالات ويمكن تحرير اي مقاله على ويكيبيديا بواسطه اي قار حتى اول ك الذين ليس لديهم حساب على ويكيبيديا ": 4577,
      "## 2014 تم تكريم ويكيبيديا بنصب ويكيبيديا التذكاري وفي يوليو 2015 اصبح 106 من 7473 700 مجلدا من ويكيبيديا متاحا كطباعه ويكيبيديا في عام 2019 تم تسميه نوع من النباتات المزهر": 4578,
      "## يقول الخبرا ان اللوحات ربما نجت من الانهيار في يونيو 2019 افاد العلما ان جميع ال 16 تم ترميز": 4579,
      "## القمر بيريشيت وتحمل نسخه من جميع مقالات ويكيبيديا الانجليزيه تقريبا منقوشه على الواح رقيقه من النيكل": 4580,
      "## سميت ويكيبيديا 274301 كويكب على اسم ويكيبيديا في اكتوبر 2014 تم تكريم ويكيبيديا بنصب ويكيبيديا التذكاري وفي يوليو 2015 اصبح 106 من 7473 700 مجلدا من ويكيبيديا متاحا كطباعه ويكيبيديا في عام 2019 تم تسميه نوع من النباتات المزهر": 4581,
      "##سيتم نشر التعديلات على جميع المقالات على الفور ونتيجه لذلك يمكن ان تحتوي اي مقاله على\r\n": 4582,
      "##ات التقليديه تتبع ويكيبيديا مبدا التسويف فيما يتعلق بامان محتواها لقد بدا مفتوحا بالكامل تقريبا يمكن لاي شخص انشا مقالات ويمكن تحرير اي مقاله على ويكيبيديا بواسطه اي قار حتى اول ك الذين ليس لديهم حساب على ويكيبيديا ": 4583,
      "ويكيبيديا تلفظ بحلول نهايه ديسمبر 2016 احتلت ويكيبيديا المرتبه الخامسه في اكثر المواقع شعبيه على مستوى العالم في يناير 2013 سميت ويكيبيديا 274301 كويكب على اسم ويكيبيديا في اكتوبر 2014 تم تكريم ويكيبيديا بنصب ويكيبيديا التذكاري وفي يوليو 2015 اصبح 106 من 7473 700 مجلدا من ويكيبيديا متاحا كطباعه ويكيبيديا في عام 2019 تم تسميه نوع من النباتات المزهر": 4584,
      "## غيغابايت من نص المقاله من ويكيبيديا الانجليزيه في اصطناعي على عكس الموسوعات التقليديه تتبع ويكيبيديا مبدا التسويف فيما يتعلق بامان محتواها لقد بدا مفتوحا بالكامل تقريبا يمكن لاي شخص انشا مقالات ويمكن تحرير اي مقاله على ويكيبيديا بواسطه اي قار حتى اول ك الذين ليس لديهم حساب على ويكيبيديا ": 4585,
      "##ه فيولا ويكيبيديا في ابريل 2019 تحطمت مركبه هبوط اسرا يليه على سطح القمر بيريشيت وتحمل نسخه من جميع مقالات ويكيبيديا الانجليزيه تقريبا منقوشه على الواح رقيقه من النيكل": 4586,
      "## يقول الخبرا ان اللوحات ربما نجت من الانهيار في يونيو 2019 افاد العلما ان جميع ال 16 تم ترميز غيغابايت من نص المقاله من ويكيبيديا الانجليزيه في اصطناعي على عكس الموسوعات التقليديه تتبع ويكيبيديا مبدا التسويف فيما يتعلق بامان محتواها لقد بدا مفتوحا بالكامل تقريبا يمكن لاي شخص انشا مقالات ويمكن تحرير اي مقاله على ويكيبيديا بواسطه اي قار حتى اول ك الذين ليس لديهم حساب على ويكيبيديا ": 4587,
      "ويكيبيديا تلفظ بحلول نهايه ديسمبر 2016 احتلت ويكيبيديا المرتبه الخامسه في اكثر المواقع شعبيه على مستوى العالم في يناير 2013 سميت ويكيبيديا 274301 كويكب على اسم ويكيبيديا في اكتوبر 2014 تم تكريم ويكيبيديا بنصب ويكيبيديا التذكاري وفي يوليو 2015 اصبح 106 من 7473 700 مجلدا من ويكيبيديا متاحا كطباعه ويكيبيديا في عام 2019 تم تسميه نوع من النباتات المزهره فيولا ويكيبيديا في ابريل 2019 تحطمت مركبه هبوط اسرا يليه على سطح القمر بيريشيت وتحمل نسخه من جميع مقالات ويكيبيديا الانجليزيه تقريبا منقوشه على الواح رقيقه من النيكل": 4588,
      "## يقول الخبرا ان اللوحات ربما نجت من الانهيار في يونيو 2019 افاد العلما ان جميع ال 16 تم ترميز غيغابايت من نص المقاله من ويكيبيديا الانجليزيه في اصطناعي على عكس الموسوعات التقليديه تتبع ويكيبيديا مبدا التسويف فيما يتعلق بامان محتواها لقد بدا مفتوحا بالكامل تقريبا يمكن لاي شخص انشا مقالات ويمكن تحرير اي مقاله على ويكيبيديا بواسطه اي قار حتى اول ك الذين ليس لديهم حساب على ويكيبيديا سيتم نشر التعديلات على جميع المقالات على الفور ونتيجه لذلك يمكن ان تحتوي اي مقاله على\r\n": 4589,
      "ويكيبيديا تلفظ بحلول نهايه ديسمبر 2016 احتلت ويكيبيديا المرتبه الخامسه في اكثر المواقع شعبيه على مستوى العالم في يناير 2013 سميت ويكيبيديا 274301 كويكب على اسم ويكيبيديا في اكتوبر 2014 تم تكريم ويكيبيديا بنصب ويكيبيديا التذكاري وفي يوليو 2015 اصبح 106 من 7473 700 مجلدا من ويكيبيديا متاحا كطباعه ويكيبيديا في عام 2019 تم تسميه نوع من النباتات المزهره فيولا ويكيبيديا في ابريل 2019 تحطمت مركبه هبوط اسرا يليه على سطح القمر بيريشيت وتحمل نسخه من جميع مقالات ويكيبيديا الانجليزيه تقريبا منقوشه على الواح رقيقه من النيكل يقول الخبرا ان اللوحات ربما نجت من الانهيار في يونيو 2019 افاد العلما ان جميع ال 16 تم ترميز غيغابايت من نص المقاله من ويكيبيديا الانجليزيه في اصطناعي على عكس الموسوعات التقليديه تتبع ويكيبيديا مبدا التسويف فيما يتعلق بامان محتواها لقد بدا مفتوحا بالكامل تقريبا يمكن لاي شخص انشا مقالات ويمكن تحرير اي مقاله على ويكيبيديا بواسطه اي قار حتى اول ك الذين ليس لديهم حساب على ويكيبيديا سيتم نشر التعديلات على جميع المقالات على الفور ونتيجه لذلك يمكن ان تحتوي اي مقاله على\r\n": 4590,
      "##ظلت": 4591,
      "## وار": 4592,
      "##يه 1": 4593,
      "##يه حتى": 4594,
      "##ين مع": 4595,
      "##يه الع": 4596,
      "##افت": 4597,
      "## العال": 4598,
      "## قطر": 4599,
      "## 190": 4600,
      "##يقال": 4601,
      "## الباب": 4602,
      "##ا وقد": 4603,
      "## الشعر": 4604,
      "##ي لا ت": 4605,
      "## العلاج": 4606,
      "## من الامريكيين الاصليين و": 4607,
      "##ما يلي ال": 4608,
      "##بيد": 4609,
      "## المدرس": 4610,
      "## يعرف": 4611,
      "##يه بين ": 4612,
      "##نظري": 4613,
      "##بالغ": 4614,
      "## استقلال": 4615,
      "## الموافق": 4616,
      "##ها وب": 4617,
      "##اطم": 4618,
      "##يات ت": 4619,
      "##نتقل": 4620,
      "##ا وهو": 4621,
      "##تصوير": 4622,
      "##فتره ": 4623,
      "##2006": 4624,
      "##وظيف": 4625,
      "## ذكور و": 4626,
      "##شمس": 4627,
      "## مكتب تعداد الولايات المتحد": 4628,
      "## وام": 4629,
      "##وقيع": 4630,
      "##حساب": 4631,
      "##ي للسكان بنسبه ": 4632,
      "## وتوزع التركيب الجنس": 4633,
      "## ولكن": 4634,
      "## من الاعراق": 4635,
      "## وتوزع التركيب الجنسي للسكان بنسبه ": 4636,
      "##قبر": 4637,
      "##ثيق": 4638,
      "##ى وال": 4639,
      "## اصل": 4640,
      "## اهداف": 4641,
      "##وري ": 4642,
      "## من ذلك": 4643,
      "##تقويم": 4644,
      "##نوان ": 4645,
      "##عداد الولايات المتحده في ": 4646,
      "##ه السكانيه حسب تعداد": 4647,
      "##تركيبه السكانيه حسب تعداد": 4648,
      "##نيويورك": 4649,
      "##يانات التركيب": 4650,
      "##ما يلي التركيبه السكانيه حسب تعداد": 4651,
      "## مكتب تعداد الولايات المتحده ب": 4652,
      "##عداد الولايات المتحده في ما يلي التركيبه السكانيه حسب تعداد": 4653,
      "## اغن": 4654,
      "## مهم": 4655,
      "##انع": 4656,
      "##ورث": 4657,
      "##ستانت": 4658,
      "##افضل": 4659,
      "## قن": 4660,
      "##خراج": 4661,
      "## شهد": 4662,
      "## الشام": 4663,
      "##يجاب": 4664,
      "## 2005": 4665,
      "## نسمه بحسب تعداد عام 201": 4666,
      "## من الاعراق الاخرى و": 4667,
      "##عداد الولايات المتحده في ما يلي التركيبه السكانيه حسب تعدادي 2000": 4668,
      "##يه مر": 4669,
      "##انز": 4670,
      "## المزدوج": 4671,
      "##ين الت": 4672,
      "##اهير": 4673,
      "##صحف": 4674,
      "## نسمه بحسب تعداد عام 2010 وبلغ عدد الاسر": 4675,
      "##هيد": 4676,
      "##دا ر": 4677,
      "## وقال": 4678,
      "##يه عند": 4679,
      "##يه المت": 4680,
      "## سيطر": 4681,
      "##افات": 4682,
      "## قت": 4683,
      "##ا لم": 4684,
      "## النس": 4685,
      "##ها ان": 4686,
      "## الدكتور": 4687,
      "## ايضا ال": 4688,
      "##رسوم": 4689,
      "## نسمه لكل ميل مربع": 4690,
      "##عداد الولايات المتحده في ما يلي التركيبه السكانيه حسب تعدادي 2000 و2010": 4691,
      "##ساو": 4692,
      "##جيع": 4693,
      "## اي ا": 4694,
      "## اطلاق": 4695,
      "## لو": 4696,
      "##ه واست": 4697,
      "##معهد": 4698,
      "## الجزير": 4699,
      "##تقسيم": 4700,
      "##بدل": 4701,
      "##حيث ت": 4702,
      "## تقديم": 4703,
      "## عبد العزيز": 4704,
      "##منتصف": 4705,
      "## كانت تتالف من شخص يعيش بمفرده يبلغ من العمر 65 عاما او اكثر وبلغ متوسط حجم الاسره المعيشيه 2": 4706,
      "##بيان": 4707,
      "## جن": 4708,
      "## القلب": 4709,
      "## عليه ال": 4710,
      "##نهايه ال": 4711,
      "## عام 2000 وبلغ عدد الاسر": 4712,
      "## احصا ": 4713,
      "## نسمه بحسب تعداد عام 2000 وبلغ عدد الاسر": 4714,
      "##عث": 4715,
      "##88": 4716,
      "## اكس": 4717,
      "##ه تر": 4718,
      "## وغ": 4719,
      "## المستخدم": 4720,
      "##ينا ": 4721,
      "##ي اسم": 4722,
      "## في الثامنه عشر": 4723,
      "## السادس": 4724,
      "## الجسم": 4725,
      "## بلغ متوسط": 4726,
      "##عودي": 4727,
      "##واص": 4728,
      "##بغ": 4729,
      "## الطبق": 4730,
      "## مخ": 4731,
      "## المدن": 4732,
      "##ه فبلغ": 4733,
      "##اجد": 4734,
      "## البي ": 4735,
      "## خلف": 4736,
      "## شبك": 4737,
      "##تيال": 4738,
      "##عف": 4739,
      "##صيد": 4740,
      "## المدارس": 4741,
      "## الاعلى": 4742,
      "##يا من ": 4743,
      "## جنب": 4744,
      "##وفد": 4745,
      "##يشار": 4746,
      "##اذا ": 4747,
      "##ه عندما ": 4748,
      "##يا الى": 4749,
      "##تون ": 4750,
      "##ميل": 4751,
      "##بوب": 4752,
      "##شغل": 4753,
      "## المملك": 4754,
      "##وسا ل": 4755,
      "##سلوك": 4756,
      "##يفورن": 4757,
      "##نتاج": 4758,
      "##خامس عشر": 4759,
      "##شفى": 4760,
      "## دخل الفرد": 4761,
      "##الكترون": 4762,
      "##تت": 4763,
      "##ديه ": 4764,
      "##شط": 4765,
      "## اجز": 4766,
      "##ه الاخير": 4767,
      "##باراه ال": 4768,
      "##ها فما فوق": 4769,
      "##ختار": 4770,
      "## مليون دولار": 4771,
      "## ذكر ويوجد": 4772,
      "##حصل على": 4773,
      "## يوجد لكل 100 انثى": 4774,
      "## لكل 100 انثى في الثامنه عشر": 4775,
      "## من عمرها فما فوق": 4776,
      "## ذكر ويوجد لكل 100 انثى في الثامنه عشر": 4777,
      "## ذكر ويوجد لكل 100 انثى في الثامنه عشر من عمرها فما فوق": 4778,
      "##اوت": 4779,
      "##زيار": 4780,
      "## ال\r\n": 4781,
      "## الياب": 4782,
      "##ورك": 4783,
      "##ه ومن ": 4784,
      "## العاصم": 4785,
      "##ا بين ": 4786,
      "##يه وهي ": 4787,
      "##يين في ": 4788,
      "##اظ على": 4789,
      "##فاوض": 4790,
      "##يفر": 4791,
      "##ياز": 4792,
      "##غا": 4793,
      "##يرك": 4794,
      "## عهد": 4795,
      "##هم م": 4796,
      "##حتاج": 4797,
      "##ه والتي ": 4798,
      "##قبول": 4799,
      "##نجاح": 4800,
      "##يه التي ا": 4801,
      "##خفيف": 4802,
      "## وسجل دخل الفرد": 4803,
      "## وسجل دخل الفرد الخاص": 4804,
      "## دين": 4805,
      "##عكس": 4806,
      "## فيه ال": 4807,
      "## تعتبر": 4808,
      "## ان الم": 4809,
      "##منتج": 4810,
      "## دقيق": 4811,
      "##موض": 4812,
      "## تعرف": 4813,
      "##ماثل": 4814,
      "## مدار": 4815,
      "## لبن": 4816,
      "## كد": 4817,
      "##ينيات ال": 4818,
      "##هم ا": 4819,
      "##ه فل": 4820,
      "##او ب": 4821,
      "##يختلف": 4822,
      "##ايا الم": 4823,
      "##ه الحرب": 4824,
      "##خطيط": 4825,
      "## دخل الاسر": 4826,
      "## الانسان": 4827,
      "## القوات ال": 4828,
      "##يحدث": 4829,
      "##سوري": 4830,
      "##عزل": 4831,
      "##ى الل": 4832,
      "##ا يق": 4833,
      "##ي كل": 4834,
      "## تف": 4835,
      "## والف": 4836,
      "## البيان": 4837,
      "##اثار": 4838,
      "## 2015": 4839,
      "##مساح": 4840,
      "## اعتبار": 4841,
      "## ايضا ا": 4842,
      "## العا له فبلغ": 4843,
      "## بلغ متوسط دخل الاسر": 4844,
      "## صل": 4845,
      "##طيور": 4846,
      "##يه ون": 4847,
      "##يه ود": 4848,
      "##علما ": 4849,
      "##ه ابو": 4850,
      "## قابل": 4851,
      "##فلسط": 4852,
      "## بدل": 4853,
      "## جز ا": 4854,
      "##اناث وسجل دخل الفرد الخاص": 4855,
      "##متوسط دخل الذكور": 4856,
      "##س ول": 4857,
      "##حيل": 4858,
      "##صير": 4859,
      "## المسرح": 4860,
      "## يعد": 4861,
      "##بلوماس": 4862,
      "##هم الى": 4863,
      "##تمييز": 4864,
      "##يه والتي ": 4865,
      "##تقوم": 4866,
      "##حروب": 4867,
      "##قوان": 4868,
      "##ه جديد": 4869,
      "## ذكر بلغ متوسط دخل الاسر": 4870,
      "##زارع": 4871,
      "##تفع عن سطح البحر": 4872,
      "## جماع": 4873,
      "##صين ": 4874,
      "##عليها ": 4875,
      "##ه مست": 4876,
      "##ه فقد": 4877,
      "## دم": 4878,
      "## دار": 4879,
      "## شهاد": 4880,
      "## رقم": 4881,
      "##ايطال": 4882,
      "## في مجال": 4883,
      "## وحيد": 4884,
      "##صطفى": 4885,
      "##بث": 4886,
      "##كاثوليك": 4887,
      "## اطلق": 4888,
      "##ه احد": 4889,
      "##ون من ": 4890,
      "## صاحب": 4891,
      "##صنوع": 4892,
      "##كذ": 4893,
      "##ظف": 4894,
      "## الالم": 4895,
      "##ه المل": 4896,
      "## الافريق": 4897,
      "##يرت": 4898,
      "##ابد": 4899,
      "## يجب": 4900,
      "##يا ج": 4901,
      "## الباحث": 4902,
      "##تباط": 4903,
      "##جام": 4904,
      "##شيد": 4905,
      "##خام": 4906,
      "## السلام": 4907,
      "##ا ثم": 4908,
      "##ه الجنوب": 4909,
      "##ه الفرنس": 4910,
      "## تعليم": 4911,
      "##يه الشرق": 4912,
      "## شديد": 4913,
      "## بالل": 4914,
      "##تفسير": 4915,
      "##انسان": 4916,
      "## اناث\r\n": 4917,
      "##قح": 4918,
      "##دريب": 4919,
      "##66": 4920,
      "##حيو": 4921,
      "##صعب": 4922,
      "##شتق": 4923,
      "##غادر": 4924,
      "##غزو": 4925,
      "## الماد": 4926,
      "## والن": 4927,
      "##هما ال": 4928,
      "## منح": 4929,
      "##درع": 4930,
      "## الكرب": 4931,
      "## صدر": 4932,
      "## تشكيل": 4933,
      "## الانسان ": 4934,
      "## من الامريكيين ذوي الاصول الاسيويه و": 4935,
      "## صف": 4936,
      "##ت هذه ال": 4937,
      "##كليه ال": 4938,
      "## اواخر": 4939,
      "##يه اذ": 4940,
      "##حروف": 4941,
      "## الخدم": 4942,
      "##مواد": 4943,
      "## وفي ا": 4944,
      "##ه الاخرى": 4945,
      "##يبرال": 4946,
      "##هديد": 4947,
      "##قتصادي": 4948,
      "##كشف": 4949,
      "##حديد": 4950,
      "##ه الخارج": 4951,
      "## كول": 4952,
      "## يقع": 4953,
      "## على الا": 4954,
      "## الى ان ": 4955,
      "##خروج": 4956,
      "## شيوع": 4957,
      "##اسباب": 4958,
      "##نجر": 4959,
      "## اصدار": 4960,
      "## مقر": 4961,
      "## المقطع": 4962,
      "## في هذه ال": 4963,
      "##يعتمد": 4964,
      "##طراف": 4965,
      "##عدد من ال": 4966,
      "##هود": 4967,
      "##86": 4968,
      "##ه داخل": 4969,
      "##برج": 4970,
      "## هل": 4971,
      "## العصب": 4972,
      "## منظم": 4973,
      "##قليدي": 4974,
      "##دمج": 4975,
      "##عمليات": 4976,
      "##ايير": 4977,
      "##كسيك": 4978,
      "## بدور": 4979,
      "##محاول": 4980,
      "##يستطيع": 4981,
      "## الثاني ": 4982,
      "## وكان من ": 4983,
      "##عامل مع": 4984,
      "##قانون ال": 4985,
      "## جهاز": 4986,
      "##ساب": 4987,
      "##سجد": 4988,
      "##ثاب": 4989,
      "##ه العلم": 4990,
      "##ه الاخ": 4991,
      "##امم المتحد": 4992,
      "## باك": 4993,
      "##كتيري": 4994,
      "##وفقا ل": 4995,
      "##ه عبر": 4996,
      "## 31": 4997,
      "##شاريع": 4998,
      "##باريس": 4999,
      "## اعتماد": 5000,
      "##ه العربيه الس": 5001,
      "## الضغط": 5002,
      "##كيف": 5003,
      "##حك": 5004,
      "##ضعت": 5005,
      "## اث": 5006,
      "## اصدر": 5007,
      "## الجماع": 5008,
      "##ه عام 19": 5009,
      "## واع": 5010,
      "## المصاب": 5011,
      "##ه وا": 5012,
      "##هم ف": 5013,
      "##يدو": 5014,
      "##ثلث": 5015,
      "##يه لم": 5016,
      "##ه نحو": 5017,
      "## خط الفقر": 5018,
      "## الانتخاب": 5019,
      "##يقدر عدد سكانها ": 5020,
      "## الالمان": 5021,
      "## الاغ": 5022,
      "## النظر": 5023,
      "##ا في الا": 5024,
      "##يمكن لل": 5025,
      "##سادس عشر": 5026,
      "##يانات التركيبه السكان": 5027,
      "##وتر": 5028,
      "## اج": 5029,
      "## نبات": 5030,
      "##ه بان": 5031,
      "##منزل": 5032,
      "##يا وم": 5033,
      "## الحق": 5034,
      "##ه تت": 5035,
      "## قامت": 5036,
      "## وترتفع عن سطح البحر": 5037,
      "##قعد": 5038,
      "##دن ": 5039,
      "##غز": 5040,
      "##ه الجزير": 5041,
      "## سعد": 5042,
      "##هم من ال": 5043,
      "##ه المست": 5044,
      "##ها\r\n": 5045,
      "##حيث ي": 5046,
      "##قبض": 5047,
      "## الهجر": 5048,
      "## فلسط": 5049,
      "## الاحمر": 5050,
      "## الرحمن ": 5051,
      "##ييم": 5052,
      "##فيز": 5053,
      "##عين": 5054,
      "## الجمهور": 5055,
      "## موجود": 5056,
      "##يرو": 5057,
      "##ورق": 5058,
      "## سبع": 5059,
      "## انف": 5060,
      "## دع": 5061,
      "## السيد": 5062,
      "## مجموعه من ال": 5063,
      "##روح": 5064,
      "##طفل": 5065,
      "##ضيق": 5066,
      "##ه الخاص": 5067,
      "##ه السياس": 5068,
      "## مملك": 5069,
      "## مدرس": 5070,
      "## كاف": 5071,
      "##شرح": 5072,
      "## 27": 5073,
      "##اجح": 5074,
      "## النهر": 5075,
      "## الجانب": 5076,
      "## انتشر": 5077,
      "## كبير من ال": 5078,
      "##بعض الاحي": 5079,
      "##هتمام": 5080,
      "##ت الا": 5081,
      "##شكال": 5082,
      "##ه هناك": 5083,
      "##يه كان ": 5084,
      "##ورم": 5085,
      "##ان وم": 5086,
      "## سيد": 5087,
      "## البن": 5088,
      "##غلاف": 5089,
      "##شاركت": 5090,
      "##ات مختلف": 5091,
      "## كما ان": 5092,
      "##عمر و": 5093,
      "## العلوم": 5094,
      "##زمن ": 5095,
      "## اثنا ": 5096,
      "## اغلب": 5097,
      "## الجمع": 5098,
      "##ه 5": 5099,
      "##ه ذات": 5100,
      "##يه كم": 5101,
      "## فهو": 5102,
      "##ون ان ": 5103,
      "## هم": 5104,
      "##ه فان": 5105,
      "##سلاح": 5106,
      "##حدوث": 5107,
      "##بعاد": 5108,
      "## 2003": 5109,
      "##وكال": 5110,
      "##ضافه الى": 5111,
      "## اسبانيا ": 5112,
      "##مين": 5113,
      "##91": 5114,
      "##85": 5115,
      "## الدرج": 5116,
      "## واخ": 5117,
      "## الما ": 5118,
      "## بذلك": 5119,
      "##ه اكبر": 5120,
      "## يوسف": 5121,
      "## سيجونغ": 5122,
      "## على ذلك": 5123,
      "##اقص": 5124,
      "##حدر": 5125,
      "## النظ": 5126,
      "## استطاع": 5127,
      "##ه كاس": 5128,
      "##ي والم": 5129,
      "##عداد الولايات المتحده في ما يلي التركيبه السكانيه حسب تعدادي 2000 و2010 بلغ عدد سكان ": 5130,
      "##فقد": 5131,
      "##فاز": 5132,
      "##كنت": 5133,
      "##ه القر": 5134,
      "## بو": 5135,
      "## تجار": 5136,
      "## انتقال": 5137,
      "##اجل": 5138,
      "## القا م": 5139,
      "##معالج": 5140,
      "## البول": 5141,
      "##ي واحد": 5142,
      "## الكهربا ": 5143,
      "## علي ": 5144,
      "##فسير": 5145,
      "## قرار": 5146,
      "## الرغم من ا": 5147,
      "##ه الصين": 5148,
      "##هن ": 5149,
      "##نر": 5150,
      "##نيخ": 5151,
      "##كذا ": 5152,
      "##ه المركز": 5153,
      "##ه البريطان": 5154,
      "## واضح": 5155,
      "##ها من": 5156,
      "##تمتع": 5157,
      "##ه لغ": 5158,
      "##طلوب": 5159,
      "##يشمل": 5160,
      "##طراز": 5161,
      "##حرم": 5162,
      "##حمد بن ": 5163,
      "## فرع": 5164,
      "## المحافظ": 5165,
      "## اعلنت": 5166,
      "##ياج": 5167,
      "##دستور": 5168,
      "## از": 5169,
      "## اقرب": 5170,
      "## اثار": 5171,
      "## المختلف": 5172,
      "## تطوير": 5173,
      "## تكوين": 5174,
      "## عندما ا": 5175,
      "## البرتغال": 5176,
      "##راتيج": 5177,
      "##هاجر": 5178,
      "## وز": 5179,
      "##ريغ": 5180,
      "## لين": 5181,
      "## عصر": 5182,
      "##برت": 5183,
      "## ساكن": 5184,
      "##ون حتى": 5185,
      "## قول": 5186,
      "## جيد": 5187,
      "## بالت": 5188,
      "##حيى": 5189,
      "##لغه الكور": 5190,
      "## اسما ": 5191,
      "## 500": 5192,
      "## اخرين ": 5193,
      "## عمليه ال": 5194,
      "##صمم": 5195,
      "## المنتخب": 5196,
      "##هيون": 5197,
      "##سس": 5198,
      "##ا وع": 5199,
      "## شا ع": 5200,
      "##اضل": 5201,
      "##يه مصر": 5202,
      "## الانترنت": 5203,
      "##ي كان ": 5204,
      "## بح": 5205,
      "## الاطل": 5206,
      "##ي الف": 5207,
      "##ي الع": 5208,
      "##ها ول": 5209,
      "## كوم": 5210,
      "## نقص": 5211,
      "## حديث": 5212,
      "##ه لا ت": 5213,
      "##يه بسبب": 5214,
      "## الله ": 5215,
      "##طبيب": 5216,
      "##ه عاد": 5217,
      "## ابطال": 5218,
      "##كتابه ال": 5219,
      "## نسمه في ": 5220,
      "##اغو": 5221,
      "##ظمه الكتاب": 5222,
      "##عديد من الم": 5223,
      "##يرين ": 5224,
      "##مكن": 5225,
      "##ي عن ": 5226,
      "## مال": 5227,
      "## الموج": 5228,
      "## تيار": 5229,
      "## له ": 5230,
      "##ادى": 5231,
      "## والب": 5232,
      "## العظم": 5233,
      "## من العا ل": 5234,
      "## قبيل": 5235,
      "##ا لم ي": 5236,
      "##وفق": 5237,
      "##ثماني ": 5238,
      "## في مدينه ": 5239,
      "##صوات": 5240,
      "##شابه": 5241,
      "##يها": 5242,
      "##ي وق": 5243,
      "## مسرح": 5244,
      "## وان ": 5245,
      "## بريطان": 5246,
      "##وراق": 5247,
      "##ندوق": 5248,
      "##ه تقع": 5249,
      "## ابجد": 5250,
      "## 2004": 5251,
      "##ي في عام 19": 5252,
      "## مرور": 5253,
      "##فتتاح": 5254,
      "##ناف": 5255,
      "##رابط": 5256,
      "##عارض": 5257,
      "##ذل": 5258,
      "## معد": 5259,
      "## الا ان": 5260,
      "## الا ان ": 5261,
      "##وراس": 5262,
      "## جورج": 5263,
      "## الفت": 5264,
      "## الفق": 5265,
      "##ثمانيه ": 5266,
      "##ه للت": 5267,
      "##بلده ب": 5268,
      "## يمكن": 5269,
      "## نوع من ال": 5270,
      "## نهايه ال": 5271,
      "##ي لكره القدم": 5272,
      "##يهو": 5273,
      "##اها ": 5274,
      "##ه اله": 5275,
      "## المباشر": 5276,
      "##ريست": 5277,
      "## تكون ": 5278,
      "## حلق": 5279,
      "## العصور": 5280,
      "##منح": 5281,
      "## الى الم": 5282,
      "## البوم": 5283,
      "##وا في ال": 5284,
      "##استر": 5285,
      "##جز ": 5286,
      "## مرحل": 5287,
      "##كوريا الجنوبيه ": 5288,
      "##جاع": 5289,
      "##خطر": 5290,
      "##ه 19": 5291,
      "##ه وبعد": 5292,
      "## في ب": 5293,
      "##لكل": 5294,
      "##ي اكس": 5295,
      "##يمس": 5296,
      "##احص": 5297,
      "## قياس": 5298,
      "##يكت": 5299,
      "##ي لم": 5300,
      "##تقن": 5301,
      "##مساو": 5302,
      "##ه كال": 5303,
      "##تحت خط الفقر": 5304,
      "## العربيه ": 5305,
      "##اقليم": 5306,
      "## الرغم من ان ": 5307,
      "## نطاق واسع": 5308,
      "## الجهاز": 5309,
      "##ثامن عشر": 5310,
      "##سفر": 5311,
      "##81": 5312,
      "##ا ري": 5313,
      "## عود": 5314,
      "## يقوم": 5315,
      "## سعيد": 5316,
      "##تحويل": 5317,
      "##وبعد": 5318,
      "##اكيد": 5319,
      "##صل على": 5320,
      "##ا بد": 5321,
      "##يزاب": 5322,
      "##نتا ج": 5323,
      "##سياح": 5324,
      "##جنود": 5325,
      "##ثاني ": 5326,
      "##هولند": 5327,
      "##كف": 5328,
      "##89": 5329,
      "##ات غير": 5330,
      "##وراث": 5331,
      "##ه احرف": 5332,
      "## في ل": 5333,
      "## حب": 5334,
      "##وسى": 5335,
      "## قا د": 5336,
      "##بنا ": 5337,
      "##تكون من ": 5338,
      "##شتهر": 5339,
      "##يوف": 5340,
      "##صحر": 5341,
      "## ايل": 5342,
      "## با": 5343,
      "##ربما ": 5344,
      "##ترو": 5345,
      "##تمكن ": 5346,
      "##معرف": 5347,
      "## الساحل": 5348,
      "## بالقرب": 5349,
      "##ه في البلد": 5350,
      "##كسج": 5351,
      "##تدخل": 5352,
      "##تدريب": 5353,
      "## المستوى": 5354,
      "##اربعون ": 5355,
      "## الخلاف": 5356,
      "## الخليج": 5357,
      "##2011": 5358,
      "## من السكان تحت خط الفقر": 5359,
      "## ثنا ": 5360,
      "##ييت": 5361,
      "##اه م": 5362,
      "##طيف": 5363,
      "##ه قو": 5364,
      "## تعرض": 5365,
      "##ا اما ": 5366,
      "##وبال": 5367,
      "## قادر": 5368,
      "##ه لان": 5369,
      "##يه وكان ": 5370,
      "## كما ا": 5371,
      "##شعار": 5372,
      "##يه في المدارس": 5373,
      "##سا ر": 5374,
      "##قبال": 5375,
      "##درب": 5376,
      "##83": 5377,
      "##خسر": 5378,
      "## الاصاب": 5379,
      "##نفذ": 5380,
      "##لغه العرب": 5381,
      "##شارع": 5382,
      "##ات ونسبه ": 5383,
      "##ضمام": 5384,
      "## سليم": 5385,
      "## من العا لات ونسبه ": 5386,
      "##وا الى": 5387,
      "##رر": 5388,
      "##طير": 5389,
      "##طون": 5390,
      "##59": 5391,
      "## اعت": 5392,
      "##ه نو": 5393,
      "##يلي ": 5394,
      "## على الن": 5395,
      "##ات الدول": 5396,
      "##هو الحال": 5397,
      "## في الخامسه والستين ": 5398,
      "##يه والت": 5399,
      "## طالب": 5400,
      "##تناول": 5401,
      "##ابحاث": 5402,
      "## يست": 5403,
      "##سبيل": 5404,
      "##يه وذلك": 5405,
      "##من العمر و": 5406,
      "## الاولمب": 5407,
      "##ولايات المتحده الامريك": 5408,
      "##وابط": 5409,
      "##يجب ان ": 5410,
      "## في الخامسه والستين من العمر و": 5411,
      "## في الخامسه والستين من العمر وما فوق": 5412,
      "##وين": 5413,
      "##طا ف": 5414,
      "##عيم": 5415,
      "##ظا ف": 5416,
      "##صاد": 5417,
      "##ا هي ": 5418,
      "##يه ع": 5419,
      "## بغداد": 5420,
      "##ه وبال": 5421,
      "##تراع": 5422,
      "## البال": 5423,
      "##ا متحرك": 5424,
      "##ات المسلح": 5425,
      "## الذي ي": 5426,
      "##ه الروس": 5427,
      "##بريد": 5428,
      "## تحقيق": 5429,
      "## رف": 5430,
      "##اين ": 5431,
      "##82": 5432,
      "##يه خلال": 5433,
      "##امبراطور": 5434,
      "## بك": 5435,
      "## تستخدم": 5436,
      "##ها بعض": 5437,
      "##يه الف": 5438,
      "##يه المن": 5439,
      "## في ن": 5440,
      "##افور": 5441,
      "##هم على": 5442,
      "##تراث": 5443,
      "## 29": 5444,
      "##يا ت": 5445,
      "## الحيو": 5446,
      "## السنو": 5447,
      "## معرك": 5448,
      "##دماج": 5449,
      "##اهب": 5450,
      "## في مصر": 5451,
      "##يوباتر": 5452,
      "## منتصف": 5453,
      "## الرابعه وال": 5454,
      "##كسبير": 5455,
      "## ه ل": 5456,
      "##ضى": 5457,
      "##ضمت": 5458,
      "##ي ثم": 5459,
      "##ان بال": 5460,
      "##يه القديم": 5461,
      "## العمال": 5462,
      "## الحصول": 5463,
      "##ه والتي ت": 5464,
      "##انتقال": 5465,
      "##جز ا": 5466,
      "##مواجه": 5467,
      "##حرف متحرك": 5468,
      "##ابلس": 5469,
      "## ترجم": 5470,
      "##ه لا نسبه ": 5471,
      "##ه للمقاطع": 5472,
      "## وكان من ه لا نسبه ": 5473,
      "## من السكان تحت خط الفقر وكان من ه لا نسبه ": 5474,
      "##سما ": 5475,
      "##لاعب": 5476,
      "##عصور": 5477,
      "##شيح": 5478,
      "##غرف": 5479,
      "## بنفس": 5480,
      "##ه وكانت": 5481,
      "##ينتج": 5482,
      "## في موسم": 5483,
      "## الحمل": 5484,
      "## هذه الح": 5485,
      "##حلب": 5486,
      "##استعمال": 5487,
      "##ات المت": 5488,
      "## من افراد": 5489,
      "## المرحل": 5490,
      "## في الاصل": 5491,
      "##ر ي": 5492,
      "##ضطر": 5493,
      "## مشارك": 5494,
      "## وسط": 5495,
      "##ان لل": 5496,
      "##ا الذي ": 5497,
      "## التهاب": 5498,
      "## هيل": 5499,
      "## القانون": 5500,
      "## النار": 5501,
      "##بلغ عدد": 5502,
      "##ا الاحرف": 5503,
      "## الاربع": 5504,
      "##يه هانغل": 5505,
      "## حقوق": 5506,
      "##افلام": 5507,
      "##فورد": 5508,
      "##84": 5509,
      "##ه السل": 5510,
      "## مشروع": 5511,
      "## فعال": 5512,
      "## لمده ": 5513,
      "##ورو": 5514,
      "## في تاريخ": 5515,
      "## التابع": 5516,
      "## هونم": 5517,
      "##خلاق": 5518,
      "##يقرب": 5519,
      "##ا باسم": 5520,
      "##اضطراب": 5521,
      "## عامل": 5522,
      "##عموم": 5523,
      "## الدفاع": 5524,
      "## الابجديه الكوري": 5525,
      "##جهاد": 5526,
      "## تشوي سج": 5527,
      "##ه جيا ج": 5528,
      "## الملك سيجونغ": 5529,
      "## الاحرف في ": 5530,
      "##اكنا و": 5531,
      "##رسال": 5532,
      "##احرف الكور": 5533,
      "##ه المنقح": 5534,
      "##ونغجا": 5535,
      "## حرفا متحرك": 5536,
      "##ه الكوريه المنقح": 5537,
      "##اكثر من ": 5538,
      "## تحت سن الثامنه عشر ونسبه ": 5539,
      "## التابعه لمحافظ": 5540,
      "## حروف متحرك": 5541,
      "##نهايه المقطع": 5542,
      "##يوضح الجدول التالي الاحرف": 5543,
      "##رومنه الكوريه المنقح": 5544,
      "## حرفا ساكنا و": 5545,
      "## ابجديه هانغل": 5546,
      "## تشوي سجين ": 5547,
      "##ونغجاهو": 5548,
      "##يين الم": 5549,
      "##فن ": 5550,
      "##فهم": 5551,
      "## في بعض": 5552,
      "## في عام 18": 5553,
      "## منع": 5554,
      "##ه المصر": 5555,
      "##تركيز": 5556,
      "## الاستقلال": 5557,
      "##رسول": 5558,
      "##هي احدى": 5559,
      "##شهدت": 5560,
      "## النوو": 5561,
      "##ذيب": 5562,
      "##ا كما ": 5563,
      "##ي ون": 5564,
      "## لك": 5565,
      "## عرب": 5566,
      "##ه ومن": 5567,
      "## انخفاض": 5568,
      "##يوز": 5569,
      "##ه والد": 5570,
      "##ي بين ": 5571,
      "##ا وفي ": 5572,
      "##ي الاول": 5573,
      "##2009": 5574,
      "##نهايه ": 5575,
      "## الحرار": 5576,
      "##ضج": 5577,
      "##ه قر": 5578,
      "## بحر": 5579,
      "## بما في ذلك": 5580,
      "##ديهم": 5581,
      "##يه الن": 5582,
      "## اند": 5583,
      "##وسيع": 5584,
      "##يتين ": 5585,
      "## البيض": 5586,
      "## الشيوع": 5587,
      "## ابن ال": 5588,
      "##وا ر": 5589,
      "##بحير": 5590,
      "##ه ر يس": 5591,
      "##م تكن ": 5592,
      "##عوامل": 5593,
      "##رومان": 5594,
      "##اه الم": 5595,
      "##تغير": 5596,
      "##شو": 5597,
      "##ه 4": 5598,
      "## وما ": 5599,
      "## فصل": 5600,
      "##ي ان ال": 5601,
      "##نفط": 5602,
      "##غلق": 5603,
      "## الواحد": 5604,
      "## مساعد": 5605,
      "##فترض": 5606,
      "##حرب العالميه ال": 5607,
      "## القرن العشرين ": 5608,
      "##يه هي ال": 5609,
      "##سعد": 5610,
      "##تا ": 5611,
      "##قطر": 5612,
      "##وغل": 5613,
      "##كمل": 5614,
      "## الدي": 5615,
      "##اتم": 5616,
      "## المعت": 5617,
      "##ه وي": 5618,
      "##وس و": 5619,
      "## جزير": 5620,
      "## رجال": 5621,
      "##يه است": 5622,
      "## الصور": 5623,
      "## 70": 5624,
      "## ضغط": 5625,
      "##حوث": 5626,
      "##ات والم": 5627,
      "## اشع": 5628,
      "##كون من ": 5629,
      "##اعلام": 5630,
      "##هذه المدينه ": 5631,
      "## اشار": 5632,
      "##ه هذا ال": 5633,
      "## بور": 5634,
      "## فن": 5635,
      "## فير": 5636,
      "## انهم": 5637,
      "##اكت": 5638,
      "## جبل": 5639,
      "##ا لا ": 5640,
      "##ي للك": 5641,
      "##دينه ال": 5642,
      "## القرا ": 5643,
      "##سمح ل": 5644,
      "## الرومان": 5645,
      "##اود": 5646,
      "##طوع": 5647,
      "## الميا": 5648,
      "## عال": 5649,
      "##ه وعلى": 5650,
      "##برتغال": 5651,
      "##قدمت": 5652,
      "## اوا ل": 5653,
      "##سيج": 5654,
      "##شرق الاوسط": 5655,
      "## 90": 5656,
      "## تقوم": 5657,
      "##اذج": 5658,
      "##ديريه ": 5659,
      "## انتقل الى": 5660,
      "##تنظيم": 5661,
      "##تطوير": 5662,
      "##شك": 5663,
      "##شهور": 5664,
      "##غش": 5665,
      "##خور": 5666,
      "##خضر": 5667,
      "## افراد": 5668,
      "## الست": 5669,
      "## العدد": 5670,
      "##اتها ال": 5671,
      "##امت": 5672,
      "## بطل": 5673,
      "## الاعل": 5674,
      "##يه الامريك": 5675,
      "##هم في ال": 5676,
      "## الحمر": 5677,
      "## الى حد": 5678,
      "##هو م": 5679,
      "## رسول": 5680,
      "##يسكو": 5681,
      "## ذات ال": 5682,
      "##صحيف": 5683,
      "## بين الثامنه عشر والاربعه و": 5684,
      "##عشرون عاما ونسبه ": 5685,
      "## بين الثامنه عشر والاربعه وعشرون عاما ونسبه ": 5686,
      "##تاثير": 5687,
      "##بض": 5688,
      "##كبار": 5689,
      "##87": 5690,
      "## ايام": 5691,
      "##ات ه": 5692,
      "## نو": 5693,
      "## نموذج": 5694,
      "##كتلند": 5695,
      "##غير م": 5696,
      "##ها او": 5697,
      "##قارب": 5698,
      "##150": 5699,
      "## المس ول": 5700,
      "## قد ي": 5701,
      "## القرن التاسع عشر": 5702,
      "## الهندس": 5703,
      "##جيك": 5704,
      "##ات مت": 5705,
      "##انو": 5706,
      "## بين م": 5707,
      "## فارس": 5708,
      "##ه ما ت": 5709,
      "## سوري": 5710,
      "## سقوط": 5711,
      "## نيوت": 5712,
      "##تحالف": 5713,
      "## دليل": 5714,
      "## او ت": 5715,
      "## الشكل": 5716,
      "## الشيوخ": 5717,
      "##تبادل": 5718,
      "## 35": 5719,
      "## هو م": 5720,
      "##تزام": 5721,
      "##ه الشيخ": 5722,
      "## قصير": 5723,
      "## من الامريكيين الافارقه و0": 5724,
      "##ايات": 5725,
      "##رت": 5726,
      "##باحث": 5727,
      "##ي ور": 5728,
      "##يه ج": 5729,
      "## فقال": 5730,
      "## لا ي": 5731,
      "## لاول مر": 5732,
      "##ا الجنوب": 5733,
      "##قدام": 5734,
      "##ه بها ": 5735,
      "## العقل": 5736,
      "## القليل": 5737,
      "## رغم": 5738,
      "##يوتر": 5739,
      "##صبغ": 5740,
      "##يونغ": 5741,
      "##ا للم": 5742,
      "##تسجيل": 5743,
      "##تبع جنس": 5744,
      "##لقى": 5745,
      "## نظرا ل": 5746,
      "##يانات التركيبه السكانيه ل": 5747,
      "## اقتصاد": 5748,
      "## اسلوب": 5749,
      "##ن ثم": 5750,
      "##ه الارض": 5751,
      "##يه جديد": 5752,
      "## والاربعه و": 5753,
      "## روب": 5754,
      "##ه في عام 19": 5755,
      "##دماغ": 5756,
      "##وزر": 5757,
      "##بدال": 5758,
      "##جناح": 5759,
      "##طرد": 5760,
      "##حتى والاربعه و": 5761,
      "## وفقا ل": 5762,
      "##خامسه والستون ": 5763,
      "## محط": 5764,
      "## كانت ضمن ف ه الخامسه والستون ": 5765,
      "## كانت ما بين الخامسه والاربعون حتى": 5766,
      "## كانت واقعه في الف ه العمريه ما بين الخامسه والعشرون ": 5767,
      "##ستون ونسبه ": 5768,
      "##اربعون عاما ونسبه ": 5769,
      "## الرابعه والستون ونسبه ": 5770,
      "##حتى والاربعه واربعون عاما ونسبه ": 5771,
      "## كانت ضمن ف ه الخامسه والستون عاما فما فوق": 5772,
      "## كانت ما بين الخامسه والاربعون حتى الرابعه والستون ونسبه ": 5773,
      "## كانت واقعه في الف ه العمريه ما بين الخامسه والعشرون حتى والاربعه واربعون عاما ونسبه ": 5774,
      "## جم": 5775,
      "## اليابان": 5776,
      "##ه صغير": 5777,
      "##ي بر": 5778,
      "## وكل": 5779,
      "##اما ": 5780,
      "## فريد": 5781,
      "## سو": 5782,
      "## سرع": 5783,
      "## من كل": 5784,
      "## من حيث": 5785,
      "##ا اول": 5786,
      "##يعط": 5787,
      "##اطب": 5788,
      "##اصف": 5789,
      "## وهي ا": 5790,
      "## موسم": 5791,
      "##ضاعف": 5792,
      "##كير": 5793,
      "##ذاع": 5794,
      "##ه العباس": 5795,
      "## واش": 5796,
      "## الاحداث": 5797,
      "## التقليد": 5798,
      "##ون او": 5799,
      "##ه العسكر": 5800,
      "##جز من ": 5801,
      "##قرن الخامس عشر": 5802,
      "##ما ادى الى": 5803,
      "##ياه ": 5804,
      "##سنت": 5805,
      "##صريه ال": 5806,
      "##ي ه": 5807,
      "##ه اع": 5808,
      "## سار": 5809,
      "##اقف": 5810,
      "## جول": 5811,
      "##حتوى": 5812,
      "##ي باش": 5813,
      "##ه التجار": 5814,
      "## استاذ": 5815,
      "## الكلام": 5816,
      "##شعوب": 5817,
      "##نسبه الى": 5818,
      "## الاشخاص": 5819,
      "## اقدم": 5820,
      "##ديو": 5821,
      "##ها بعد": 5822,
      "##ه افضل": 5823,
      "## التج": 5824,
      "## معاهد": 5825,
      "##نتخب": 5826,
      "##مسجد": 5827,
      "##تشاب": 5828,
      "##قصص": 5829,
      "##وارد": 5830,
      "##كلمه ": 5831,
      "## حسب احص": 5832,
      "##يصر": 5833,
      "##طابق": 5834,
      "##ضف": 5835,
      "## اقام": 5836,
      "## المف": 5837,
      "##اريس": 5838,
      "## يعود": 5839,
      "##يكس": 5840,
      "## القن": 5841,
      "## النطق": 5842,
      "##اختل": 5843,
      "##حاله ال": 5844,
      "## الخليف": 5845,
      "##تير": 5846,
      "##مكن ": 5847,
      "##شريع": 5848,
      "##غض": 5849,
      "##ضير": 5850,
      "## اجتماع": 5851,
      "## فوز": 5852,
      "## الاحص": 5853,
      "## عش": 5854,
      "## كوري": 5855,
      "##يلين": 5856,
      "##سبانيا ": 5857,
      "## دخول": 5858,
      "##يكتب": 5859,
      "## ابنا ": 5860,
      "##ات المن": 5861,
      "##اهز": 5862,
      "##ه ولم ي": 5863,
      "##رمز": 5864,
      "##يما بعد": 5865,
      "##وظا ف": 5866,
      "## جمعيه ال": 5867,
      "##جميع انحا العالم": 5868,
      "##يتحدث": 5869,
      "##نا ب": 5870,
      "##كشاف": 5871,
      "##ى في ": 5872,
      "##ه يوم": 5873,
      "## مجال": 5874,
      "##ان الا": 5875,
      "##علن ": 5876,
      "##برع": 5877,
      "##ه بلغ": 5878,
      "## للمر": 5879,
      "## الرسوم": 5880,
      "##تفق": 5881,
      "##سطنط": 5882,
      "## غز": 5883,
      "## السلطان": 5884,
      "##ه الشمس": 5885,
      "## وهي ت": 5886,
      "## المشترك": 5887,
      "##سيطره على": 5888,
      "## الاطلس": 5889,
      "##فو": 5890,
      "##ايز": 5891,
      "## اصلاح": 5892,
      "##ا يت": 5893,
      "## توفي ": 5894,
      "##يا بال": 5895,
      "##من خلال": 5896,
      "## القاهر": 5897,
      "## في اوروب": 5898,
      "##جموعه من ال": 5899,
      "##جهود": 5900,
      "##يهما ": 5901,
      "## وفا": 5902,
      "##صارع": 5903,
      "## الشرع": 5904,
      "## في الخامسه والستين من العمر وما فوق بلغ عدد سكان ": 5905,
      "##اون": 5906,
      "## اتحاد": 5907,
      "##ه ثلاث": 5908,
      "##ه هذه ال": 5909,
      "##ه الوحيد": 5910,
      "##ريز": 5911,
      "##ا التي ": 5912,
      "##ترض": 5913,
      "##تمدت": 5914,
      "## من ن": 5915,
      "##اكاديم": 5916,
      "##وعيه ال": 5917,
      "## القوى": 5918,
      "## ان يت": 5919,
      "##حلال": 5920,
      "##ثانيه ": 5921,
      "##غرق": 5922,
      "## تشمل": 5923,
      "##وقراط": 5924,
      "## اعداد": 5925,
      "## ميز": 5926,
      "## بضع": 5927,
      "##ديريه ال": 5928,
      "## التف": 5929,
      "##يموس": 5930,
      "##ا ار": 5931,
      "##ه فيها ": 5932,
      "##اكو": 5933,
      "## قاعد": 5934,
      "## الحاج": 5935,
      "## دعم": 5936,
      "## النت": 5937,
      "##ا مقابل": 5938,
      "##ي وكان ": 5939,
      "##اشتراك": 5940,
      "## 32": 5941,
      "##تصاص": 5942,
      "##ولايه ال": 5943,
      "##ه السابق": 5944,
      "## 80": 5945,
      "##قانون": 5946,
      "## المحيط اله": 5947,
      "##ش ون ال": 5948,
      "##ي من ا": 5949,
      "##ي ولد": 5950,
      "##ه الاس": 5951,
      "## المبار": 5952,
      "## المنظم": 5953,
      "## الموسيقى": 5954,
      "##اميل": 5955,
      "## في نفس": 5956,
      "##اكن ": 5957,
      "##يعيش مع": 5958,
      "## القبا ل": 5959,
      "## في القرن ال": 5960,
      "##قراض": 5961,
      "##يجاد": 5962,
      "##طرس": 5963,
      "## ذر": 5964,
      "## المتعلق": 5965,
      "##ه ولكن": 5966,
      "##ها في الم": 5967,
      "##افراد": 5968,
      "##اجهز": 5969,
      "##ارثوذكس": 5970,
      "##حادي": 5971,
      "##غسطس": 5972,
      "##ه دور": 5973,
      "##ات ح": 5974,
      "## باق": 5975,
      "## فيروس": 5976,
      "## تنظيم": 5977,
      "## لكن ال": 5978,
      "## نمو": 5979,
      "## والح": 5980,
      "## العامل": 5981,
      "## قم": 5982,
      "## الى جانب": 5983,
      "## القل": 5984,
      "## القياس": 5985,
      "##حليل": 5986,
      "##حرر": 5987,
      "## وليس": 5988,
      "## بلغ عدد سكانها ": 5989,
      "##ه العربيه السعود": 5990,
      "##ه 18": 5991,
      "## وهناك": 5992,
      "##يه كتب": 5993,
      "##امين ": 5994,
      "## بسرع": 5995,
      "##عليق": 5996,
      "## في هذا ال": 5997,
      "## في ذلك الوقت": 5998,
      "## والل": 5999,
      "##سبتمبر": 6000,
      "## البط": 6001,
      "## الفكر": 6002,
      "##يضم": 6003,
      "##تقريب": 6004,
      "## علام": 6005,
      "## مره اخرى": 6006,
      "## في المنطق": 6007,
      "##نجوم": 6008,
      "##توفر": 6009,
      "##زوجت": 6010,
      "##ه امريك": 6011,
      "##ى الله عل": 6012,
      "##خاذ": 6013,
      "##ه ست": 6014,
      "##ه البل": 6015,
      "##ه الشمال": 6016,
      "##يه ش": 6017,
      "##اميك": 6018,
      "## عاصم": 6019,
      "##ه بما في ذلك": 6020,
      "## على شكل": 6021,
      "## منتج": 6022,
      "##يتو": 6023,
      "##فرص": 6024,
      "## في الت": 6025,
      "##قلع": 6026,
      "## اللفظ": 6027,
      "##ه منهم": 6028,
      "## القرى": 6029,
      "##عبد العزيز": 6030,
      "##رموز": 6031,
      "##عقاب": 6032,
      "## العديد من ": 6033,
      "##ساد": 6034,
      "##عان": 6035,
      "##حاق": 6036,
      "##زين": 6037,
      "##ه دول": 6038,
      "##افريق": 6039,
      "##والم": 6040,
      "## العضل": 6041,
      "##هم شخص": 6042,
      "## قنا": 6043,
      "## النمو": 6044,
      "## الكم": 6045,
      "##يه ولكن ": 6046,
      "## اهتمام": 6047,
      "الم": 6048,
      "## وجه": 6049,
      "##امور": 6050,
      "##ي الذي ا": 6051,
      "##ه اصبح": 6052,
      "##يه المع": 6053,
      "## التن": 6054,
      "##مراكز": 6055,
      "## الحضار": 6056,
      "## الفض": 6057,
      "## عليها ال": 6058,
      "##يه في عام 19": 6059,
      "##ه بالاضافه الى": 6060,
      "##ايات ال": 6061,
      "##تنم": 6062,
      "##دليل": 6063,
      "## مس ول": 6064,
      "## اثنا ال": 6065,
      "## كم2 وبلغ عدد الوحدات السكنيه ": 6066,
      "## كم2 وتوزع التركيب العرق": 6067,
      "##يزابيث": 6068,
      "##يفي ": 6069,
      "##نموذج": 6070,
      "##قاع": 6071,
      "##جسام": 6072,
      "##دال": 6073,
      "##ذف": 6074,
      "##ه الحر": 6075,
      "##ه اليوم": 6076,
      "##يه ر": 6077,
      "## المنتج": 6078,
      "## الاشار": 6079,
      "## الادو": 6080,
      "##ي الش": 6081,
      "## حدد": 6082,
      "## الحاكم": 6083,
      "##اصول": 6084,
      "## الرجال": 6085,
      "## الذات": 6086,
      "##وادي": 6087,
      "## ملعب": 6088,
      "##يه من خلال": 6089,
      "##اسبان": 6090,
      "##ه لم يكن ": 6091,
      "## نشاط": 6092,
      "##سابع عشر": 6093,
      "## طرق": 6094,
      "##توسط": 6095,
      "##تستخدم": 6096,
      "##قيل": 6097,
      "##كا ": 6098,
      "## الطرق": 6099,
      "## عقب": 6100,
      "## يبلغ من العمر 65 عام": 6101,
      "## في 18": 6102,
      "##لكن": 6103,
      "## سير": 6104,
      "##ربت": 6105,
      "## من ب": 6106,
      "##وسيل": 6107,
      "##ين الذين ": 6108,
      "##هرجان": 6109,
      "## ر اس": 6110,
      "##بعيد": 6111,
      "## الشريف": 6112,
      "##نا على": 6113,
      "##قصور": 6114,
      "##يه من قبل": 6115,
      "##عام 2011": 6116,
      "## كيلو": 6117,
      "## من اصل جميع الاسر من افراد": 6118,
      "## كانوا يعيش مع": 6119,
      "## وحيد يبلغ من العمر 65 عام": 6120,
      "##هم شخص وحيد يبلغ من العمر 65 عام": 6121,
      "## من اصل جميع الاسر من افراد ونسبه ": 6122,
      "## كانوا يعيش معهم شخص وحيد يبلغ من العمر 65 عام": 6123,
      "## كانوا يعيش معهم شخص وحيد يبلغ من العمر 65 عاما فما فوق": 6124,
      "## رياض": 6125,
      "##ساحل": 6126,
      "##كيميا ": 6127,
      "##طاج": 6128,
      "##ظلم": 6129,
      "##غو": 6130,
      "## الجلد": 6131,
      "##ه طويل": 6132,
      "## لذلك": 6133,
      "##ستند": 6134,
      "## حص": 6135,
      "##يتان ": 6136,
      "##ه المستقل": 6137,
      "## اسيا ": 6138,
      "## زيار": 6139,
      "##عنصر": 6140,
      "##2008": 6141,
      "## العلما ": 6142,
      "##نهايت": 6143,
      "## الامراض": 6144,
      "##ت بال": 6145,
      "##مكن ان ": 6146,
      "##حاضر": 6147,
      "##زق": 6148,
      "## افر": 6149,
      "##ا تم": 6150,
      "##ي خلال": 6151,
      "## موج": 6152,
      "##ات بين ال": 6153,
      "##ريه الم": 6154,
      "##ه وغير": 6155,
      "##سباق": 6156,
      "## انذاك": 6157,
      "##يه بم": 6158,
      "##يه بد": 6159,
      "##عرش": 6160,
      "##واش": 6161,
      "##ا فقط": 6162,
      "## 2000": 6163,
      "## بروت": 6164,
      "##باستخدام": 6165,
      "##يتميز": 6166,
      "## نتا ج": 6167,
      "##يقرب من ": 6168,
      "##قق": 6169,
      "##جاور": 6170,
      "##طعام": 6171,
      "##صام": 6172,
      "##زعم": 6173,
      "##غنا ": 6174,
      "##ه قال": 6175,
      "##ا خلال": 6176,
      "##ي ثر": 6177,
      "##يه كل": 6178,
      "##اراضي ال": 6179,
      "##ولو": 6180,
      "##ين من": 6181,
      "##ه اقل": 6182,
      "##ه م و": 6183,
      "##برازيل": 6184,
      "## والاست": 6185,
      "## العباس": 6186,
      "##ترام": 6187,
      "## الحاضر": 6188,
      "##ندونيس": 6189,
      "## دا ر": 6190,
      "## هذه الت": 6191,
      "##ه في العالم": 6192,
      "##ي الاسم": 6193,
      "## الخمس": 6194,
      "## في مقاطع": 6195,
      "##حالف": 6196,
      "##ه معين": 6197,
      "##بريت": 6198,
      "##ا بالاضافه الى": 6199,
      "##شلون": 6200,
      "## من الامريكيين ذوي الاصول الاسيويه و0": 6201,
      "## جمهور": 6202,
      "##كب": 6203,
      "##زاع": 6204,
      "## مدى": 6205,
      "##ابو": 6206,
      "## عسكر": 6207,
      "## سيار": 6208,
      "## والر": 6209,
      "##يكر": 6210,
      "## النوع": 6211,
      "##نتهي ب": 6212,
      "##ي بم": 6213,
      "##جنه ال": 6214,
      "## 2002": 6215,
      "##عمل على": 6216,
      "##اديش": 6217,
      "## ضم": 6218,
      "##ه سنو": 6219,
      "##تركز": 6220,
      "## دراست": 6221,
      "## ترتيب": 6222,
      "##ي منذ": 6223,
      "##ى الله عليه وس": 6224,
      "##سين ": 6225,
      "##اه في ": 6226,
      "##جا ": 6227,
      "##جود": 6228,
      "## اليون": 6229,
      "##ه لكن ": 6230,
      "##يه تقع": 6231,
      "## تعد": 6232,
      "## تغير": 6233,
      "##عده م": 6234,
      "##يه الاولى": 6235,
      "## سوى": 6236,
      "##ه بينما ": 6237,
      "##اقرب": 6238,
      "##يدان": 6239,
      "##سلطان": 6240,
      "## الحب": 6241,
      "## النخب": 6242,
      "##تصال": 6243,
      "## 45": 6244,
      "## الدوري": 6245,
      "## فيها ا": 6246,
      "##ا منها ": 6247,
      "## ما بين ": 6248,
      "##ذاكر": 6249,
      "## ميل2 وتوزع التركيب العرقي للمدينه بنسبه ": 6250,
      "##دان": 6251,
      "##ا وق": 6252,
      "##ه الذ": 6253,
      "## ماد": 6254,
      "## مدير": 6255,
      "##ات من": 6256,
      "##ات ج": 6257,
      "## بعيد": 6258,
      "##رينو": 6259,
      "## الاختلاف": 6260,
      "##ه واسع": 6261,
      "##ان من ال": 6262,
      "## في ف": 6263,
      "##ي است": 6264,
      "##يبقى": 6265,
      "## الناتج": 6266,
      "##مدار": 6267,
      "##ه الكبير": 6268,
      "##بارز": 6269,
      "##غرام": 6270,
      "## الدستور": 6271,
      "##حمول": 6272,
      "##دلال": 6273,
      "##ضرا ب": 6274,
      "## كوريا الجنوب": 6275,
      "##شارلز": 6276,
      "##اوس": 6277,
      "##ته الى": 6278,
      "##قادر": 6279,
      "## اتج": 6280,
      "##انيا ال": 6281,
      "## الاثن": 6282,
      "##ه وف": 6283,
      "##افذ": 6284,
      "##ي اخر": 6285,
      "## قاد": 6286,
      "##فرس": 6287,
      "## النيل": 6288,
      "## السابع": 6289,
      "##يه واحد": 6290,
      "##صرح": 6291,
      "## عليه ا": 6292,
      "##نسا و": 6293,
      "##اهما ": 6294,
      "## سبب": 6295,
      "## الشرط": 6296,
      "## ثروت": 6297,
      "## من الامريكيين الاصليين و0": 6298,
      "##هزيم": 6299,
      "##ناتج": 6300,
      "##تقدم": 6301,
      "##صوف": 6302,
      "##شفت": 6303,
      "##ه كر": 6304,
      "##ي ح": 6305,
      "##ه النب": 6306,
      "##يه ور": 6307,
      "##ان ال": 6308,
      "## المشارك": 6309,
      "##علو": 6310,
      "##ان وت": 6311,
      "## قيام": 6312,
      "## القيم": 6313,
      "##يويورك": 6314,
      "##هذه الحال": 6315,
      "##تلقى": 6316,
      "## الكاثوليك": 6317,
      "## المناسب": 6318,
      "##حوظ": 6319,
      "##تشمل": 6320,
      "##كالتال": 6321,
      "## كتابه ال": 6322,
      "##ه امام": 6323,
      "##قاس": 6324,
      "##ي كم": 6325,
      "##يه لكن ": 6326,
      "## لصالح": 6327,
      "##ه اما ": 6328,
      "## يظهر": 6329,
      "##يا مع": 6330,
      "##يقارب": 6331,
      "##ه تستخدم": 6332,
      "##ماليك": 6333,
      "##ثانو": 6334,
      "## امكان": 6335,
      "## في محافظ": 6336,
      "##هلاك": 6337,
      "## اختبار": 6338,
      "## وقد ت": 6339,
      "## فيصل": 6340,
      "##اندونيس": 6341,
      "## المسلمين ": 6342,
      "##منتخب": 6343,
      "##هيكل": 6344,
      "##3 و": 6345,
      "##حاس": 6346,
      "##زز": 6347,
      "##شاد": 6348,
      "##خضع": 6349,
      "##ي عل": 6350,
      "##ه مصر": 6351,
      "##افكار": 6352,
      "##شروط": 6353,
      "## العضو": 6354,
      "##كل م": 6355,
      "## بالعرب": 6356,
      "##ا واحد": 6357,
      "##سيوم": 6358,
      "## 2017": 6359,
      "##اهوت": 6360,
      "##اغن": 6361,
      "##عرض ل": 6362,
      "##اتحاد الاوروب": 6363,
      "## 2020": 6364,
      "##ه المنور": 6365,
      "## لم يكن ": 6366,
      "## اضافه الى": 6367,
      "## المجاور": 6368,
      "##تحقق": 6369,
      "##ته على": 6370,
      "##ماط": 6371,
      "##جاوز": 6372,
      "##كاك": 6373,
      "##كا ن": 6374,
      "##ثا ق": 6375,
      "## ادى": 6376,
      "## اختلاف": 6377,
      "##ه علم": 6378,
      "##يه وج": 6379,
      "##امب": 6380,
      "##تراق": 6381,
      "##كلام": 6382,
      "##ا اذ": 6383,
      "##يكبات": 6384,
      "## السيطر": 6385,
      "##قرن الم": 6386,
      "##تبق": 6387,
      "## ولايه ": 6388,
      "##ه الحكوم": 6389,
      "##ا والم": 6390,
      "## ثم ت": 6391,
      "## الموسم": 6392,
      "##اسلوب": 6393,
      "##ه الرومان": 6394,
      "## الثقافي ": 6395,
      "##هيم": 6396,
      "##يا او": 6397,
      "##عين ": 6398,
      "##عرك": 6399,
      "## اتباع": 6400,
      "##ا كان ": 6401,
      "##ي مت": 6402,
      "##ي حتى": 6403,
      "##يه عام 19": 6404,
      "##يه تحت": 6405,
      "## المجال": 6406,
      "##اريا ": 6407,
      "## فين": 6408,
      "##ول ب": 6409,
      "##ه وكذلك": 6410,
      "## في عهد": 6411,
      "##ه فوق": 6412,
      "##اكد": 6413,
      "## قرب": 6414,
      "##ه ليس": 6415,
      "## البعث": 6416,
      "## النق": 6417,
      "## معين": 6418,
      "## الفعل": 6419,
      "##يه بينما ": 6420,
      "##حلف": 6421,
      "## اسفل": 6422,
      "##حويل": 6423,
      "## كان م": 6424,
      "##ضعيف": 6425,
      "##نشط": 6426,
      "##يوليو": 6427,
      "##يه بالاضافه الى": 6428,
      "## الوطني ال": 6429,
      "## الفلسف": 6430,
      "##جمهوريه اليمن": 6431,
      "##يتنام": 6432,
      "## ظهرت": 6433,
      "##نين ال": 6434,
      "##وكل": 6435,
      "##جنه ": 6436,
      "##دا ال": 6437,
      "##زيج": 6438,
      "## اليسار": 6439,
      "##ي عند": 6440,
      "## فشل": 6441,
      "## الاث": 6442,
      "## لويس": 6443,
      "##ستير": 6444,
      "##اسف": 6445,
      "## يبلغ": 6446,
      "## في ذلك": 6447,
      "## حين ": 6448,
      "##يمان": 6449,
      "##تملك": 6450,
      "##اصدار": 6451,
      "##يات الت": 6452,
      "##ا مكتب تعداد الولايات المتحد": 6453,
      "##سرطان": 6454,
      "## عليها ا": 6455,
      "##يه في 19": 6456,
      "##مس ول": 6457,
      "##بارك": 6458,
      "## ايضا في ": 6459,
      "## الوصول": 6460,
      "## المعارض": 6461,
      "## خلالها ": 6462,
      "##ه من اجل": 6463,
      "## ثابت": 6464,
      "## الرموز": 6465,
      "## حسب احصا مكتب تعداد الولايات المتحد": 6466,
      "##زاو": 6467,
      "##ه العراق": 6468,
      "## الموسيق": 6469,
      "## انفس": 6470,
      "##هم بال": 6471,
      "##يه وغير": 6472,
      "##ه الكاثوليك": 6473,
      "##عمود": 6474,
      "##ا عبر": 6475,
      "## حرار": 6476,
      "## تدريج": 6477,
      "##سفل": 6478,
      "##نجد": 6479,
      "##دوز": 6480,
      "##حن ": 6481,
      "##ز و": 6482,
      "##ى ت": 6483,
      "## الهدف": 6484,
      "## المركب": 6485,
      "##خلط": 6486,
      "## قبا ل": 6487,
      "## السور": 6488,
      "##ا بم": 6489,
      "## علاج": 6490,
      "## فرض": 6491,
      "##ي من م": 6492,
      "##عالج": 6493,
      "##ختبر": 6494,
      "##يظهر": 6495,
      "##داب": 6496,
      "##عقل": 6497,
      "##شيع": 6498,
      "##ه نظر": 6499,
      "##ا ون": 6500,
      "##انيوم": 6501,
      "## المانيا ": 6502,
      "## الا ان ال": 6503,
      "## ليل": 6504,
      "## كنيس": 6505,
      "##ه استخدام": 6506,
      "##ه مو": 6507,
      "## قط": 6508,
      "## قريب": 6509,
      "## النادي": 6510,
      "##ازد": 6511,
      "## الجبل": 6512,
      "##وا من ": 6513,
      "##يه تعتبر": 6514,
      "##غلال": 6515,
      "##وطن ال": 6516,
      "##شارد": 6517,
      "## اسماعيل": 6518,
      "## عنها ": 6519,
      "##سلمين ": 6520,
      "##زرع": 6521,
      "## درجه الحرار": 6522,
      "## درجه حرار": 6523,
      "##صدق": 6524,
      "##يه هي ا": 6525,
      "## الرغم من ذلك": 6526,
      "##ى الله عليه وسلم": 6527,
      "##ته في ": 6528,
      "##عقب": 6529,
      "##حفظ": 6530,
      "##صحيح": 6531,
      "##ي بل": 6532,
      "##ه الداخل": 6533,
      "##ه الثقاف": 6534,
      "##يه خاص": 6535,
      "## الموقع": 6536,
      "## تس": 6537,
      "## لكره القدم": 6538,
      "##ه انه ": 6539,
      "##عدن": 6540,
      "## في جامع": 6541,
      "##بليو": 6542,
      "## قانون": 6543,
      "## الحف": 6544,
      "##ه تل": 6545,
      "##اشد": 6546,
      "##2016": 6547,
      "##يوسف": 6548,
      "##بلغ مساحه ": 6549,
      "## كانت ضمن ف ه الخامسه والستين عاما فما فوق وتوزع التركيب الجنسي للسكان بنسبه ": 6550,
      "##ايض": 6551,
      "##ته ل": 6552,
      "##مارك": 6553,
      "##دريس": 6554,
      "##زداد": 6555,
      "## محدد": 6556,
      "## وص": 6557,
      "##اته و": 6558,
      "##ات عديد": 6559,
      "## تقدم": 6560,
      "##برغ": 6561,
      "## هند": 6562,
      "## العناصر": 6563,
      "##ات الحرار": 6564,
      "##هرج": 6565,
      "##هدد": 6566,
      "## الشباب": 6567,
      "##ه الكهربا ": 6568,
      "##نبيل": 6569,
      "## الزواج": 6570,
      "## العربيه الم": 6571,
      "##سنه 18": 6572,
      "##2012": 6573,
      "##عوام": 6574,
      "##جبه": 6575,
      "##قانون ": 6576,
      "## اما متوسط حجم العا لات فبلغ 3": 6577,
      "## كوريا الشمال": 6578,
      "##هلك": 6579,
      "##هزم": 6580,
      "##اه ب": 6581,
      "##عصب": 6582,
      "## السبع": 6583,
      "## الاعض": 6584,
      "## هجر": 6585,
      "## من ان": 6586,
      "## قصر": 6587,
      "## او م": 6588,
      "## صحيح": 6589,
      "## استقال": 6590,
      "## ذهب": 6591,
      "##ي والذي ": 6592,
      "##جدل": 6593,
      "##هنالك": 6594,
      "##ات الاجتماع": 6595,
      "## الغذا ": 6596,
      "## بينهم": 6597,
      "##ضباط": 6598,
      "##اطلاق": 6599,
      "##هي الا": 6600,
      "##نار": 6601,
      "##اظر": 6602,
      "##ت الن": 6603,
      "##عسكر": 6604,
      "##ضغ": 6605,
      "##ى الم": 6606,
      "## الري": 6607,
      "## الجم": 6608,
      "## الولا": 6609,
      "##امار": 6610,
      "## بيل": 6611,
      "## بقياد": 6612,
      "## الاثار": 6613,
      "## تب": 6614,
      "## تكون ال": 6615,
      "##وقود": 6616,
      "## القار": 6617,
      "##يسوع": 6618,
      "##وريس": 6619,
      "##ي وذلك": 6620,
      "##ي بشكل": 6621,
      "##تقدير": 6622,
      "##واهر": 6623,
      "##يه لت": 6624,
      "##مساف": 6625,
      "## غاز": 6626,
      "## المنافس": 6627,
      "##وضيح": 6628,
      "##هذه الطريق": 6629,
      "##لمان ": 6630,
      "## غير رسم": 6631,
      "##تجاوز": 6632,
      "## الاسم العلم": 6633,
      "##وصول الى": 6634,
      "## كانت ضمن ف ه الخامسه والستين عاما فما فوق يوجد لكل 100 انثى": 6635,
      "## 00": 6636,
      "##فقر": 6637,
      "##قوب": 6638,
      "##جيد": 6639,
      "##صيغ": 6640,
      "## اصاب": 6641,
      "## الاتصال": 6642,
      "## الاتفاق": 6643,
      "## موت": 6644,
      "## توجد": 6645,
      "## كتل": 6646,
      "##اطير": 6647,
      "## دون": 6648,
      "##ازال": 6649,
      "##ازيغ": 6650,
      "## السيار": 6651,
      "##يه واست": 6652,
      "## الذهب": 6653,
      "##ه التابعه ل": 6654,
      "##طرنج": 6655,
      "##نسا ": 6656,
      "## 2001": 6657,
      "##حمايه ال": 6658,
      "##ه رسم": 6659,
      "## دولارا لل": 6660,
      "## اكتشف": 6661,
      "## عموم": 6662,
      "##سهل": 6663,
      "##نوا": 6664,
      "##فوق": 6665,
      "##ه قام": 6666,
      "## مفهوم": 6667,
      "## تكتب": 6668,
      "## ليب": 6669,
      "##ان ما ": 6670,
      "## في جنوب": 6671,
      "##ربون": 6672,
      "## العثماني ": 6673,
      "##كتسب": 6674,
      "## القاعد": 6675,
      "##ه تعال": 6676,
      "##ه تابعه ل": 6677,
      "## اللجن": 6678,
      "##ي لعب": 6679,
      "##جزي ات": 6680,
      "##عمق": 6681,
      "## استمر": 6682,
      "## كم وترتفع عن سطح البحر": 6683,
      "##ي سنه ": 6684,
      "##عام 2005": 6685,
      "##دعا ": 6686,
      "##ا منذ": 6687,
      "## خلاف": 6688,
      "##حفاظ على": 6689,
      "## الانتاج": 6690,
      "## الوسطى": 6691,
      "## بالمدينه ": 6692,
      "## اقليم": 6693,
      "##قيت": 6694,
      "##ه الادب": 6695,
      "## واصبح": 6696,
      "## المصطلح": 6697,
      "##اريو": 6698,
      "## باعتبار": 6699,
      "##علنت": 6700,
      "## عض": 6701,
      "##ه وقال": 6702,
      "##براهيم": 6703,
      "## نجم": 6704,
      "## من سكان ": 6705,
      "## منها ال": 6706,
      "##اضيع": 6707,
      "##تلق": 6708,
      "##ها البعض": 6709,
      "##طرح": 6710,
      "##يه مما ": 6711,
      "##حما": 6712,
      "## التي كانت": 6713,
      "##اتراك": 6714,
      "##سعيد": 6715,
      "##ايس": 6716,
      "##قاذ": 6717,
      "##طم": 6718,
      "##خوف": 6719,
      "##ذع": 6720,
      "##ا تمام": 6721,
      "##الق": 6722,
      "##يه ح": 6723,
      "##يه عاد": 6724,
      "## فار": 6725,
      "## لقد": 6726,
      "## لمد": 6727,
      "##ه اذا ": 6728,
      "## في تلك": 6729,
      "##يه وهي ال": 6730,
      "##نسيق": 6731,
      "##غلاديش": 6732,
      "##تصويت": 6733,
      "##غرافي ": 6734,
      "## الابتدا ": 6735,
      "## ومن ثم": 6736,
      "##بلغ مساحه هذه المدينه ": 6737,
      "##لاتين": 6738,
      "##دن ال": 6739,
      "##ك و": 6740,
      "##كوك": 6741,
      "##ذاب": 6742,
      "##ه يتم": 6743,
      "##يه عن ": 6744,
      "## بطريق": 6745,
      "##ابيع": 6746,
      "## عنه ": 6747,
      "##ون لل": 6748,
      "##ا ام": 6749,
      "## الفيل": 6750,
      "##نظريه ال": 6751,
      "##بنا ال": 6752,
      "## 37": 6753,
      "## في اواخر": 6754,
      "##تشير": 6755,
      "##تدريس": 6756,
      "##قتصر": 6757,
      "##صنيع": 6758,
      "## الاسد": 6759,
      "## بني ": 6760,
      "## المساعد": 6761,
      "##اوراق": 6762,
      "##اعراض": 6763,
      "## لكن ل": 6764,
      "## البالغ": 6765,
      "##سق": 6766,
      "##ته ب": 6767,
      "##ظار": 6768,
      "##خيم": 6769,
      "##ه هذ": 6770,
      "## مكتب": 6771,
      "## المق": 6772,
      "##يرلند": 6773,
      "## عين": 6774,
      "##ه مار": 6775,
      "## سام": 6776,
      "## سيك": 6777,
      "##ه بن ال": 6778,
      "##تردد": 6779,
      "##يا وت": 6780,
      "##يتال": 6781,
      "##فرانس": 6782,
      "##ه في ت": 6783,
      "##وريوس": 6784,
      "##اويك": 6785,
      "##تبقى": 6786,
      "##ه على ذلك": 6787,
      "##شكلت": 6788,
      "##يين ل": 6789,
      "## تقن": 6790,
      "##ا الى جنب": 6791,
      "## كما ت": 6792,
      "## العلام": 6793,
      "##حسن ": 6794,
      "##حسن ال": 6795,
      "##حساس": 6796,
      "##وديوم": 6797,
      "## الاقليم": 6798,
      "##ر ": 6799,
      "##شوار": 6800,
      "##ي وس": 6801,
      "## وهذ": 6802,
      "##ان الكريم": 6803,
      "## الاغن": 6804,
      "## لوح": 6805,
      "## نا ب": 6806,
      "##احت": 6807,
      "## دفع": 6808,
      "##هرنهايت": 6809,
      "##يه باسم": 6810,
      "##يدياويك": 6811,
      "##بني ": 6812,
      "##يه فيها ": 6813,
      "## تمثل": 6814,
      "##ا عن": 6815,
      "## اراض": 6816,
      "##يانغ": 6817,
      "## تشرين ال": 6818,
      "## عناصر": 6819,
      "## مستقل": 6820,
      "##عام 2000": 6821,
      "## دولارا وكانت نسبه ": 6822,
      "## دولارا وكان ": 6823,
      "## دولارا اما ": 6824,
      "## دولارا مقابل": 6825,
      "##يه التي لا ": 6826,
      "## حصل على": 6827,
      "##متوسط دخل العا له فبلغ": 6828,
      "## الاغريق": 6829,
      "##يهودي": 6830,
      "## دولارا للاناث وسجل دخل الفرد الخاص": 6831,
      "## دولارا وكان متوسط دخل الذكور": 6832,
      "## دولارا اما متوسط دخل العا له فبلغ": 6833,
      "##جيب": 6834,
      "##داع": 6835,
      "##بجد": 6836,
      "##حفل": 6837,
      "##زيت": 6838,
      "##ذا ف": 6839,
      "## الرب": 6840,
      "##ه عدد": 6841,
      "##ا تح": 6842,
      "##ن على": 6843,
      "##ن في ال": 6844,
      "## الم تمر": 6845,
      "## التعقيد": 6846,
      "## انظمه الكتاب": 6847,
      "##وس ان": 6848,
      "##ا ايض": 6849,
      "## النسب": 6850,
      "##كنا س": 6851,
      "##ابعه لل": 6852,
      "##بال الصوت": 6853,
      "##يه في الا": 6854,
      "## انتها ال": 6855,
      "##فتراض": 6856,
      "##2004": 6857,
      "##ه في مقاطع": 6858,
      "## الوطني لل": 6859,
      "##عدم وجود": 6860,
      "## وايض": 6861,
      "## جمال": 6862,
      "##هي الم": 6863,
      "##نست": 6864,
      "##باك": 6865,
      "##عظيم": 6866,
      "##شهاد": 6867,
      "##ضبط": 6868,
      "##يرتبط": 6869,
      "##ستعمر": 6870,
      "##ومال": 6871,
      "##ما كان ": 6872,
      "## هزيم": 6873,
      "## العاد": 6874,
      "## العثور": 6875,
      "## قوان": 6876,
      "##وفت": 6877,
      "## صم": 6878,
      "##غلاق": 6879,
      "##اهض": 6880,
      "## بعد ان": 6881,
      "## كل من ال": 6882,
      "##ه الحرك": 6883,
      "## درس": 6884,
      "##يه وبال": 6885,
      "## منها لديها اطفال تحت سن الثامنه عشر تعيش معهم وبلغت نسبه الازواج القاطنين مع بعضهم البعض 5": 6886,
      "##جدول": 6887,
      "##ى على": 6888,
      "## اجهز": 6889,
      "## الثنا ": 6890,
      "## مبكر": 6891,
      "## وعاد": 6892,
      "## بيع": 6893,
      "## بهدف": 6894,
      "## الاسبان": 6895,
      "##عدو": 6896,
      "## حقيق": 6897,
      "##يملك": 6898,
      "## انضم": 6899,
      "##تمت": 6900,
      "##ه فال": 6901,
      "##يعاب": 6902,
      "## رع": 6903,
      "## رسال": 6904,
      "##عباد": 6905,
      "##دمو": 6906,
      "## الامم المتحد": 6907,
      "##اديو": 6908,
      "## المناخ": 6909,
      "## الاراضي ال": 6910,
      "##تناسب": 6911,
      "##كون م": 6912,
      "## قبل ان ": 6913,
      "## الاشتراك": 6914,
      "## وقوع": 6915,
      "## بن عبد الل": 6916,
      "##نتم": 6917,
      "##لاند": 6918,
      "##جذور": 6919,
      "## الصل": 6920,
      "##ي وف": 6921,
      "##اردن": 6922,
      "## بكثير": 6923,
      "## لهذا ال": 6924,
      "## العود": 6925,
      "##سلاف": 6926,
      "##ه لا": 6927,
      "## دق": 6928,
      "## معرف": 6929,
      "## الفيزيا ": 6930,
      "##سياق": 6931,
      "##مدارس": 6932,
      "##يه لاول مره في ": 6933,
      "##ات وم": 6934,
      "## المنصور": 6935,
      "##ات التجار": 6936,
      "## ارسال": 6937,
      "## بلغ تعداد سكانها ": 6938,
      "##انسج": 6939,
      "## 1990": 6940,
      "##يقوم ب": 6941,
      "## الصينيه ال": 6942,
      "## الرغم من ان ال": 6943,
      "##هان": 6944,
      "##واف": 6945,
      "##شري": 6946,
      "## استخدم": 6947,
      "## الات": 6948,
      "## واج": 6949,
      "## المجر": 6950,
      "## المشروع": 6951,
      "## يعمل": 6952,
      "##ينز": 6953,
      "##يه الب": 6954,
      "##يه الخاص": 6955,
      "##ه بني ": 6956,
      "## العقد": 6957,
      "## العرض": 6958,
      "##ا اذا ": 6959,
      "##وجر": 6960,
      "## الراس": 6961,
      "##ي بين ال": 6962,
      "##اون ال": 6963,
      "##ه عالم": 6964,
      "##اهتمام": 6965,
      "## تمام": 6966,
      "##ه حكم": 6967,
      "##يه الملك": 6968,
      "##جهول": 6969,
      "##عام 2006": 6970,
      "## قرر": 6971,
      "## اللغه الكور": 6972,
      "##عام 2012": 6973,
      "## وهي ال": 6974,
      "## درجه م و": 6975,
      "##سلطان ": 6976,
      "##ارتن ": 6977,
      "## حمض": 6978,
      "##قتراح": 6979,
      "##موضوع": 6980,
      "##اختلاف": 6981,
      "## ظ": 6982,
      "##سان ": 6983,
      "##نيل": 6984,
      "##فول": 6985,
      "##تسم": 6986,
      "##تعلم": 6987,
      "##تهم و": 6988,
      "##اليف": 6989,
      "##ه الاق": 6990,
      "## وقع": 6991,
      "##يه ضد": 6992,
      "##ات في الم": 6993,
      "## بترتيب": 6994,
      "##ها ك": 6995,
      "##ان مع": 6996,
      "##ه اربع": 6997,
      "## سين": 6998,
      "## والان": 6999,
      "## دا م": 7000,
      "##جلوس": 7001,
      "##يه وان": 7002,
      "##ثروت": 7003,
      "##نظير": 7004,
      "## الصحر": 7005,
      "## ذلك الح": 7006,
      "## بدايه ال": 7007,
      "##طلق على": 7008,
      "## سلال": 7009,
      "## وسا ل": 7010,
      "##2007": 7011,
      "##فرده و": 7012,
      "## نظام الكتاب": 7013,
      "##فنان": 7014,
      "## السلطان ": 7015,
      "##صفراو": 7016,
      "##جاح": 7017,
      "##كد": 7018,
      "##اليم": 7019,
      "##ه الرياض": 7020,
      "##ابيب": 7021,
      "##ها وا": 7022,
      "##ه وفي ال": 7023,
      "##برمج": 7024,
      "## سنت": 7025,
      "## الترب": 7026,
      "## حين": 7027,
      "##ي ار": 7028,
      "##ربيج": 7029,
      "##سبوع": 7030,
      "## هوب": 7031,
      "##يدعى": 7032,
      "##ات السياس": 7033,
      "##ا اب": 7034,
      "## قيد": 7035,
      "## جون ": 7036,
      "##ا بسبب": 7037,
      "##يساعد": 7038,
      "##تلفز": 7039,
      "## الكامل": 7040,
      "##طبخ": 7041,
      "##قويم": 7042,
      "##تعديل": 7043,
      "## بدا": 7044,
      "## البرازيل": 7045,
      "## وجه ال": 7046,
      "##شخصيات": 7047,
      "## منتظم": 7048,
      "##كافح": 7049,
      "##تقاليد": 7050,
      "## اهتزاز": 7051,
      "##اصوات الم": 7052,
      "##اي ال": 7053,
      "##تطلب": 7054,
      "##قطب": 7055,
      "##وقد": 7056,
      "##صديق": 7057,
      "##زمن": 7058,
      "##ثبيت": 7059,
      "##ه الخل": 7060,
      "## مول": 7061,
      "## المسيحي": 7062,
      "## التفاعل": 7063,
      "##بلور": 7064,
      "##وسوم": 7065,
      "##وساط": 7066,
      "##وجل": 7067,
      "##ه للك": 7068,
      "##جلب": 7069,
      "## السوف": 7070,
      "##ا بين ال": 7071,
      "##يه وكذلك": 7072,
      "##يه ايض": 7073,
      "##هاشم": 7074,
      "##نفوذ": 7075,
      "## خالد": 7076,
      "## 36": 7077,
      "##قالق": 7078,
      "## ضر": 7079,
      "##يون على": 7080,
      "##قصد": 7081,
      "##تي تعني ": 7082,
      "##دفق": 7083,
      "## عده م": 7084,
      "##ه في مجال": 7085,
      "##ن محمد": 7086,
      "## احصا ات": 7087,
      "## الانفجار": 7088,
      "## خرج": 7089,
      "##سيف": 7090,
      "##فارق": 7091,
      "##تخذ": 7092,
      "##ه النو": 7093,
      "##ه الا ان": 7094,
      "## موضح": 7095,
      "##اتور": 7096,
      "##اميذ": 7097,
      "##ولكن": 7098,
      "## هول": 7099,
      "##ترتبط": 7100,
      "##يا من ال": 7101,
      "## في الوقت": 7102,
      "## النطاق": 7103,
      "## بالنسبه لل": 7104,
      "## الشبك": 7105,
      "##ه عم": 7106,
      "##وا د": 7107,
      "##اشير": 7108,
      "## صديق": 7109,
      "## الصحف": 7110,
      "##ه منها ": 7111,
      "##يثيل": 7112,
      "##ثلاثه ا": 7113,
      "##حاليا ": 7114,
      "##ه الرابع": 7115,
      "##تالي ف": 7116,
      "##ه النها ": 7117,
      "## تحول": 7118,
      "## كره القدم": 7119,
      "##جمهوريه مصر": 7120,
      "## من عرقين مختلطين او اكثر بلغ عدد الاسر": 7121,
      "## غالبا ما ": 7122,
      "##نسيج": 7123,
      "##ه هي التي ت": 7124,
      "## دمشق": 7125,
      "##ياش": 7126,
      "##كك": 7127,
      "## اق": 7128,
      "##ي 19": 7129,
      "##ن لل": 7130,
      "## م تمر": 7131,
      "## ويست": 7132,
      "##ات العام": 7133,
      "## بما ": 7134,
      "## بيان": 7135,
      "## تصنيف": 7136,
      "##ستيش": 7137,
      "## كيميا ": 7138,
      "##اساليب": 7139,
      "## التيار": 7140,
      "## التقن": 7141,
      "##ونج": 7142,
      "##كل من ": 7143,
      "## منزل": 7144,
      "##ه لم ت": 7145,
      "##وقعت": 7146,
      "##يه وكانت": 7147,
      "## معالج": 7148,
      "##دراج": 7149,
      "## الروح": 7150,
      "## الفلك": 7151,
      "##ه التاريخ": 7152,
      "##ه عال": 7153,
      "##ي لان": 7154,
      "##يه تكتب": 7155,
      "##جزي ": 7156,
      "##علما ال": 7157,
      "##ها ان ": 7158,
      "##ه حوالي ": 7159,
      "##طوار": 7160,
      "##كوريه وال": 7161,
      "##يه من م": 7162,
      "##يابان ": 7163,
      "## المسجد": 7164,
      "##ه الاوروب": 7165,
      "## افكار": 7166,
      "## اسبوع": 7167,
      "##قير": 7168,
      "##جسيم": 7169,
      "##جسد": 7170,
      "##ه قد ت": 7171,
      "## ماك": 7172,
      "## الم لف": 7173,
      "## فضل": 7174,
      "##ديوم": 7175,
      "## عاش": 7176,
      "##عدام": 7177,
      "## التنفس": 7178,
      "## انطون": 7179,
      "##يكو": 7180,
      "##اصمت": 7181,
      "## النشاط": 7182,
      "## السطح": 7183,
      "## الرقم": 7184,
      "##اويات": 7185,
      "##تقرير": 7186,
      "##دينه م": 7187,
      "##عمليه ": 7188,
      "## 48": 7189,
      "## ضعف": 7190,
      "##عني ال": 7191,
      "## المتقدم": 7192,
      "## بين الكلم": 7193,
      "##انسان ": 7194,
      "##عشرين": 7195,
      "## المشدد": 7196,
      "## لاعب كره قدم": 7197,
      "##فخم": 7198,
      "##ا عل": 7199,
      "##اله": 7200,
      "## ماس": 7201,
      "##وليت": 7202,
      "##ريال": 7203,
      "##شراف": 7204,
      "##ه المتبع": 7205,
      "## القيام": 7206,
      "## بالاحرف": 7207,
      "## معسكر": 7208,
      "## الفم": 7209,
      "##يين من ": 7210,
      "##يه فقد": 7211,
      "##ه نطق": 7212,
      "## المرا": 7213,
      "##يه في العالم": 7214,
      "## الزمن": 7215,
      "## الاسك": 7216,
      "## الطفل": 7217,
      "##ه الناس": 7218,
      "##اسلح": 7219,
      "##1527": 7220,
      "## بشكل كبير": 7221,
      "## دخلت": 7222,
      "## اعلن ": 7223,
      "## احتمال": 7224,
      "##ه الاستعمار": 7225,
      "## المدن ال": 7226,
      "##كثير من الاح": 7227,
      "##يين بسبب": 7228,
      "## الترتيب الابجد": 7229,
      "##يه الدوليه و": 7230,
      "##ياغ": 7231,
      "##يين ا": 7232,
      "##فور": 7233,
      "##جبر": 7234,
      "##بوم": 7235,
      "##كعب": 7236,
      "##طابع": 7237,
      "##خدر": 7238,
      "## مجل": 7239,
      "## لق": 7240,
      "## لاب": 7241,
      "##يه الحديث": 7242,
      "## نور": 7243,
      "## التنفيذ": 7244,
      "## هير": 7245,
      "##تراض": 7246,
      "## 250": 7247,
      "## الى ان": 7248,
      "## او الم": 7249,
      "## الكاتب": 7250,
      "##انتشار": 7251,
      "##بيروت": 7252,
      "##يه توصف": 7253,
      "##وكول": 7254,
      "##اهق": 7255,
      "##مواقع": 7256,
      "##نا س": 7257,
      "##ه حم": 7258,
      "## بن عل": 7259,
      "##يون وال": 7260,
      "##ات محتمل": 7261,
      "## المرتب": 7262,
      "##عام 2008": 7263,
      "## الاحبال الصوت": 7264,
      "##زعيم": 7265,
      "## مباريات": 7266,
      "## الحرب العالميه الثان": 7267,
      "##سقط": 7268,
      "##فيزيا ": 7269,
      "##دود": 7270,
      "##بغداد": 7271,
      "## ا ": 7272,
      "## ابرز": 7273,
      "##ه دي": 7274,
      "##ن وم": 7275,
      "##ه الاصل": 7276,
      "## وبد": 7277,
      "## و19": 7278,
      "## ويعتبر": 7279,
      "## الاصلاح": 7280,
      "## تول": 7281,
      "## على ان ": 7282,
      "##كان اول": 7283,
      "## الحياه ال": 7284,
      "##ملعب": 7285,
      "## جدل": 7286,
      "##ه والابجدي": 7287,
      "##قراب": 7288,
      "##يه باستعمال": 7289,
      "## الليل": 7290,
      "## 38": 7291,
      "##يين في ال": 7292,
      "##ابلها في ال": 7293,
      "## برامج": 7294,
      "##ا من م": 7295,
      "## البرنامج": 7296,
      "##قطع ب": 7297,
      "##ها في م": 7298,
      "##نظام الكتاب": 7299,
      "##لغه الانجليز": 7300,
      "## بن عبد العزيز": 7301,
      "##وامت": 7302,
      "## بن محمد": 7303,
      "##نهايه المطاف": 7304,
      "## ذكر بلغ متوسط دخل الاسره في المدينه ": 7305,
      "##بعض الاحيان ": 7306,
      "## تيار الهو": 7307,
      "##ت كوريا الشمال": 7308,
      "##ويض": 7309,
      "##دكتور": 7310,
      "## اوب": 7311,
      "## الكتب": 7312,
      "## المريض": 7313,
      "##ه وام": 7314,
      "##ين في ا": 7315,
      "##عدوى": 7316,
      "##يني ": 7317,
      "## في كوريا الشمال": 7318,
      "## التغيير": 7319,
      "## هانج": 7320,
      "##ترق": 7321,
      "## جبال": 7322,
      "##كتشاف": 7323,
      "## السنين ": 7324,
      "## السريع": 7325,
      "##قلق": 7326,
      "## صالح": 7327,
      "## الامطار": 7328,
      "## الصحيح": 7329,
      "## يساعد": 7330,
      "##ه الكويت": 7331,
      "##عمان ": 7332,
      "##ه حكوم": 7333,
      "##نبول": 7334,
      "## بدا ال": 7335,
      "##لم ت": 7336,
      "## مسير": 7337,
      "##تها على": 7338,
      "## تحمل": 7339,
      "## سبيل": 7340,
      "##صويت": 7341,
      "## المعرك": 7342,
      "## سنه 18": 7343,
      "##ين والم": 7344,
      "## ميل2 وتوزع التركيب العرقي لل": 7345,
      "## مليار دولار": 7346,
      "## بالاحرف العرب": 7347,
      "## الترتيب الابجدي لل": 7348,
      "##نه و": 7349,
      "##جدار": 7350,
      "##ر اس": 7351,
      "##كي ": 7352,
      "##خشب": 7353,
      "##ه جزير": 7354,
      "##ه الكل": 7355,
      "##اراض": 7356,
      "## الاصو": 7357,
      "##ه وتم": 7358,
      "## التنظيم": 7359,
      "##يمتلك": 7360,
      "##ات الان": 7361,
      "##يقاف": 7362,
      "## السير": 7363,
      "## الجهد": 7364,
      "## الصوامت": 7365,
      "##ه الكبرى": 7366,
      "##ات المحل": 7367,
      "## من اهم": 7368,
      "##يه فان": 7369,
      "##هنود": 7370,
      "##حرفين و": 7371,
      "##تدل": 7372,
      "##كونه للم": 7373,
      "## تحرير": 7374,
      "##يه وما يق": 7375,
      "##ها بشكل": 7376,
      "##طبقه ال": 7377,
      "##سويد": 7378,
      "## قام ب": 7379,
      "##ون بمعنى": 7380,
      "##ات الساكن": 7381,
      "## تقع عندما ": 7382,
      "## قواعد الكتاب": 7383,
      "##ها بعض اللغو": 7384,
      "## موضح بال": 7385,
      "##ه هي التي تنتج": 7386,
      "##نقص": 7387,
      "##نجلتر": 7388,
      "##فغان": 7389,
      "##واس": 7390,
      "##بجديه الكوري": 7391,
      "##شجر": 7392,
      "##خو": 7393,
      "##ه 13": 7394,
      "##اتو": 7395,
      "## الاثر": 7396,
      "##ينبغ": 7397,
      "##يدرس": 7398,
      "## قطاع": 7399,
      "##ملا ": 7400,
      "## جناح": 7401,
      "##ه المسيح": 7402,
      "## رمز": 7403,
      "## الكا ن": 7404,
      "##ا وصرف": 7405,
      "##ه الى ا": 7406,
      "##يه مختلف": 7407,
      "## صفر": 7408,
      "##ا تتكون": 7409,
      "##اخرين ": 7410,
      "##ه بالابجديه الكور": 7411,
      "##حرف ساكن": 7412,
      "##تشوي سج": 7413,
      "## الاردن": 7414,
      "## نظري": 7415,
      "##يريد": 7416,
      "## الاحرف الساكن": 7417,
      "## الاحرف الساكنه الم": 7418,
      "## الاحرف المشدد": 7419,
      "## الاحرف موضح بال": 7420,
      "## الكتابه المحل": 7421,
      "##يه مع اقرب": 7422,
      "##21 حرفا متحرك": 7423,
      "## المحتمل": 7424,
      "##احرف المتحرك": 7425,
      "## حرفا منها ": 7426,
      "## الابجديه الكوريه في ": 7427,
      "## الابجديه الكوريه في الم": 7428,
      "##نطق الاحرف موضح بال": 7429,
      "## و و و و و و و و و": 7430,
      "## الكوريه على": 7431,
      "## نطق مقابل": 7432,
      "## نطق بالاحرف العرب": 7433,
      "## في 1933": 7434,
      "##عامي 19": 7435,
      "##هانغل وال": 7436,
      "##قواعد الكتاب": 7437,
      "##يوضح الجدول التالي اسم": 7438,
      "## بمعنى كتابه ال": 7439,
      "## رمض": 7440,
      "##هونمينجونغم": 7441,
      "##هونمونغجاهو": 7442,
      "## الساكنه في نهايه المقطع": 7443,
      "##ه الصوتيه الدوليه و": 7444,
      "##ه لغه جيا ج": 7445,
      "## تكوينات محتمل": 7446,
      "##صوات تقع عندما ": 7447,
      "##ه للمقاطع المكون": 7448,
      "##ا الاحرف الساكنه في ": 7449,
      "## هونمينجونغم": 7450,
      "## الملك سيجونغ العظيم": 7451,
      "## حروف متحركه م": 7452,
      "##يوضح الجدول التالي الاحرف الساكن": 7453,
      "##رومنه الكوريه المنقحه والابجدي": 7454,
      "##اقرب نطق بالاحرف العرب": 7455,
      "## كوريا الجنوبيه وما يق": 7456,
      "## بالعربيه توصف": 7457,
      "## سيكيونغ": 7458,
      "## بترتيب كوريا الجنوبيه وما يق": 7459,
      "##ه نطقا وصرف": 7460,
      "## ا ريه ا": 7461,
      "##ابلها في الرومنه الكوريه المنقحه والابجدي": 7462,
      "## الترتيب الابجدي للاحرف الكور": 7463,
      "##كونه للمقطع": 7464,
      "##ا تتكون ابجديه هانغل": 7465,
      "##حرف ساكن او": 7466,
      "##يه مع اقرب نطق مقابل": 7467,
      "##يوضح الجدول التالي اسما الاحرف الساكنه في ": 7468,
      "##ه الصوتيه الدوليه واقرب نطق بالاحرف العرب": 7469,
      "## تكوينات محتمله للمقاطع المكون": 7470,
      "## بالعربيه توصف الاحرف المشدد": 7471,
      "## بترتيب كوريا الجنوبيه وما يقابلها في الرومنه الكوريه المنقحه والابجدي": 7472,
      "##يه مع اقرب نطق مقابل بالعربيه توصف الاحرف المشدد": 7473,
      "## بترتيب كوريا الجنوبيه وما يقابلها في الرومنه الكوريه المنقحه والابجديه الصوتيه الدوليه واقرب نطق بالاحرف العرب": 7474,
      "## رفع": 7475,
      "##ايب": 7476,
      "## الخر": 7477,
      "##ه كتب": 7478,
      "##ا ور": 7479,
      "##ا وف": 7480,
      "## محمود": 7481,
      "##يه 19": 7482,
      "##يه وفي ال": 7483,
      "##اتي ": 7484,
      "##اته ال": 7485,
      "##امض": 7486,
      "##وليس": 7487,
      "## لان ": 7488,
      "## لما ": 7489,
      "##ين ان ": 7490,
      "## في شمال": 7491,
      "## في وقت": 7492,
      "## نادر": 7493,
      "## التدخل": 7494,
      "##قدما ": 7495,
      "## انظم": 7496,
      "##ترع": 7497,
      "## قانون ": 7498,
      "## النص": 7499,
      "## النصف": 7500,
      "##يوط": 7501,
      "## الشع": 7502,
      "## الخم": 7503,
      "##ه كثير": 7504,
      "##تكار": 7505,
      "##تكامل": 7506,
      "##يحصل": 7507,
      "## الزوج": 7508,
      "## وفاز": 7509,
      "## الموحد": 7510,
      "##يكون ل": 7511,
      "##ها من قبل": 7512,
      "##ارات العربيه الم": 7513,
      "## الاتحاد الاوروب": 7514,
      "## ابي طالب": 7515,
      "##ناق": 7516,
      "##قاض": 7517,
      "##جورج": 7518,
      "##حوم": 7519,
      "##خلل": 7520,
      "##ثمر": 7521,
      "## اقيم": 7522,
      "## الصليب": 7523,
      "##ه نفس": 7524,
      "##ي عدد": 7525,
      "##ن مع": 7526,
      "##ات في ا": 7527,
      "##ات من الم": 7528,
      "## كاتب": 7529,
      "## التحق": 7530,
      "##ونيا ": 7531,
      "## هام": 7532,
      "##يدخل": 7533,
      "## من انواع": 7534,
      "##مراقب": 7535,
      "##هوا ": 7536,
      "## شقيق": 7537,
      "##يه والاجتماع": 7538,
      "##كانت م": 7539,
      "##وزيف": 7540,
      "##دينه ا": 7541,
      "##لغات ال": 7542,
      "##خطو": 7543,
      "##ها لم ت": 7544,
      "##ه ولا ": 7545,
      "##طورت": 7546,
      "## الاستعمار": 7547,
      "##ختيار": 7548,
      "##هذا يعن": 7549,
      "## المبكر": 7550,
      "## المرضى": 7551,
      "##ارات العربيه المتحد": 7552,
      "##س و": 7553,
      "##نيع": 7554,
      "##لهج": 7555,
      "##كسر": 7556,
      "##صاف": 7557,
      "##زاد": 7558,
      "##شجع": 7559,
      "## السبب": 7560,
      "##ه ذلك": 7561,
      "## مواليد": 7562,
      "##يه بل": 7563,
      "##ديه ا": 7564,
      "## تو": 7565,
      "##ينظر": 7566,
      "## في دور": 7567,
      "##اعض": 7568,
      "##هم لل": 7569,
      "##وسكو": 7570,
      "##صلى الله عليه وسلم": 7571,
      "## القياد": 7572,
      "## شيخ": 7573,
      "## النجم": 7574,
      "## النواب": 7575,
      "## الرجل": 7576,
      "## تقسيم": 7577,
      "## المتعدد": 7578,
      "## مستمر": 7579,
      "##توفي ": 7580,
      "##يه التقليد": 7581,
      "##قناه ال": 7582,
      "##ريتشارد": 7583,
      "## نشرت": 7584,
      "##بطوله كاس": 7585,
      "## حقق": 7586,
      "##جزر المحيط اله": 7587,
      "## الاحتلال": 7588,
      "## كارل": 7589,
      "##ه هي احدى": 7590,
      "##لقب": 7591,
      "##تطبيق": 7592,
      "##دي ": 7593,
      "##كوب": 7594,
      "##حور": 7595,
      "##صعوب": 7596,
      "## اي م": 7597,
      "## اصول": 7598,
      "## القدس": 7599,
      "##ه الكر": 7600,
      "##ه الهند": 7601,
      "## موضوع": 7602,
      "## تفاعل": 7603,
      "## التصوير": 7604,
      "## والع": 7605,
      "##اكتش": 7606,
      "##اجسام": 7607,
      "##ه المجموع": 7608,
      "##ه والذي ": 7609,
      "##قرن ": 7610,
      "## الرسول": 7611,
      "##اوا ل": 7612,
      "##نفصل": 7613,
      "##مسابق": 7614,
      "##اختبار": 7615,
      "##اختيار": 7616,
      "##قصيد": 7617,
      "## اخت": 7618,
      "## الزر": 7619,
      "## الطعام": 7620,
      "##تزوج": 7621,
      "## عمليه ": 7622,
      "## المعرف": 7623,
      "## وهي م": 7624,
      "##اهداف": 7625,
      "## لتصبح": 7626,
      "## اعلان": 7627,
      "##يه وبعد": 7628,
      "##ه وجيز": 7629,
      "##تعاون مع": 7630,
      "## طل": 7631,
      "## ثقاف": 7632,
      "##هنا ": 7633,
      "##ناول": 7634,
      "##اه ت": 7635,
      "##دافع": 7636,
      "##كرب": 7637,
      "## ايسلند": 7638,
      "##يه يت": 7639,
      "## الموت": 7640,
      "## الاسلح": 7641,
      "## تغيير": 7642,
      "##ادق": 7643,
      "##ه ملك": 7644,
      "## نجد": 7645,
      "##اكسج": 7646,
      "##يتام": 7647,
      "## الذك": 7648,
      "##كما ان": 7649,
      "##يه تت": 7650,
      "##وكذلك": 7651,
      "##عمليات ال": 7652,
      "##ه كذلك": 7653,
      "## اراد": 7654,
      "## 95": 7655,
      "##ايران": 7656,
      "## اختف": 7657,
      "##ثقيل": 7658,
      "## عنصر": 7659,
      "## السلف": 7660,
      "## المستقبل": 7661,
      "##يكون م": 7662,
      "##توتر": 7663,
      "## الملعب": 7664,
      "##صداق": 7665,
      "##يمكن ان ت": 7666,
      "## عا له مقيمه في البلد": 7667,
      "##هذا الاسم": 7668,
      "##العاب الاولمب": 7669,
      "##بلده بنسبه ": 7670,
      "##هز": 7671,
      "##هري": 7672,
      "##اثل": 7673,
      "##اعداد": 7674,
      "##واط": 7675,
      "##بصر": 7676,
      "##طعم": 7677,
      "##صانع": 7678,
      "## الولاد": 7679,
      "##ن من ": 7680,
      "##ه الاش": 7681,
      "## وعند": 7682,
      "##دينت": 7683,
      "## لاول مره في ": 7684,
      "##يه الش": 7685,
      "##ون ت": 7686,
      "## هر": 7687,
      "##تمر": 7688,
      "##كليز": 7689,
      "##اقط": 7690,
      "##مرتبط": 7691,
      "## الحجر": 7692,
      "## الناصر": 7693,
      "##اضول": 7694,
      "##ه تلك": 7695,
      "##يه والسياس": 7696,
      "##وا مع": 7697,
      "## ولا": 7698,
      "##يديولوج": 7699,
      "## 42": 7700,
      "## مراحل": 7701,
      "##عنى": 7702,
      "##ارسال": 7703,
      "##اخلاق": 7704,
      "## القرار": 7705,
      "##ضرر": 7706,
      "## مساف": 7707,
      "##تزال": 7708,
      "##ينتقل": 7709,
      "##ا الى جنب مع": 7710,
      "##نجم": 7711,
      "##فاج": 7712,
      "##ذار": 7713,
      "##ه الجو": 7714,
      "## مثال": 7715,
      "##امح": 7716,
      "## تاثر": 7717,
      "## تسع": 7718,
      "##ين ان": 7719,
      "##يه الوطن": 7720,
      "## التطور": 7721,
      "##مره اخرى": 7722,
      "##يتس": 7723,
      "##ه لدى": 7724,
      "##فروع": 7725,
      "## رتب": 7726,
      "##ه والكتاب": 7727,
      "##درام": 7728,
      "## الكبرى": 7729,
      "##يه ان ال": 7730,
      "## هذا ": 7731,
      "## 33": 7732,
      "##سطو": 7733,
      "##تشو": 7734,
      "##فتره من ": 7735,
      "##صوديوم": 7736,
      "##دنى": 7737,
      "##صدرت": 7738,
      "## ثلاثه ا": 7739,
      "## انه كان ": 7740,
      "##صناعه ال": 7741,
      "##ه ابن ": 7742,
      "##يمكن استخدام": 7743,
      "##خالد": 7744,
      "##اشاره الى": 7745,
      "##فيها ": 7746,
      "##اقد": 7747,
      "##ليب": 7748,
      "##طيل": 7749,
      "##طرب": 7750,
      "##1 5": 7751,
      "##زول": 7752,
      "##خان": 7753,
      "##خاطر": 7754,
      "## اصغر": 7755,
      "## اليونان": 7756,
      "##ي وج": 7757,
      "##ه الطبيع": 7758,
      "##ه الاساس": 7759,
      "## مصدر": 7760,
      "## الاكسج": 7761,
      "##يران في ": 7762,
      "## في يوم": 7763,
      "##لكره القدم": 7764,
      "##يتان": 7765,
      "## الفارس": 7766,
      "## الكون": 7767,
      "## صال": 7768,
      "## 39": 7769,
      "##ه سجل": 7770,
      "## ملايين ": 7771,
      "## الوهاب": 7772,
      "## اشتهر": 7773,
      "## وهو ي": 7774,
      "##يا التي ": 7775,
      "## فرص": 7776,
      "##يه الى جانب": 7777,
      "## قوات": 7778,
      "##انشط": 7779,
      "##عتمد على": 7780,
      "## هي احدى قرى عزل": 7781,
      "##ي اكسيد": 7782,
      "##نيك": 7783,
      "##قاق": 7784,
      "##م ب": 7785,
      "##حمر": 7786,
      "##شتراك": 7787,
      "## امن": 7788,
      "## الصراع": 7789,
      "##ه 6": 7790,
      "## مشكل": 7791,
      "##يه بلغ تعداد سكانها ": 7792,
      "## المسلسل": 7793,
      "## تك": 7794,
      "## تسمى": 7795,
      "## تطبيق": 7796,
      "##يرل": 7797,
      "##ها حتى": 7798,
      "## كور": 7799,
      "##ه مركز": 7800,
      "## سوف": 7801,
      "## ساهم": 7802,
      "## التقدم": 7803,
      "## العش": 7804,
      "##احف": 7805,
      "##هم او": 7806,
      "##فرط": 7807,
      "## القواعد": 7808,
      "## شع": 7809,
      "## البيت": 7810,
      "## السام": 7811,
      "## السفل": 7812,
      "##يه وعلى": 7813,
      "##ي وان": 7814,
      "##يه ار": 7815,
      "## غان": 7816,
      "##م يكن ": 7817,
      "## بدات": 7818,
      "##ات الاساس": 7819,
      "## المستعمر": 7820,
      "##كاس العالم": 7821,
      "## اوروبا ": 7822,
      "## الكثافه السكان": 7823,
      "##قارنه مع": 7824,
      "## من البيض و0": 7825,
      "## اجمالي ال": 7826,
      "##مور": 7827,
      "##جوا ز": 7828,
      "##بورغ": 7829,
      "##طوال": 7830,
      "##عتبار": 7831,
      "##حكام": 7832,
      "##شيك": 7833,
      "##ثوذكس": 7834,
      "## الطلاب": 7835,
      "##ا وس": 7836,
      "## واس": 7837,
      "##يه قبل": 7838,
      "##ات\r\n": 7839,
      "## بتاريخ": 7840,
      "##ي التي ": 7841,
      "## ينت": 7842,
      "##يلا على": 7843,
      "##يه الاصل": 7844,
      "## سمع": 7845,
      "## حجر": 7846,
      "##يمتر": 7847,
      "##ون فيل": 7848,
      "## انها م": 7849,
      "##احر": 7850,
      "## مناسب": 7851,
      "## السياح": 7852,
      "##كان في ال": 7853,
      "##ه في حين سجلت الكثافه السكانيه ": 7854,
      "##نتخاب": 7855,
      "##ي لم ت": 7856,
      "##ه الحديد": 7857,
      "##اسم العلم": 7858,
      "##ات محافظ": 7859,
      "## الغزال": 7860,
      "##دراسات ال": 7861,
      "## محمد بن ": 7862,
      "##ما بين ": 7863,
      "##عقوب": 7864,
      "## اقل من ": 7865,
      "## ولكن ال": 7866,
      "## اسباب": 7867,
      "## باريس": 7868,
      "##عظمى": 7869,
      "##فادع": 7870,
      "## الابيض المتوسط": 7871,
      "## عا له مقيمه في البلده في حين سجلت الكثافه السكانيه ": 7872,
      "## خصوص": 7873,
      "##تغل": 7874,
      "##جانس": 7875,
      "##حار": 7876,
      "##خاط": 7877,
      "##ختص": 7878,
      "## الظ": 7879,
      "## الالبوم": 7880,
      "##ه يمكن ": 7881,
      "##ي فل": 7882,
      "##ه الجامع": 7883,
      "## بكر": 7884,
      "## بما ف": 7885,
      "## بحث": 7886,
      "## الاحي": 7887,
      "## عين ": 7888,
      "##ه موسم": 7889,
      "##ي اكبر": 7890,
      "## والمع": 7891,
      "##هم الم": 7892,
      "##ندن ": 7893,
      "## القتال": 7894,
      "##يه بما في ذلك": 7895,
      "##سيا ال": 7896,
      "##يه لا ": 7897,
      "##بنان ": 7898,
      "##طقس": 7899,
      "## ضرب": 7900,
      "##ي في الا": 7901,
      "## ايضا على": 7902,
      "##يحاول": 7903,
      "##تنقل": 7904,
      "## فرد": 7905,
      "## الخلف": 7906,
      "## خطوط": 7907,
      "##تقع في ا": 7908,
      "##ه الدكتور": 7909,
      "## اكد": 7910,
      "## احصا ات سنه ": 7911,
      "## طب": 7912,
      "## غل": 7913,
      "##يهم و": 7914,
      "##فسر": 7915,
      "##اون ": 7916,
      "##لد": 7917,
      "##جهد": 7918,
      "##راب": 7919,
      "##1 0": 7920,
      "## اسلام": 7921,
      "## القدر": 7922,
      "##ه كتاب": 7923,
      "##اندلس": 7924,
      "## الاعداد": 7925,
      "##ستو": 7926,
      "##ستشفى": 7927,
      "##ين اخرين ": 7928,
      "## في 10": 7929,
      "## في مركز": 7930,
      "##برلمان": 7931,
      "## التجمع": 7932,
      "## هار": 7933,
      "##احتف": 7934,
      "##ات الد": 7935,
      "##ه فقال": 7936,
      "## الحس": 7937,
      "## دا ما ": 7938,
      "## النرويج": 7939,
      "## الفوز": 7940,
      "##ي بسبب": 7941,
      "##كما ا": 7942,
      "##يه للك": 7943,
      "##طقوس": 7944,
      "## الاندلس": 7945,
      "## اعتقاد": 7946,
      "##ه نشر": 7947,
      "##كالوريوس": 7948,
      "## عمليات": 7949,
      "## اللغه العرب": 7950,
      "##اتباع": 7951,
      "##ه الامير": 7952,
      "##اتجاه": 7953,
      "## نفوذ": 7954,
      "##سطنطين": 7955,
      "##يحت": 7956,
      "##نور": 7957,
      "##فشل": 7958,
      "##اه وال": 7959,
      "##قادم": 7960,
      "##بادر": 7961,
      "##ه عد": 7962,
      "##ه عبد": 7963,
      "## مور": 7964,
      "##ها هو": 7965,
      "##ها عن ": 7966,
      "##مناسب": 7967,
      "##ات الخاص": 7968,
      "## منهما ": 7969,
      "## الى غ": 7970,
      "## بالذكر": 7971,
      "##عبيد": 7972,
      "##ه تسمى": 7973,
      "##خصيص": 7974,
      "## 2018": 7975,
      "##يونيو": 7976,
      "## في مجموع": 7977,
      "##تشجيع": 7978,
      "## العربي ": 7979,
      "##فتره م": 7980,
      "## وفي عام 19": 7981,
      "##سكريه ال": 7982,
      "##ياكل": 7983,
      "##بروتستانت": 7984,
      "## الوراث": 7985,
      "##هات": 7986,
      "##هجم": 7987,
      "##ناز": 7988,
      "##نادي ": 7989,
      "##فص": 7990,
      "##جنت": 7991,
      "##ده ال": 7992,
      "##طهر": 7993,
      "##عاصر": 7994,
      "##2 و": 7995,
      "##شا ": 7996,
      "## اصحاب": 7997,
      "## واد": 7998,
      "## المعدل": 7999,
      "## الاز": 8000,
      "## تصميم": 8001,
      "##ين في الم": 8002,
      "##ه مباشر": 8003,
      "##ينس": 8004,
      "##يه الغرب": 8005,
      "##برل": 8006,
      "## على اساس": 8007,
      "##تحديث": 8008,
      "## دي ": 8009,
      "##ه الموافق": 8010,
      "## القطع": 8011,
[...]
