{
  "version": "1.0",
  "truncation": null,
  "padding": null,
  "added_tokens": [
    {
      "id": 0,
      "content": "[UNK]",
      "single_word": false,
      "lstrip": false,
      "rstrip": false,
      "normalized": false,
      "special": true
    },
    {
      "id": 1,
      "content": "[PAD]",
      "single_word": false,
      "lstrip": false,
      "rstrip": false,
      "normalized": false,
      "special": true
    },
    {
      "id": 2,
      "content": "[CLS]",
      "single_word": false,
      "lstrip": false,
      "rstrip": false,
      "normalized": false,
      "special": true
    },
    {
      "id": 3,
      "content": "[SEP]",
      "single_word": false,
      "lstrip": false,
      "rstrip": false,
      "normalized": false,
      "special": true
    },
    {
      "id": 4,
      "content": "[MASK]",
      "single_word": false,
      "lstrip": false,
      "rstrip": false,
      "normalized": false,
      "special": true
    }
  ],
  "normalizer": {
    "type": "Sequence",
    "normalizers": [
      {
        "type": "NFD"
      }
    ]
  },
  "pre_tokenizer": null,
  "post_processor": {
    "type": "TemplateProcessing",
    "single": [
      {
        "SpecialToken": {
          "id": "[CLS]",
          "type_id": 0
        }
      },
      {
        "Sequence": {
          "id": "A",
          "type_id": 0
        }
      },
      {
        "SpecialToken": {
          "id": "[SEP]",
          "type_id": 0
        }
      }
    ],
    "pair": [
      {
        "SpecialToken": {
          "id": "[CLS]",
          "type_id": 0
        }
      },
      {
        "Sequence": {
          "id": "A",
          "type_id": 0
        }
      },
      {
        "SpecialToken": {
          "id": "[SEP]",
          "type_id": 0
        }
      },
      {
        "Sequence": {
          "id": "B",
          "type_id": 1
        }
      },
      {
        "SpecialToken": {
          "id": "[SEP]",
          "type_id": 1
        }
      }
    ],
    "special_tokens": {
      "[CLS]": {
        "id": "[CLS]",
        "ids": [
          2
        ],
        "tokens": [
          "[CLS]"
        ]
      },
      "[SEP]": {
        "id": "[SEP]",
        "ids": [
          3
        ],
        "tokens": [
          "[SEP]"
        ]
      }
    }
  },
  "decoder": {
    "type": "WordPiece",
    "prefix": "##",
    "cleanup": true
  },
  "model": {
    "type": "WordPiece",
    "unk_token": "[UNK]",
    "continuing_subword_prefix": "##",
    "max_input_chars_per_word": 100,
    "vocab": {
      "[UNK]": 0,
      "[PAD]": 1,
      "[CLS]": 2,
      "[SEP]": 3,
      "[MASK]": 4,
      "\n": 5,
      "\r": 6,
      " ": 7,
      "!": 8,
      "\"": 9,
      "#": 10,
      "$": 11,
      "%": 12,
      "&": 13,
      "'": 14,
      "(": 15,
      ")": 16,
      "*": 17,
      "+": 18,
      ",": 19,
      "-": 20,
      ".": 21,
      "/": 22,
      "0": 23,
      "1": 24,
      "2": 25,
      "3": 26,
      "4": 27,
      "5": 28,
      "6": 29,
      "7": 30,
      "8": 31,
      "9": 32,
      ":": 33,
      ";": 34,
      "<": 35,
      "=": 36,
      ">": 37,
      "?": 38,
      "@": 39,
      "A": 40,
      "B": 41,
      "C": 42,
      "D": 43,
      "E": 44,
      "F": 45,
      "G": 46,
      "H": 47,
      "I": 48,
      "J": 49,
      "K": 50,
      "L": 51,
      "M": 52,
      "N": 53,
      "O": 54,
      "P": 55,
      "Q": 56,
      "R": 57,
      "S": 58,
      "T": 59,
      "U": 60,
      "V": 61,
      "W": 62,
      "X": 63,
      "Y": 64,
      "Z": 65,
      "[": 66,
      "\\": 67,
      "]": 68,
      "^": 69,
      "_": 70,
      "`": 71,
      "a": 72,
      "b": 73,
      "c": 74,
      "d": 75,
      "e": 76,
      "f": 77,
      "g": 78,
      "h": 79,
      "i": 80,
      "j": 81,
      "k": 82,
      "l": 83,
      "m": 84,
      "n": 85,
      "o": 86,
      "p": 87,
      "q": 88,
      "r": 89,
      "s": 90,
      "t": 91,
      "u": 92,
      "v": 93,
      "w": 94,
      "x": 95,
      "y": 96,
      "z": 97,
      "{": 98,
      "|": 99,
      "}": 100,
      "~": 101,
      "": 102,
      "": 103,
      "": 104,
      "£": 105,
      "¤": 106,
      "¥": 107,
      "¦": 108,
      "§": 109,
      "¨": 110,
      "©": 111,
      "«": 112,
      "¬": 113,
      "­": 114,
      "®": 115,
      "¯": 116,
      "°": 117,
      "±": 118,
      "²": 119,
      "³": 120,
      "´": 121,
      "µ": 122,
      "¶": 123,
      "·": 124,
      "¹": 125,
      "º": 126,
      "»": 127,
      "¼": 128,
      "½": 129,
      "¾": 130,
      "Æ": 131,
      "×": 132,
      "Ø": 133,
      "Þ": 134,
      "ß": 135,
      "æ": 136,
      "ð": 137,
      "÷": 138,
      "ø": 139,
      "þ": 140,
      "Đ": 141,
      "đ": 142,
      "ħ": 143,
      "ı": 144,
      "Ł": 145,
      "ł": 146,
      "ŋ": 147,
      "Œ": 148,
      "œ": 149,
      "Ɔ": 150,
      "Ɣ": 151,
      "Ƣ": 152,
      "ƶ": 153,
      "Ʒ": 154,
      "ƿ": 155,
      "ȝ": 156,
      "ȷ": 157,
      "ɐ": 158,
      "ɑ": 159,
      "ɒ": 160,
      "ɔ": 161,
      "ɕ": 162,
      "ə": 163,
      "ɛ": 164,
      "ɜ": 165,
      "ɡ": 166,
      "ɣ": 167,
      "ɦ": 168,
      "ɨ": 169,
      "ɪ": 170,
      "ɫ": 171,
      "ɬ": 172,
      "ɲ": 173,
      "ɶ": 174,
      "ɾ": 175,
      "ʀ": 176,
      "ʁ": 177,
      "ʂ": 178,
      "ʃ": 179,
      "ʊ": 180,
      "ʋ": 181,
      "ʌ": 182,
      "ʏ": 183,
      "ʑ": 184,
      "ʒ": 185,
      "ʔ": 186,
      "ʕ": 187,
      "ʘ": 188,
      "ʙ": 189,
      "ʝ": 190,
      "ʦ": 191,
      "ʰ": 192,
      "ʱ": 193,
      "ʲ": 194,
      "ʻ": 195,
      "ʾ": 196,
      "ʿ": 197,
      "ˀ": 198,
      "ˁ": 199,
      "˂": 200,
      "˃": 201,
      "ˈ": 202,
      "ˌ": 203,
      "ː": 204,
      "˙": 205,
      "ˤ": 206,
      "̀": 207,
      "́": 208,
      "̂": 209,
      "̃": 210,
      "̄": 211,
      "̆": 212,
      "̇": 213,
      "̈": 214,
      "̉": 215,
      "̊": 216,
      "̋": 217,
      "̌": 218,
      "̓": 219,
      "̔": 220,
      "̛": 221,
      "̞": 222,
      "̡": 223,
      "̣": 224,
      "̦": 225,
      "̧": 226,
      "̨": 227,
      "̩": 228,
      "̪": 229,
      "̮": 230,
      "̯": 231,
      "̱": 232,
      "̸": 233,
      "̺": 234,
      "͂": 235,
      "ͅ": 236,
      "͡": 237,
      "΄": 238,
      "Α": 239,
      "Β": 240,
      "Γ": 241,
      "Δ": 242,
      "Ε": 243,
      "Ζ": 244,
      "Η": 245,
      "Θ": 246,
      "Ι": 247,
      "Κ": 248,
      "Λ": 249,
      "Μ": 250,
      "Ν": 251,
      "Ξ": 252,
      "Ο": 253,
      "Π": 254,
      "Ρ": 255,
      "Σ": 256,
      "Τ": 257,
      "Υ": 258,
      "Φ": 259,
      "Χ": 260,
      "Ψ": 261,
      "Ω": 262,
      "α": 263,
      "β": 264,
      "γ": 265,
      "δ": 266,
      "ε": 267,
      "ζ": 268,
      "η": 269,
      "θ": 270,
      "ι": 271,
      "κ": 272,
      "λ": 273,
      "μ": 274,
      "ν": 275,
      "ξ": 276,
      "ο": 277,
      "π": 278,
      "ρ": 279,
      "ς": 280,
      "σ": 281,
      "τ": 282,
      "υ": 283,
      "φ": 284,
      "χ": 285,
      "ψ": 286,
      "ω": 287,
      "ϑ": 288,
      "ϕ": 289,
      "ϛ": 290,
      "Ϝ": 291,
      "ϝ": 292,
      "ϣ": 293,
      "ϵ": 294,
      "Є": 295,
      "І": 296,
      "А": 297,
      "Б": 298,
      "В": 299,
      "Г": 300,
      "Д": 301,
      "Е": 302,
      "Ж": 303,
      "З": 304,
      "И": 305,
      "К": 306,
      "Л": 307,
      "М": 308,
      "Н": 309,
      "О": 310,
      "П": 311,
      "Р": 312,
      "С": 313,
      "Т": 314,
      "У": 315,
      "Ф": 316,
      "Х": 317,
      "Ц": 318,
      "Ч": 319,
      "Ш": 320,
      "Щ": 321,
      "Э": 322,
      "Ю": 323,
      "Я": 324,
      "а": 325,
      "б": 326,
      "в": 327,
      "г": 328,
      "д": 329,
      "е": 330,
      "ж": 331,
      "з": 332,
      "и": 333,
      "к": 334,
      "л": 335,
      "м": 336,
      "н": 337,
      "о": 338,
      "п": 339,
      "р": 340,
      "с": 341,
      "т": 342,
      "у": 343,
      "ф": 344,
      "х": 345,
      "ц": 346,
      "ч": 347,
      "ш": 348,
      "щ": 349,
      "ъ": 350,
      "ы": 351,
      "ь": 352,
      "э": 353,
      "ю": 354,
      "я": 355,
      "і": 356,
      "ј": 357,
      "љ": 358,
      "ћ": 359,
      "ѣ": 360,
      "ѥ": 361,
      "ѫ": 362,
      "ғ": 363,
      "Қ": 364,
      "қ": 365,
      "ұ": 366,
      "ҷ": 367,
      "Ӏ": 368,
      "ә": 369,
      "ө": 370,
      "Ա": 371,
      "Բ": 372,
      "Դ": 373,
      "Թ": 374,
      "Կ": 375,
      "Հ": 376,
      "Մ": 377,
      "Ս": 378,
      "Վ": 379,
      "Ք": 380,
      "՝": 381,
      "ա": 382,
      "բ": 383,
      "դ": 384,
      "ե": 385,
      "զ": 386,
      "ի": 387,
      "ծ": 388,
      "կ": 389,
      "հ": 390,
      "մ": 391,
      "յ": 392,
      "ն": 393,
      "շ": 394,
      "ո": 395,
      "չ": 396,
      "պ": 397,
      "վ": 398,
      "տ": 399,
      "ր": 400,
      "ւ": 401,
      "փ": 402,
      "ք": 403,
      "ְ": 404,
      "ֱ": 405,
      "ִ": 406,
      "ֵ": 407,
      "ֶ": 408,
      "ַ": 409,
      "ָ": 410,
      "ֹ": 411,
      "ּ": 412,
      "־": 413,
      "ׁ": 414,
      "׃": 415,
      "א": 416,
      "ב": 417,
      "ג": 418,
      "ד": 419,
      "ה": 420,
      "ו": 421,
      "ז": 422,
      "ח": 423,
      "ט": 424,
      "י": 425,
      "ך": 426,
      "כ": 427,
      "ל": 428,
      "ם": 429,
      "מ": 430,
      "ן": 431,
      "נ": 432,
      "ס": 433,
      "ע": 434,
      "ף": 435,
      "פ": 436,
      "ץ": 437,
      "צ": 438,
      "ק": 439,
      "ר": 440,
      "ש": 441,
      "ת": 442,
      "ײ": 443,
      "״": 444,
      "؉": 445,
      "،": 446,
      "؛": 447,
      "؜": 448,
      "؟": 449,
      "ؠ": 450,
      "ء": 451,
      "ا": 452,
      "ب": 453,
      "ة": 454,
      "ت": 455,
      "ث": 456,
      "ج": 457,
      "ح": 458,
      "خ": 459,
      "د": 460,
      "ذ": 461,
      "ر": 462,
      "ز": 463,
      "س": 464,
      "ش": 465,
      "ص": 466,
      "ض": 467,
      "ط": 468,
      "ظ": 469,
      "ع": 470,
      "غ": 471,
      "ؼ": 472,
      "ف": 473,
      "ق": 474,
      "ك": 475,
      "ل": 476,
      "م": 477,
      "ن": 478,
      "ه": 479,
      "و": 480,
      "ى": 481,
      "ي": 482,
      "ٓ": 483,
      "ٔ": 484,
      "ٕ": 485,
      "ٖ": 486,
      "ٗ": 487,
      "ٙ": 488,
      "ٞ": 489,
      "٠": 490,
      "١": 491,
      "٢": 492,
      "٣": 493,
      "٤": 494,
      "٥": 495,
      "٦": 496,
      "٧": 497,
      "٨": 498,
      "٩": 499,
      "٪": 500,
      "٫": 501,
      "٬": 502,
      "٭": 503,
      "ٱ": 504,
      "ٲ": 505,
      "ٳ": 506,
      "ٹ": 507,
      "ٻ": 508,
      "پ": 509,
      "ڄ": 510,
      "څ": 511,
      "چ": 512,
      "ڇ": 513,
      "ڊ": 514,
      "ڌ": 515,
      "ڍ": 516,
      "ڑ": 517,
      "ژ": 518,
      "ښ": 519,
      "ڠ": 520,
      "ڤ": 521,
      "ڥ": 522,
      "ڨ": 523,
      "ک": 524,
      "ڪ": 525,
      "ڭ": 526,
      "گ": 527,
      "ڵ": 528,
      "ڹ": 529,
      "ھ": 530,
      "ہ": 531,
      "ۃ": 532,
      "ۆ": 533,
      "ۇ": 534,
      "ۈ": 535,
      "ۉ": 536,
      "ی": 537,
      "ۍ": 538,
      "ێ": 539,
      "ې": 540,
      "ے": 541,
      "۔": 542,
      "ە": 543,
      "ۖ": 544,
      "ۗ": 545,
      "ۙ": 546,
      "ۚ": 547,
      "ۛ": 548,
      "ۜ": 549,
      "۝": 550,
      "۞": 551,
      "ۡ": 552,
      "ۢ": 553,
      "ۥ": 554,
      "۩": 555,
      "۰": 556,
      "۱": 557,
      "۲": 558,
      "۳": 559,
      "۷": 560,
      "۸": 561,
      "۹": 562,
      "ܐ": 563,
      "ܒ": 564,
      "ܓ": 565,
      "ܕ": 566,
      "ܗ": 567,
      "ܘ": 568,
      "ܙ": 569,
      "ܚ": 570,
      "ܛ": 571,
      "ܝ": 572,
      "ܟ": 573,
      "ܠ": 574,
      "ܡ": 575,
      "ܢ": 576,
      "ܣ": 577,
      "ܥ": 578,
      "ܦ": 579,
      "ܨ": 580,
      "ܩ": 581,
      "ܪ": 582,
      "ܫ": 583,
      "ܬ": 584,
      "ܰ": 585,
      "ܳ": 586,
      "ݒ": 587,
      "ݘ": 588,
      "ݞ": 589,
      "ݣ": 590,
      "ߏ": 591,
      "ߒ": 592,
      "ߞ": 593,
      "ࢳ": 594,
      "ࣰ": 595,
      "ࣱ": 596,
      "ࣲ": 597,
      "ऀ": 598,
      "ँ": 599,
      "ं": 600,
      "अ": 601,
      "आ": 602,
      "ओ": 603,
      "क": 604,
      "ग": 605,
      "च": 606,
      "छ": 607,
      "ज": 608,
      "ञ": 609,
      "ट": 610,
      "ठ": 611,
      "ड": 612,
      "ण": 613,
      "त": 614,
      "थ": 615,
      "द": 616,
      "ध": 617,
      "न": 618,
      "प": 619,
      "फ": 620,
      "ब": 621,
      "भ": 622,
      "म": 623,
      "य": 624,
      "र": 625,
      "ल": 626,
      "व": 627,
      "श": 628,
      "स": 629,
      "ह": 630,
      "़": 631,
      "ा": 632,
      "ि": 633,
      "ी": 634,
      "ु": 635,
      "ू": 636,
      "ृ": 637,
      "े": 638,
      "ै": 639,
      "ॉ": 640,
      "ो": 641,
      "ौ": 642,
      "्": 643,
      "३": 644,
      "ং": 645,
      "অ": 646,
      "আ": 647,
      "ই": 648,
      "উ": 649,
      "ক": 650,
      "খ": 651,
      "গ": 652,
      "ঙ": 653,
      "চ": 654,
      "জ": 655,
      "ট": 656,
      "ঢ": 657,
      "দ": 658,
      "ধ": 659,
      "ন": 660,
      "প": 661,
      "ফ": 662,
      "ব": 663,
      "ম": 664,
      "য": 665,
      "র": 666,
      "ল": 667,
      "শ": 668,
      "স": 669,
      "হ": 670,
      "়": 671,
      "া": 672,
      "ি": 673,
      "ী": 674,
      "ু": 675,
      "ে": 676,
      "্": 677,
      "ৰ": 678,
      "৳": 679,
      "ਖ": 680,
      "ਗ": 681,
      "ਦ": 682,
      "ਨ": 683,
      "ਬ": 684,
      "ਰ": 685,
      "ਹ": 686,
      "ਾ": 687,
      "ਿ": 688,
      "ੁ": 689,
      "ੋ": 690,
      "ੰ": 691,
      "ણ": 692,
      "પ": 693,
      "ય": 694,
      "વ": 695,
      "ા": 696,
      "િ": 697,
      "ો": 698,
      "ଂ": 699,
      "ଆ": 700,
      "ଊ": 701,
      "ଓ": 702,
      "କ": 703,
      "ଖ": 704,
      "ଗ": 705,
      "ଙ": 706,
      "ଟ": 707,
      "ଡ": 708,
      "ଣ": 709,
      "ପ": 710,
      "ଭ": 711,
      "ର": 712,
      "ଳ": 713,
      "ଶ": 714,
      "଼": 715,
      "ା": 716,
      "ି": 717,
      "େ": 718,
      "୍": 719,
      "ஃ": 720,
      "இ": 721,
      "ஈ": 722,
      "க": 723,
      "ங": 724,
      "ச": 725,
      "ட": 726,
      "த": 727,
      "ன": 728,
      "ப": 729,
      "ம": 730,
      "ய": 731,
      "ர": 732,
      "ற": 733,
      "ல": 734,
      "ள": 735,
      "ழ": 736,
      "வ": 737,
      "ா": 738,
      "ி": 739,
      "ீ": 740,
      "ு": 741,
      "ை": 742,
      "்": 743,
      "௩": 744,
      "ం": 745,
      "క": 746,
      "గ": 747,
      "డ": 748,
      "త": 749,
      "థ": 750,
      "న": 751,
      "ప": 752,
      "మ": 753,
      "య": 754,
      "ర": 755,
      "ల": 756,
      "వ": 757,
      "స": 758,
      "ా": 759,
      "ి": 760,
      "ీ": 761,
      "ు": 762,
      "ూ": 763,
      "ె": 764,
      "ో": 765,
      "్": 766,
      "ಂ": 767,
      "ಡ": 768,
      "ಪ": 769,
      "ಮ": 770,
      "ಯ": 771,
      "ರ": 772,
      "ಲ": 773,
      "ಸ": 774,
      "ಿ": 775,
      "ು": 776,
      "ೂ": 777,
      "ೆ": 778,
      "್": 779,
      "ം": 780,
      "ട": 781,
      "ണ": 782,
      "ത": 783,
      "പ": 784,
      "മ": 785,
      "ര": 786,
      "ള": 787,
      "വ": 788,
      "ഷ": 789,
      "ി": 790,
      "ു": 791,
      "െ": 792,
      "്": 793,
      "൩": 794,
      "ං": 795,
      "ක": 796,
      "ර": 797,
      "ල": 798,
      "ව": 799,
      "ශ": 800,
      "්": 801,
      "ා": 802,
      "ී": 803,
      "ก": 804,
      "ง": 805,
      "จ": 806,
      "ช": 807,
      "ด": 808,
      "ท": 809,
      "บ": 810,
      "ย": 811,
      "ร": 812,
      "ว": 813,
      "ส": 814,
      "อ": 815,
      "ะ": 816,
      "า": 817,
      "ิ": 818,
      "ี": 819,
      "เ": 820,
      "แ": 821,
      "ไ": 822,
      "๊": 823,
      "์": 824,
      "๓": 825,
      "ກ": 826,
      "ຂ": 827,
      "ງ": 828,
      "ດ": 829,
      "ນ": 830,
      "ບ": 831,
      "ພ": 832,
      "ມ": 833,
      "ລ": 834,
      "ວ": 835,
      "ສ": 836,
      "ຫ": 837,
      "ະ": 838,
      "ັ": 839,
      "າ": 840,
      "ິ": 841,
      "ີ": 842,
      "ົ": 843,
      "ເ": 844,
      "ແ": 845,
      "້": 846,
      "ໍ": 847,
      "ခ": 848,
      "င": 849,
      "ဉ": 850,
      "န": 851,
      "ပ": 852,
      "မ": 853,
      "သ": 854,
      "ါ": 855,
      "ာ": 856,
      "ိ": 857,
      "ု": 858,
      "ေ": 859,
      "့": 860,
      "်": 861,
      "ျ": 862,
      "ြ": 863,
      "ა": 864,
      "ბ": 865,
      "გ": 866,
      "ე": 867,
      "ი": 868,
      "ლ": 869,
      "მ": 870,
      "ნ": 871,
      "რ": 872,
      "ს": 873,
      "ტ": 874,
      "უ": 875,
      "ძ": 876,
      "ჭ": 877,
      "ხ": 878,
      "ᄀ": 879,
      "ᄁ": 880,
      "ᄂ": 881,
      "ᄃ": 882,
      "ᄄ": 883,
      "ᄅ": 884,
      "ᄆ": 885,
      "ᄇ": 886,
      "ᄈ": 887,
      "ᄉ": 888,
      "ᄊ": 889,
      "ᄋ": 890,
      "ᄌ": 891,
      "ᄍ": 892,
      "ᄎ": 893,
      "ᄏ": 894,
      "ᄐ": 895,
      "ᄑ": 896,
      "ᄒ": 897,
      "ᄓ": 898,
      "ᄔ": 899,
      "ᄕ": 900,
      "ᄖ": 901,
      "ᄗ": 902,
      "ᄘ": 903,
      "ᄙ": 904,
      "ᄚ": 905,
      "ᄛ": 906,
      "ᄜ": 907,
      "ᄝ": 908,
      "ᄞ": 909,
      "ᄟ": 910,
      "ᄠ": 911,
      "ᄡ": 912,
      "ᄢ": 913,
      "ᄣ": 914,
      "ᄤ": 915,
      "ᄥ": 916,
      "ᄦ": 917,
      "ᄧ": 918,
      "ᄨ": 919,
      "ᄩ": 920,
      "ᄪ": 921,
      "ᄫ": 922,
      "ᄬ": 923,
      "ᄭ": 924,
      "ᄮ": 925,
      "ᄯ": 926,
      "ᄰ": 927,
      "ᄱ": 928,
      "ᄲ": 929,
      "ᄳ": 930,
      "ᄴ": 931,
      "ᄵ": 932,
      "ᄶ": 933,
      "ᄷ": 934,
      "ᄸ": 935,
      "ᄹ": 936,
      "ᄺ": 937,
      "ᄻ": 938,
      "ᄼ": 939,
      "ᄽ": 940,
      "ᄾ": 941,
      "ᄿ": 942,
      "ᅀ": 943,
      "ᅁ": 944,
      "ᅂ": 945,
      "ᅃ": 946,
      "ᅄ": 947,
      "ᅅ": 948,
      "ᅆ": 949,
      "ᅇ": 950,
      "ᅈ": 951,
      "ᅉ": 952,
      "ᅊ": 953,
      "ᅋ": 954,
      "ᅌ": 955,
      "ᅍ": 956,
      "ᅎ": 957,
      "ᅏ": 958,
      "ᅐ": 959,
      "ᅑ": 960,
      "ᅒ": 961,
      "ᅓ": 962,
      "ᅔ": 963,
      "ᅕ": 964,
      "ᅖ": 965,
      "ᅗ": 966,
      "ᅘ": 967,
      "ᅙ": 968,
      "ᅚ": 969,
      "ᅛ": 970,
      "ᅜ": 971,
      "ᅝ": 972,
      "ᅞ": 973,
      "ᅡ": 974,
      "ᅢ": 975,
      "ᅣ": 976,
      "ᅤ": 977,
      "ᅥ": 978,
      "ᅦ": 979,
      "ᅧ": 980,
      "ᅨ": 981,
      "ᅩ": 982,
      "ᅪ": 983,
      "ᅫ": 984,
      "ᅬ": 985,
      "ᅭ": 986,
      "ᅮ": 987,
      "ᅯ": 988,
      "ᅰ": 989,
      "ᅱ": 990,
      "ᅲ": 991,
      "ᅳ": 992,
      "ᅴ": 993,
      "ᅵ": 994,
      "ᅶ": 995,
      "ᅷ": 996,
      "ᅸ": 997,
      "ᅹ": 998,
      "ᅺ": 999,
      "ᅻ": 1000,
      "ᅼ": 1001,
      "ᅽ": 1002,
      "ᅾ": 1003,
      "ᅿ": 1004,
      "ᆀ": 1005,
      "ᆁ": 1006,
      "ᆂ": 1007,
      "ᆃ": 1008,
      "ᆄ": 1009,
      "ᆅ": 1010,
      "ᆆ": 1011,
      "ᆇ": 1012,
      "ᆈ": 1013,
      "ᆉ": 1014,
      "ᆊ": 1015,
      "ᆋ": 1016,
      "ᆌ": 1017,
      "ᆍ": 1018,
      "ᆎ": 1019,
      "ᆏ": 1020,
      "ᆐ": 1021,
      "ᆑ": 1022,
      "ᆒ": 1023,
      "ᆓ": 1024,
      "ᆔ": 1025,
      "ᆕ": 1026,
      "ᆖ": 1027,
      "ᆗ": 1028,
      "ᆘ": 1029,
      "ᆙ": 1030,
      "ᆚ": 1031,
      "ᆛ": 1032,
      "ᆜ": 1033,
      "ᆝ": 1034,
      "ᆞ": 1035,
      "ᆟ": 1036,
      "ᆠ": 1037,
      "ᆡ": 1038,
      "ᆢ": 1039,
      "ᆣ": 1040,
      "ᆤ": 1041,
      "ᆥ": 1042,
      "ᆦ": 1043,
      "ᆧ": 1044,
      "ᆨ": 1045,
      "ᆩ": 1046,
      "ᆪ": 1047,
      "ᆫ": 1048,
      "ᆬ": 1049,
      "ᆭ": 1050,
      "ᆮ": 1051,
      "ᆯ": 1052,
      "ᆰ": 1053,
      "ᆱ": 1054,
      "ᆲ": 1055,
      "ᆳ": 1056,
      "ᆴ": 1057,
      "ᆵ": 1058,
      "ᆶ": 1059,
      "ᆷ": 1060,
      "ᆸ": 1061,
      "ᆹ": 1062,
      "ᆺ": 1063,
      "ᆻ": 1064,
      "ᆼ": 1065,
      "ᆽ": 1066,
      "ᆾ": 1067,
      "ᆿ": 1068,
      "ᇀ": 1069,
      "ᇁ": 1070,
      "ᇂ": 1071,
      "ᇃ": 1072,
      "ᇄ": 1073,
      "ᇅ": 1074,
      "ᇆ": 1075,
      "ᇇ": 1076,
      "ᇈ": 1077,
      "ᇉ": 1078,
      "ᇊ": 1079,
      "ᇋ": 1080,
      "ᇌ": 1081,
      "ᇍ": 1082,
      "ᇎ": 1083,
      "ᇏ": 1084,
      "ᇐ": 1085,
      "ᇑ": 1086,
      "ᇒ": 1087,
      "ᇓ": 1088,
      "ᇔ": 1089,
      "ᇕ": 1090,
      "ᇖ": 1091,
      "ᇗ": 1092,
      "ᇘ": 1093,
      "ᇙ": 1094,
      "ᇚ": 1095,
      "ᇛ": 1096,
      "ᇜ": 1097,
      "ᇝ": 1098,
      "ᇞ": 1099,
      "ᇟ": 1100,
      "ᇠ": 1101,
      "ᇡ": 1102,
      "ᇢ": 1103,
      "ᇣ": 1104,
      "ᇤ": 1105,
      "ᇥ": 1106,
      "ᇦ": 1107,
      "ᇧ": 1108,
      "ᇨ": 1109,
      "ᇩ": 1110,
      "ᇪ": 1111,
      "ᇫ": 1112,
      "ᇬ": 1113,
      "ᇭ": 1114,
      "ᇮ": 1115,
      "ᇯ": 1116,
      "ᇰ": 1117,
      "ᇱ": 1118,
      "ᇲ": 1119,
      "ᇳ": 1120,
      "ᇴ": 1121,
      "ᇵ": 1122,
      "ᇶ": 1123,
      "ᇷ": 1124,
      "ᇸ": 1125,
      "ᇹ": 1126,
      "ᇺ": 1127,
      "ᇻ": 1128,
      "ᇼ": 1129,
      "ᇽ": 1130,
      "ᇾ": 1131,
      "ᇿ": 1132,
      "ለ": 1133,
      "ሊ": 1134,
      "ል": 1135,
      "ሕ": 1136,
      "መ": 1137,
      "ማ": 1138,
      "ም": 1139,
      "ሠ": 1140,
      "ሥ": 1141,
      "ሪ": 1142,
      "ር": 1143,
      "ስ": 1144,
      "ቀ": 1145,
      "በ": 1146,
      "ባ": 1147,
      "ብ": 1148,
      "ቱ": 1149,
      "ት": 1150,
      "ኃ": 1151,
      "ነ": 1152,
      "ን": 1153,
      "ኛ": 1154,
      "ከ": 1155,
      "ክ": 1156,
      "ያ": 1157,
      "ይ": 1158,
      "ደ": 1159,
      "ዴ": 1160,
      "ድ": 1161,
      "ገ": 1162,
      "ጉ": 1163,
      "ጋ": 1164,
      "ግ": 1165,
      "ፊ": 1166,
      "ፐ": 1167,
      "ᐘ": 1168,
      "ᐢ": 1169,
      "ᐩ": 1170,
      "ᐱ": 1171,
      "ᑭ": 1172,
      "ᑳ": 1173,
      "ᒋ": 1174,
      "ᒾ": 1175,
      "ᓂ": 1176,
      "ᓯ": 1177,
      "ᓰ": 1178,
      "ᚼ": 1179,
      "ᛒ": 1180,
      "ក": 1181,
      "ង": 1182,
      "ជ": 1183,
      "ណ": 1184,
      "ត": 1185,
      "ទ": 1186,
      "ន": 1187,
      "ប": 1188,
      "ព": 1189,
      "ម": 1190,
      "រ": 1191,
      "ល": 1192,
      "ស": 1193,
      "ា": 1194,
      "ឹ": 1195,
      "ូ": 1196,
      "េ": 1197,
      "ំ": 1198,
      "់": 1199,
      "្": 1200,
      "ᠠ": 1201,
      "ᠢ": 1202,
      "ᠣ": 1203,
      "ᠤ": 1204,
      "ᠦ": 1205,
      "ᠨ": 1206,
      "ᠬ": 1207,
      "ᠭ": 1208,
      "ᠯ": 1209,
      "ᠰ": 1210,
      "ᡝ": 1211,
      "ᡤ": 1212,
      "ᡩ": 1213,
      "ᡳ": 1214,
      "ᡵ": 1215,
      "ᵍ": 1216,
      "ᶜ": 1217,
      "​": 1218,
      "‌": 1219,
      "‍": 1220,
      "‎": 1221,
      "‏": 1222,
      "‐": 1223,
      "‑": 1224,
      "‒": 1225,
      "–": 1226,
      "—": 1227,
      "―": 1228,
      "‘": 1229,
      "’": 1230,
      "‚": 1231,
      "“": 1232,
      "”": 1233,
      "„": 1234,
      "‟": 1235,
      "†": 1236,
      "‡": 1237,
      "•": 1238,
      "…": 1239,
      "‰": 1240,
      "′": 1241,
      "″": 1242,
      "‹": 1243,
      "›": 1244,
      "‿": 1245,
      "⁄": 1246,
      "⁠": 1247,
      "⁡": 1248,
      "⁧": 1249,
      "⁩": 1250,
      "⁪": 1251,
      "⁬": 1252,
      "⁹": 1253,
      "₤": 1254,
      "₪": 1255,
      "₫": 1256,
      "€": 1257,
      "₹": 1258,
      "℅": 1259,
      "℉": 1260,
      "ℏ": 1261,
      "ℓ": 1262,
      "ℝ": 1263,
      "™": 1264,
      "℧": 1265,
      "ℵ": 1266,
      "⅓": 1267,
      "⅔": 1268,
      "⅛": 1269,
      "Ⅱ": 1270,
      "←": 1271,
      "↑": 1272,
      "→": 1273,
      "↓": 1274,
      "↔": 1275,
      "↦": 1276,
      "↵": 1277,
      "⇆": 1278,
      "⇋": 1279,
      "⇌": 1280,
      "⇐": 1281,
      "⇧": 1282,
      "∂": 1283,
      "∆": 1284,
      "∇": 1285,
      "∈": 1286,
      "∏": 1287,
      "∑": 1288,
      "−": 1289,
      "∗": 1290,
      "∘": 1291,
      "√": 1292,
      "∞": 1293,
      "∠": 1294,
      "∣": 1295,
      "∪": 1296,
      "∫": 1297,
      "∴": 1298,
      "∼": 1299,
      "≈": 1300,
      "≡": 1301,
      "≤": 1302,
      "≥": 1303,
      "≪": 1304,
      "≫": 1305,
      "≳": 1306,
      "⊙": 1307,
      "⊞": 1308,
      "⊥": 1309,
      "⋂": 1310,
      "⋃": 1311,
      "⋅": 1312,
      "⋯": 1313,
      "⌈": 1314,
      "⌉": 1315,
      "⌊": 1316,
      "⌋": 1317,
      "⌬": 1318,
      "ⓘ": 1319,
      "─": 1320,
      "┐": 1321,
      "┒": 1322,
      "■": 1323,
      "▪": 1324,
      "◄": 1325,
      "○": 1326,
      "●": 1327,
      "◦": 1328,
      "◾": 1329,
      "★": 1330,
      "☆": 1331,
      "☉": 1332,
      "☮": 1333,
      "♌": 1334,
      "♕": 1335,
      "♛": 1336,
      "♠": 1337,
      "♦": 1338,
      "♭": 1339,
      "♮": 1340,
      "♯": 1341,
      "⚔": 1342,
      "⚜": 1343,
      "⛯": 1344,
      "✚": 1345,
      "✝": 1346,
      "✡": 1347,
      "❪": 1348,
      "❫": 1349,
      "➖": 1350,
      "⟨": 1351,
      "⟩": 1352,
      "⟶": 1353,
      "⨀": 1354,
      "⫶": 1355,
      "ⲁ": 1356,
      "ⲉ": 1357,
      "ⲏ": 1358,
      "ⲓ": 1359,
      "ⲗ": 1360,
      "ⲙ": 1361,
      "Ⲛ": 1362,
      "ⲛ": 1363,
      "ⲟ": 1364,
      "ⲡ": 1365,
      "Ⲣ": 1366,
      "ⲣ": 1367,
      "ⲥ": 1368,
      "ⲧ": 1369,
      "ⲩ": 1370,
      "ⲫ": 1371,
      "ⲭ": 1372,
      "ⲱ": 1373,
      "ⴰ": 1374,
      "ⴱ": 1375,
      "ⴳ": 1376,
      "ⴷ": 1377,
      "ⴻ": 1378,
      "ⴼ": 1379,
      "ⴽ": 1380,
      "ⵃ": 1381,
      "ⵄ": 1382,
      "ⵇ": 1383,
      "ⵉ": 1384,
      "ⵍ": 1385,
      "ⵎ": 1386,
      "ⵏ": 1387,
      "ⵓ": 1388,
      "ⵔ": 1389,
      "ⵕ": 1390,
      "ⵖ": 1391,
      "ⵗ": 1392,
      "ⵙ": 1393,
      "ⵛ": 1394,
      "ⵜ": 1395,
      "ⵝ": 1396,
      "ⵢ": 1397,
      "ⵣ": 1398,
      "ⵯ": 1399,
      "⸵": 1400,
      "。": 1401,
      "々": 1402,
      "《": 1403,
      "》": 1404,
      "「": 1405,
      "」": 1406,
      "〖": 1407,
      "〗": 1408,
      "あ": 1409,
      "い": 1410,
      "う": 1411,
      "え": 1412,
      "お": 1413,
      "か": 1414,
      "き": 1415,
      "く": 1416,
      "け": 1417,
      "こ": 1418,
      "さ": 1419,
      "し": 1420,
      "す": 1421,
      "せ": 1422,
      "そ": 1423,
      "た": 1424,
      "ち": 1425,
      "っ": 1426,
      "つ": 1427,
      "て": 1428,
      "と": 1429,
      "な": 1430,
      "に": 1431,
      "ぬ": 1432,
      "の": 1433,
      "は": 1434,
      "ひ": 1435,
      "ふ": 1436,
      "ま": 1437,
      "み": 1438,
      "む": 1439,
      "め": 1440,
      "も": 1441,
      "ゃ": 1442,
      "や": 1443,
      "ゅ": 1444,
      "よ": 1445,
      "ら": 1446,
      "り": 1447,
      "る": 1448,
      "れ": 1449,
      "ろ": 1450,
      "を": 1451,
      "ん": 1452,
      "゙": 1453,
      "゚": 1454,
      "ァ": 1455,
      "ア": 1456,
      "ィ": 1457,
      "イ": 1458,
      "ゥ": 1459,
      "ウ": 1460,
      "エ": 1461,
      "ォ": 1462,
      "オ": 1463,
      "カ": 1464,
      "キ": 1465,
      "ク": 1466,
      "ケ": 1467,
      "コ": 1468,
      "サ": 1469,
      "シ": 1470,
      "ス": 1471,
      "セ": 1472,
      "ソ": 1473,
      "タ": 1474,
      "チ": 1475,
      "ッ": 1476,
      "ツ": 1477,
      "テ": 1478,
      "ト": 1479,
      "ナ": 1480,
      "ニ": 1481,
      "ヌ": 1482,
      "ノ": 1483,
      "ハ": 1484,
      "ヒ": 1485,
      "フ": 1486,
      "ヘ": 1487,
      "ホ": 1488,
      "マ": 1489,
      "ミ": 1490,
      "ム": 1491,
      "メ": 1492,
      "ャ": 1493,
      "ヤ": 1494,
      "ュ": 1495,
      "ユ": 1496,
      "ョ": 1497,
      "ヨ": 1498,
      "ラ": 1499,
      "リ": 1500,
      "ル": 1501,
      "レ": 1502,
      "ロ": 1503,
      "ワ": 1504,
      "ヲ": 1505,
      "ン": 1506,
      "ヶ": 1507,
      "・": 1508,
      "ー": 1509,
      "ㄱ": 1510,
      "ㄲ": 1511,
      "ㄳ": 1512,
      "ㄴ": 1513,
      "ㄵ": 1514,
      "ㄷ": 1515,
      "ㄸ": 1516,
      "ㄹ": 1517,
      "ㄺ": 1518,
      "ㄻ": 1519,
      "ㄼ": 1520,
      "ㄾ": 1521,
      "ㄿ": 1522,
      "ㅁ": 1523,
      "ㅂ": 1524,
      "ㅃ": 1525,
      "ㅄ": 1526,
      "ㅅ": 1527,
      "ㅆ": 1528,
      "ㅇ": 1529,
      "ㅈ": 1530,
      "ㅉ": 1531,
      "ㅊ": 1532,
      "ㅋ": 1533,
      "ㅌ": 1534,
      "ㅍ": 1535,
      "ㅎ": 1536,
      "ㅏ": 1537,
      "ㅑ": 1538,
      "ㅡ": 1539,
      "ㅣ": 1540,
      "ㅺ": 1541,
      "ㅼ": 1542,
      "ㅽ": 1543,
      "ㅾ": 1544,
      "ㆁ": 1545,
      "ㆍ": 1546,
      "㦕": 1547,
      "一": 1548,
      "丁": 1549,
      "七": 1550,
      "万": 1551,
      "三": 1552,
      "上": 1553,
      "下": 1554,
      "不": 1555,
      "与": 1556,
      "世": 1557,
      "东": 1558,
      "中": 1559,
      "丸": 1560,
      "为": 1561,
      "主": 1562,
      "久": 1563,
      "之": 1564,
      "乌": 1565,
      "乐": 1566,
      "九": 1567,
      "也": 1568,
      "书": 1569,
      "争": 1570,
      "事": 1571,
      "二": 1572,
      "五": 1573,
      "井": 1574,
      "亜": 1575,
      "亨": 1576,
      "京": 1577,
      "亮": 1578,
      "人": 1579,
      "仁": 1580,
      "今": 1581,
      "介": 1582,
      "仓": 1583,
      "仙": 1584,
      "仝": 1585,
      "代": 1586,
      "令": 1587,
      "以": 1588,
      "件": 1589,
      "企": 1590,
      "伊": 1591,
      "伎": 1592,
      "伐": 1593,
      "会": 1594,
      "伝": 1595,
      "伯": 1596,
      "位": 1597,
      "佐": 1598,
      "佑": 1599,
      "体": 1600,
      "作": 1601,
      "使": 1602,
      "侍": 1603,
      "供": 1604,
      "依": 1605,
      "侯": 1606,
      "促": 1607,
      "保": 1608,
      "信": 1609,
      "俣": 1610,
      "修": 1611,
      "俳": 1612,
      "倉": 1613,
      "値": 1614,
      "倫": 1615,
      "偉": 1616,
      "健": 1617,
      "偵": 1618,
      "傘": 1619,
      "傳": 1620,
      "像": 1621,
      "僕": 1622,
      "儀": 1623,
      "儒": 1624,
      "償": 1625,
      "優": 1626,
      "元": 1627,
      "兆": 1628,
      "光": 1629,
      "克": 1630,
      "党": 1631,
      "入": 1632,
      "全": 1633,
      "八": 1634,
      "公": 1635,
      "六": 1636,
      "共": 1637,
      "关": 1638,
      "兵": 1639,
      "内": 1640,
      "円": 1641,
      "冬": 1642,
      "冷": 1643,
      "凶": 1644,
      "刀": 1645,
      "分": 1646,
      "切": 1647,
      "列": 1648,
      "刘": 1649,
      "初": 1650,
      "判": 1651,
      "別": 1652,
      "利": 1653,
      "刺": 1654,
      "刻": 1655,
      "前": 1656,
      "剎": 1657,
      "剛": 1658,
      "剣": 1659,
      "劇": 1660,
      "加": 1661,
      "务": 1662,
      "助": 1663,
      "動": 1664,
      "勝": 1665,
      "勿": 1666,
      "北": 1667,
      "區": 1668,
      "十": 1669,
      "千": 1670,
      "午": 1671,
      "华": 1672,
      "卒": 1673,
      "協": 1674,
      "南": 1675,
      "博": 1676,
      "占": 1677,
      "即": 1678,
      "厂": 1679,
      "原": 1680,
      "参": 1681,
      "參": 1682,
      "友": 1683,
      "反": 1684,
      "受": 1685,
      "叟": 1686,
      "口": 1687,
      "古": 1688,
      "句": 1689,
      "可": 1690,
      "史": 1691,
      "号": 1692,
      "司": 1693,
      "合": 1694,
      "吉": 1695,
      "同": 1696,
      "名": 1697,
      "后": 1698,
      "吏": 1699,
      "君": 1700,
      "吸": 1701,
      "吾": 1702,
      "周": 1703,
      "呼": 1704,
      "命": 1705,
      "和": 1706,
      "員": 1707,
      "哥": 1708,
      "唐": 1709,
      "唯": 1710,
      "商": 1711,
      "器": 1712,
      "四": 1713,
      "団": 1714,
      "囲": 1715,
      "国": 1716,
      "國": 1717,
      "圍": 1718,
      "土": 1719,
      "地": 1720,
      "场": 1721,
      "坂": 1722,
      "坐": 1723,
      "坑": 1724,
      "垂": 1725,
      "型": 1726,
      "垣": 1727,
      "城": 1728,
      "執": 1729,
      "基": 1730,
      "堀": 1731,
      "堅": 1732,
      "堤": 1733,
      "場": 1734,
      "塚": 1735,
      "塩": 1736,
      "境": 1737,
      "士": 1738,
      "壯": 1739,
      "夏": 1740,
      "夕": 1741,
      "外": 1742,
      "多": 1743,
      "夜": 1744,
      "夢": 1745,
      "大": 1746,
      "天": 1747,
      "太": 1748,
      "夫": 1749,
      "夷": 1750,
      "奇": 1751,
      "奈": 1752,
      "契": 1753,
      "奥": 1754,
      "女": 1755,
      "如": 1756,
      "妍": 1757,
      "妹": 1758,
      "委": 1759,
      "姚": 1760,
      "子": 1761,
      "孔": 1762,
      "字": 1763,
      "孝": 1764,
      "孤": 1765,
      "学": 1766,
      "孫": 1767,
      "學": 1768,
      "宇": 1769,
      "守": 1770,
      "安": 1771,
      "宋": 1772,
      "完": 1773,
      "宏": 1774,
      "宗": 1775,
      "官": 1776,
      "宙": 1777,
      "客": 1778,
      "室": 1779,
      "家": 1780,
      "容": 1781,
      "富": 1782,
      "寐": 1783,
      "寛": 1784,
      "察": 1785,
      "寸": 1786,
      "寺": 1787,
      "対": 1788,
      "寿": 1789,
      "尊": 1790,
      "小": 1791,
      "少": 1792,
      "尔": 1793,
      "尚": 1794,
      "尺": 1795,
      "尾": 1796,
      "屈": 1797,
      "屋": 1798,
      "展": 1799,
      "屯": 1800,
      "山": 1801,
      "岐": 1802,
      "岡": 1803,
      "峰": 1804,
      "島": 1805,
      "峻": 1806,
      "崇": 1807,
      "崎": 1808,
      "嶽": 1809,
      "川": 1810,
      "州": 1811,
      "左": 1812,
      "巨": 1813,
      "己": 1814,
      "巴": 1815,
      "巾": 1816,
      "市": 1817,
      "希": 1818,
      "帝": 1819,
      "常": 1820,
      "幕": 1821,
      "幗": 1822,
      "平": 1823,
      "年": 1824,
      "幻": 1825,
      "庁": 1826,
      "府": 1827,
      "座": 1828,
      "庭": 1829,
      "康": 1830,
      "建": 1831,
      "弈": 1832,
      "式": 1833,
      "弓": 1834,
      "弗": 1835,
      "弥": 1836,
      "强": 1837,
      "弾": 1838,
      "当": 1839,
      "彦": 1840,
      "影": 1841,
      "律": 1842,
      "後": 1843,
      "徐": 1844,
      "得": 1845,
      "御": 1846,
      "徳": 1847,
      "德": 1848,
      "心": 1849,
      "必": 1850,
      "忍": 1851,
      "志": 1852,
      "応": 1853,
      "忠": 1854,
      "念": 1855,
      "怡": 1856,
      "急": 1857,
      "性": 1858,
      "恋": 1859,
      "恐": 1860,
      "悔": 1861,
      "悟": 1862,
      "悪": 1863,
      "惠": 1864,
      "惣": 1865,
      "想": 1866,
      "愍": 1867,
      "愛": 1868,
      "慈": 1869,
      "慕": 1870,
      "慧": 1871,
      "慮": 1872,
      "慰": 1873,
      "憲": 1874,
      "戊": 1875,
      "成": 1876,
      "戒": 1877,
      "戦": 1878,
      "戯": 1879,
      "戸": 1880,
      "所": 1881,
      "打": 1882,
      "技": 1883,
      "折": 1884,
      "択": 1885,
      "护": 1886,
      "拉": 1887,
      "拝": 1888,
      "持": 1889,
      "捧": 1890,
      "授": 1891,
      "掌": 1892,
      "探": 1893,
      "推": 1894,
      "握": 1895,
      "揭": 1896,
      "揺": 1897,
      "携": 1898,
      "摂": 1899,
      "摩": 1900,
      "撃": 1901,
      "撫": 1902,
      "操": 1903,
      "攻": 1904,
      "放": 1905,
      "政": 1906,
      "教": 1907,
      "散": 1908,
      "敦": 1909,
      "敬": 1910,
      "文": 1911,
      "斌": 1912,
      "斎": 1913,
      "斗": 1914,
      "料": 1915,
      "斩": 1916,
      "斬": 1917,
      "斯": 1918,
      "新": 1919,
      "方": 1920,
      "於": 1921,
      "日": 1922,
      "早": 1923,
      "旬": 1924,
      "时": 1925,
      "明": 1926,
      "易": 1927,
      "星": 1928,
      "映": 1929,
      "春": 1930,
      "昧": 1931,
      "昭": 1932,
      "是": 1933,
      "昴": 1934,
      "時": 1935,
      "晃": 1936,
      "晉": 1937,
      "景": 1938,
      "暮": 1939,
      "暴": 1940,
      "書": 1941,
      "曹": 1942,
      "曽": 1943,
      "最": 1944,
      "月": 1945,
      "有": 1946,
      "服": 1947,
      "望": 1948,
      "朝": 1949,
      "木": 1950,
      "末": 1951,
      "本": 1952,
      "术": 1953,
      "机": 1954,
      "杉": 1955,
      "李": 1956,
      "杏": 1957,
      "村": 1958,
      "条": 1959,
      "来": 1960,
      "東": 1961,
      "松": 1962,
      "板": 1963,
      "林": 1964,
      "枝": 1965,
      "染": 1966,
      "柔": 1967,
      "柳": 1968,
      "査": 1969,
      "栄": 1970,
      "校": 1971,
      "株": 1972,
      "格": 1973,
      "桂": 1974,
      "桃": 1975,
      "桜": 1976,
      "桥": 1977,
      "梟": 1978,
      "梨": 1979,
      "棋": 1980,
      "森": 1981,
      "楽": 1982,
      "構": 1983,
      "標": 1984,
      "橋": 1985,
      "機": 1986,
      "次": 1987,
      "欽": 1988,
      "歌": 1989,
      "止": 1990,
      "正": 1991,
      "武": 1992,
      "歴": 1993,
      "死": 1994,
      "歼": 1995,
      "残": 1996,
      "殷": 1997,
      "母": 1998,
      "毒": 1999,
      "比": 2000,
      "毛": 2001,
      "氏": 2002,
      "民": 2003,
      "气": 2004,
      "気": 2005,
      "氣": 2006,
      "水": 2007,
      "汁": 2008,
      "江": 2009,
      "池": 2010,
      "汤": 2011,
      "沉": 2012,
      "沖": 2013,
      "沙": 2014,
      "沢": 2015,
      "河": 2016,
      "治": 2017,
      "泉": 2018,
      "法": 2019,
      "波": 2020,
      "泰": 2021,
      "泽": 2022,
      "洋": 2023,
      "洛": 2024,
      "津": 2025,
      "洪": 2026,
      "流": 2027,
      "浜": 2028,
      "浦": 2029,
      "浪": 2030,
      "海": 2031,
      "涛": 2032,
      "深": 2033,
      "清": 2034,
      "渚": 2035,
      "渡": 2036,
      "港": 2037,
      "渾": 2038,
      "湖": 2039,
      "湯": 2040,
      "満": 2041,
      "源": 2042,
      "準": 2043,
      "滓": 2044,
      "漠": 2045,
      "漢": 2046,
      "漫": 2047,
      "漱": 2048,
      "潟": 2049,
      "澤": 2050,
      "澳": 2051,
      "濯": 2052,
      "火": 2053,
      "灵": 2054,
      "点": 2055,
      "為": 2056,
      "焚": 2057,
      "煙": 2058,
      "煥": 2059,
      "熊": 2060,
      "熟": 2061,
      "燃": 2062,
      "燕": 2063,
      "父": 2064,
      "爾": 2065,
      "片": 2066,
      "版": 2067,
      "牛": 2068,
      "牟": 2069,
      "牢": 2070,
      "物": 2071,
      "特": 2072,
      "狄": 2073,
      "狗": 2074,
      "独": 2075,
      "狼": 2076,
      "猎": 2077,
      "猪": 2078,
      "猴": 2079,
      "玄": 2080,
      "玉": 2081,
      "王": 2082,
      "理": 2083,
      "瑞": 2084,
      "瓮": 2085,
      "甘": 2086,
      "生": 2087,
      "用": 2088,
      "田": 2089,
      "由": 2090,
      "甲": 2091,
      "男": 2092,
      "町": 2093,
      "画": 2094,
      "界": 2095,
      "留": 2096,
      "番": 2097,
      "疗": 2098,
      "病": 2099,
      "療": 2100,
      "発": 2101,
      "白": 2102,
      "百": 2103,
      "皇": 2104,
      "益": 2105,
      "盤": 2106,
      "目": 2107,
      "直": 2108,
      "省": 2109,
      "真": 2110,
      "眼": 2111,
      "睦": 2112,
      "矢": 2113,
      "知": 2114,
      "石": 2115,
      "研": 2116,
      "破": 2117,
      "碁": 2118,
      "碇": 2119,
      "磯": 2120,
      "示": 2121,
      "社": 2122,
      "祐": 2123,
      "神": 2124,
      "禅": 2125,
      "禍": 2126,
      "福": 2127,
      "禮": 2128,
      "秀": 2129,
      "秋": 2130,
      "科": 2131,
      "秘": 2132,
      "稿": 2133,
      "穂": 2134,
      "穴": 2135,
      "究": 2136,
      "空": 2137,
      "立": 2138,
      "章": 2139,
      "笠": 2140,
      "符": 2141,
      "第": 2142,
      "等": 2143,
      "筑": 2144,
      "简": 2145,
      "管": 2146,
      "節": 2147,
      "篇": 2148,
      "簡": 2149,
      "籐": 2150,
      "米": 2151,
      "粉": 2152,
      "系": 2153,
      "紀": 2154,
      "紅": 2155,
      "納": 2156,
      "素": 2157,
      "紫": 2158,
      "結": 2159,
      "絵": 2160,
      "維": 2161,
      "綾": 2162,
      "緋": 2163,
      "編": 2164,
      "縁": 2165,
      "織": 2166,
      "纓": 2167,
      "红": 2168,
      "线": 2169,
      "维": 2170,
      "置": 2171,
      "署": 2172,
      "羅": 2173,
      "羊": 2174,
      "美": 2175,
      "義": 2176,
      "羽": 2177,
      "翠": 2178,
      "翼": 2179,
      "老": 2180,
      "者": 2181,
      "而": 2182,
      "聖": 2183,
      "聶": 2184,
      "肉": 2185,
      "股": 2186,
      "育": 2187,
      "胡": 2188,
      "脈": 2189,
      "脉": 2190,
      "腰": 2191,
      "膽": 2192,
      "臓": 2193,
      "臨": 2194,
      "自": 2195,
      "臼": 2196,
      "興": 2197,
      "舌": 2198,
      "舞": 2199,
      "舟": 2200,
      "航": 2201,
      "良": 2202,
      "色": 2203,
      "艾": 2204,
      "芥": 2205,
      "芭": 2206,
      "花": 2207,
      "芳": 2208,
      "苏": 2209,
      "苑": 2210,
      "若": 2211,
      "英": 2212,
      "苻": 2213,
      "茉": 2214,
      "茶": 2215,
      "荊": 2216,
      "荒": 2217,
      "莊": 2218,
      "菅": 2219,
      "菊": 2220,
      "菜": 2221,
      "華": 2222,
      "萌": 2223,
      "葅": 2224,
      "葉": 2225,
      "葛": 2226,
      "蒙": 2227,
      "蒡": 2228,
      "蓮": 2229,
      "蔘": 2230,
      "蔡": 2231,
      "蔵": 2232,
      "蕃": 2233,
      "蕉": 2234,
      "薩": 2235,
      "藏": 2236,
      "藤": 2237,
      "虎": 2238,
      "虔": 2239,
      "處": 2240,
      "蛇": 2241,
      "蛮": 2242,
      "蜃": 2243,
      "蝦": 2244,
      "行": 2245,
      "術": 2246,
      "街": 2247,
      "衛": 2248,
      "裁": 2249,
      "裂": 2250,
      "装": 2251,
      "裕": 2252,
      "西": 2253,
      "観": 2254,
      "角": 2255,
      "解": 2256,
      "言": 2257,
      "記": 2258,
      "訶": 2259,
      "試": 2260,
      "詮": 2261,
      "語": 2262,
      "說": 2263,
      "説": 2264,
      "読": 2265,
      "調": 2266,
      "諍": 2267,
      "論": 2268,
      "諺": 2269,
      "謙": 2270,
      "謾": 2271,
      "譚": 2272,
      "警": 2273,
      "诸": 2274,
      "谈": 2275,
      "谷": 2276,
      "豆": 2277,
      "象": 2278,
      "貝": 2279,
      "貞": 2280,
      "貨": 2281,
      "貴": 2282,
      "賀": 2283,
      "贛": 2284,
      "贾": 2285,
      "赏": 2286,
      "赤": 2287,
      "越": 2288,
      "足": 2289,
      "身": 2290,
      "車": 2291,
      "軍": 2292,
      "載": 2293,
      "輔": 2294,
      "輝": 2295,
      "輪": 2296,
      "農": 2297,
      "近": 2298,
      "退": 2299,
      "送": 2300,
      "逆": 2301,
      "透": 2302,
      "進": 2303,
      "逸": 2304,
      "遊": 2305,
      "道": 2306,
      "遠": 2307,
      "適": 2308,
      "選": 2309,
      "邑": 2310,
      "那": 2311,
      "邱": 2312,
      "郎": 2313,
      "郑": 2314,
      "郡": 2315,
      "部": 2316,
      "都": 2317,
      "鄂": 2318,
      "鄭": 2319,
      "酷": 2320,
      "醢": 2321,
      "醸": 2322,
      "里": 2323,
      "重": 2324,
      "野": 2325,
      "金": 2326,
      "鈴": 2327,
      "銀": 2328,
      "銅": 2329,
      "鎌": 2330,
      "鎭": 2331,
      "鏡": 2332,
      "锦": 2333,
      "長": 2334,
      "門": 2335,
      "閉": 2336,
      "開": 2337,
      "間": 2338,
      "関": 2339,
      "閣": 2340,
      "關": 2341,
      "门": 2342,
      "闽": 2343,
      "阪": 2344,
      "防": 2345,
      "阳": 2346,
      "阿": 2347,
      "降": 2348,
      "限": 2349,
      "院": 2350,
      "陳": 2351,
      "陵": 2352,
      "陸": 2353,
      "陽": 2354,
      "隆": 2355,
      "隈": 2356,
      "隊": 2357,
      "隴": 2358,
      "隶": 2359,
      "雄": 2360,
      "雅": 2361,
      "集": 2362,
      "雑": 2363,
      "雞": 2364,
      "雨": 2365,
      "雪": 2366,
      "零": 2367,
      "雷": 2368,
      "電": 2369,
      "霊": 2370,
      "霸": 2371,
      "靈": 2372,
      "青": 2373,
      "面": 2374,
      "韓": 2375,
      "韩": 2376,
      "音": 2377,
      "響": 2378,
      "頡": 2379,
      "頼": 2380,
      "顔": 2381,
      "類": 2382,
      "颉": 2383,
      "颜": 2384,
      "風": 2385,
      "飛": 2386,
      "食": 2387,
      "飯": 2388,
      "養": 2389,
      "餘": 2390,
      "首": 2391,
      "香": 2392,
      "馬": 2393,
      "馴": 2394,
      "駐": 2395,
      "騎": 2396,
      "験": 2397,
      "马": 2398,
      "骨": 2399,
      "高": 2400,
      "魍": 2401,
      "魎": 2402,
      "魏": 2403,
      "鮓": 2404,
      "鮨": 2405,
      "鮭": 2406,
      "鮮": 2407,
      "鯨": 2408,
      "鱈": 2409,
      "鳥": 2410,
      "鷄": 2411,
      "鷹": 2412,
      "鹿": 2413,
      "麺": 2414,
      "黄": 2415,
      "黎": 2416,
      "點": 2417,
      "龍": 2418,
      "龙": 2419,
      "ꜣ": 2420,
      "ꥠ": 2421,
      "ꥡ": 2422,
      "ꥢ": 2423,
      "ꥣ": 2424,
      "ꥤ": 2425,
      "ꥥ": 2426,
      "ꥦ": 2427,
      "ꥧ": 2428,
      "ꥨ": 2429,
      "ꥩ": 2430,
      "ꥪ": 2431,
      "ꥫ": 2432,
      "ꥬ": 2433,
      "ꥭ": 2434,
      "ꥮ": 2435,
      "ꥯ": 2436,
      "ꥰ": 2437,
      "ꥱ": 2438,
      "ꥲ": 2439,
      "ꥳ": 2440,
      "ꥴ": 2441,
      "ꥵ": 2442,
      "ꥶ": 2443,
      "ꥷ": 2444,
      "ꥸ": 2445,
      "ꥹ": 2446,
      "ꥺ": 2447,
      "ꥻ": 2448,
      "ꥼ": 2449,
      "ힰ": 2450,
      "ힱ": 2451,
      "ힲ": 2452,
      "ힳ": 2453,
      "ힴ": 2454,
      "ힵ": 2455,
      "ힶ": 2456,
      "ힷ": 2457,
      "ힸ": 2458,
      "ힹ": 2459,
      "ힺ": 2460,
      "ힻ": 2461,
      "ힼ": 2462,
      "ힽ": 2463,
      "ힾ": 2464,
      "ힿ": 2465,
      "ퟀ": 2466,
      "ퟁ": 2467,
      "ퟂ": 2468,
      "ퟃ": 2469,
      "ퟄ": 2470,
      "ퟅ": 2471,
      "ퟆ": 2472,
      "ퟋ": 2473,
      "ퟌ": 2474,
      "ퟍ": 2475,
      "ퟎ": 2476,
      "ퟏ": 2477,
      "ퟐ": 2478,
      "ퟑ": 2479,
      "ퟒ": 2480,
      "ퟓ": 2481,
      "ퟔ": 2482,
      "ퟕ": 2483,
      "ퟖ": 2484,
      "ퟗ": 2485,
      "ퟘ": 2486,
      "ퟙ": 2487,
      "ퟚ": 2488,
      "ퟛ": 2489,
      "ퟜ": 2490,
      "ퟝ": 2491,
      "ퟞ": 2492,
      "ퟟ": 2493,
      "ퟠ": 2494,
      "ퟡ": 2495,
      "ퟢ": 2496,
      "ퟣ": 2497,
      "ퟤ": 2498,
      "ퟥ": 2499,
      "ퟦ": 2500,
      "ퟧ": 2501,
      "ퟨ": 2502,
      "ퟩ": 2503,
      "ퟪ": 2504,
      "ퟫ": 2505,
      "ퟬ": 2506,
      "ퟭ": 2507,
      "ퟮ": 2508,
      "ퟯ": 2509,
      "ퟰ": 2510,
      "ퟱ": 2511,
      "ퟲ": 2512,
      "ퟳ": 2513,
      "ퟴ": 2514,
      "ퟵ": 2515,
      "ퟶ": 2516,
      "ퟷ": 2517,
      "ퟸ": 2518,
      "ퟹ": 2519,
      "ퟺ": 2520,
      "ퟻ": 2521,
      "﴾": 2522,
      "﴿": 2523,
      "ﷺ": 2524,
      "︎": 2525,
      "﻿": 2526,
      "！": 2527,
      "（": 2528,
      "）": 2529,
      "－": 2530,
      "～": 2531,
      "𐀃": 2532,
      "𐀆": 2533,
      "𐀚": 2534,
      "𐀡": 2535,
      "𐀮": 2536,
      "𐀺": 2537,
      "𐎂": 2538,
      "𐎅": 2539,
      "𐎆": 2540,
      "𐎉": 2541,
      "𐎎": 2542,
      "𐎓": 2543,
      "𐎔": 2544,
      "𐎕": 2545,
      "𐎖": 2546,
      "𐎗": 2547,
      "𐎘": 2548,
      "𐎠": 2549,
      "𐎭": 2550,
      "𐎸": 2551,
      "𐎹": 2552,
      "𐎼": 2553,
      "𐤁": 2554,
      "𐤉": 2555,
      "𐤋": 2556,
      "𐩠": 2557,
      "𐩡": 2558,
      "𐩢": 2559,
      "𐩣": 2560,
      "𐩤": 2561,
      "𐩥": 2562,
      "𐩧": 2563,
      "𐩨": 2564,
      "𐩩": 2565,
      "𐩫": 2566,
      "𐩬": 2567,
      "𐩱": 2568,
      "𐩲": 2569,
      "𐩵": 2570,
      "𐩷": 2571,
      "𐩹": 2572,
      "𐩺": 2573,
      "𐩻": 2574,
      "𐭣": 2575,
      "𐭥": 2576,
      "𐭧": 2577,
      "𐭩": 2578,
      "𐭫": 2579,
      "𐭮": 2580,
      "𑀩": 2581,
      "𑀫": 2582,
      "𑀭": 2583,
      "𑀳": 2584,
      "𑀸": 2585,
      "𑀻": 2586,
      "𑁆": 2587,
      "𒀪": 2588,
      "𒀫": 2589,
      "𒀭": 2590,
      "𒀸": 2591,
      "𒃻": 2592,
      "𒄭": 2593,
      "𒅎": 2594,
      "𒅮": 2595,
      "𒆪": 2596,
      "𒈬": 2597,
      "𒈾": 2598,
      "𒋩": 2599,
      "𒋫": 2600,
      "𒌒": 2601,
      "𓂋": 2602,
      "𓅓": 2603,
      "𓆎": 2604,
      "𓇥": 2605,
      "𓈖": 2606,
      "𓊅": 2607,
      "𓊖": 2608,
      "𓏏": 2609,
      "𓏺": 2610,
      "𝄆": 2611,
      "𝄇": 2612,
      "𝐕": 2613,
      "𝑒": 2614,
      "𝑣": 2615,
      "𝜙": 2616,
      "🇦": 2617,
      "🇳": 2618,
      "🇷": 2619,
      "🇸": 2620,
      "🇹": 2621,
      "📺": 2622,
      "📻": 2623,
      "🕊": 2624,
      "􏰀": 2625,
      "􏰁": 2626,
      "##ا": 2627,
      "##ب": 2628,
      "## ": 2629,
      "##ل": 2630,
      "##ن": 2631,
      "##ف": 2632,
      "##ع": 2633,
      "##ة": 2634,
      "##ٔ": 2635,
      "##ح": 2636,
      "##د": 2637,
      "##و": 2638,
      "##س": 2639,
      "##ر": 2640,
      "##ج": 2641,
      "##ث": 2642,
      "##م": 2643,
      "##ي": 2644,
      "##،": 2645,
      "##ق": 2646,
      "##ك": 2647,
      "##ط": 2648,
      "##ت": 2649,
      "##خ": 2650,
      "##غ": 2651,
      "##ه": 2652,
      "##ز": 2653,
      "##ء": 2654,
      "##ى": 2655,
      "##ش": 2656,
      "##.": 2657,
      "##\r": 2658,
      "##\n": 2659,
      "##1": 2660,
      "##2": 2661,
      "##6": 2662,
      "##7": 2663,
      "##4": 2664,
      "##5": 2665,
      "##ظ": 2666,
      "##0": 2667,
      "##ٕ": 2668,
      "##ٓ": 2669,
      "##ض": 2670,
      "##ص": 2671,
      "##9": 2672,
      "##-": 2673,
      "##3": 2674,
      "##ذ": 2675,
      "##؛": 2676,
      "##(": 2677,
      "##)": 2678,
      "##:": 2679,
      "##«": 2680,
      "##/": 2681,
      "##»": 2682,
      "##–": 2683,
      "##,": 2684,
      "##8": 2685,
      "##]": 2686,
      "##\"": 2687,
      "##M": 2688,
      "##i": 2689,
      "##n": 2690,
      "##t": 2691,
      "##́": 2692,
      "##m": 2693,
      "##u": 2694,
      "##k": 2695,
      "##o": 2696,
      "##a": 2697,
      "##!": 2698,
      "##‏": 2699,
      "##٪": 2700,
      "##L": 2701,
      "##d": 2702,
      "##s": 2703,
      "##r": 2704,
      "##מ": 2705,
      "##א": 2706,
      "##ו": 2707,
      "##ר": 2708,
      "##ע": 2709,
      "##ת": 2710,
      "##פ": 2711,
      "##ט": 2712,
      "##N": 2713,
      "##I": 2714,
      "##B": 2715,
      "##S": 2716,
      "##b": 2717,
      "##U": 2718,
      "##T": 2719,
      "##l": 2720,
      "##e": 2721,
      "##c": 2722,
      "##h": 2723,
      "##w": 2724,
      "##z": 2725,
      "##K": 2726,
      "##f": 2727,
      "##P": 2728,
      "##°": 2729,
      "##H": 2730,
      "##O": 2731,
      "##{": 2732,
      "##\\": 2733,
      "##p": 2734,
      "##y": 2735,
      "##_": 2736,
      "##}": 2737,
      "##V": 2738,
      "##R": 2739,
      "##ϕ": 2740,
      "##∗": 2741,
      "##^": 2742,
      "##*": 2743,
      "##±": 2744,
      "##C": 2745,
      "##A": 2746,
      "##−": 2747,
      "##+": 2748,
      "##≈": 2749,
      "##%": 2750,
      "##′": 2751,
      "##'": 2752,
      "##=": 2753,
      "##>": 2754,
      "##g": 2755,
      "##v": 2756,
      "##q": 2757,
      "##W": 2758,
      "##E": 2759,
      "##G": 2760,
      "##?": 2761,
      "##D": 2762,
      "##F": 2763,
      "##X": 2764,
      "##J": 2765,
      "##٬": 2766,
      "##²": 2767,
      "##ٳ": 2768,
      "##○": 2769,
      "###": 2770,
      "##$": 2771,
      "##•": 2772,
      "##j": 2773,
      "##[": 2774,
      "##ک": 2775,
      "##ی": 2776,
      "##پ": 2777,
      "##گ": 2778,
      "##‌": 2779,
      "##&": 2780,
      "##Q": 2781,
      "##·": 2782,
      "##|": 2783,
      "##‘": 2784,
      "##“": 2785,
      "##”": 2786,
      "##‎": 2787,
      "##ʁ": 2788,
      "##ɔ": 2789,
      "##̃": 2790,
      "##œ": 2791,
      "##Z": 2792,
      "##x": 2793,
      "##𐩢": 2794,
      "##𐩣": 2795,
      "##𐩺": 2796,
      "##𐩧": 2797,
      "##𐩹": 2798,
      "##𐩵": 2799,
      "##𐩬": 2800,
      "##ڤ": 2801,
      "##؟": 2802,
      "##з": 2803,
      "##а": 2804,
      "##м": 2805,
      "##о": 2806,
      "##к": 2807,
      "##с": 2808,
      "##в": 2809,
      "##р": 2810,
      "##е": 2811,
      "##н": 2812,
      "##ы": 2813,
      "##и": 2814,
      "##̆": 2815,
      "##у": 2816,
      "##л": 2817,
      "##т": 2818,
      "##я": 2819,
      "##д": 2820,
      "##̌": 2821,
      "##Y": 2822,
      "##α": 2823,
      "##ι": 2824,
      "##μ": 2825,
      "##ε": 2826,
      "##ρ": 2827,
      "##υ": 2828,
      "##θ": 2829,
      "##ο": 2830,
      "##ς": 2831,
      "##̂": 2832,
      "##چ": 2833,
      "##茶": 2834,
      "##⁡": 2835,
      "##𒀭": 2836,
      "##𒅎": 2837,
      "##×": 2838,
      "##…": 2839,
      "##;": 2840,
      "##⁄": 2841,
      "##̈": 2842,
      "##σ": 2843,
      "##χ": 2844,
      "##λ": 2845,
      "##τ": 2846,
      "##ω": 2847,
      "##ν": 2848,
      "##Ψ": 2849,
      "##η": 2850,
      "##φ": 2851,
      "##̧": 2852,
      "##ლ": 2853,
      "##ე": 2854,
      "##ი": 2855,
      "##ა": 2856,
      "##მ": 2857,
      "##ს": 2858,
      "##ხ": 2859,
      "##﴿": 2860,
      "##۝": 2861,
      "##١": 2862,
      "##٤": 2863,
      "##﴾": 2864,
      "##ʑ": 2865,
      "##ˈ": 2866,
      "##ʲ": 2867,
      "##ɛ": 2868,
      "##ʂ": 2869,
      "##ł": 2870,
      "##ڠ": 2871,
      "##Ν": 2872,
      "##ζ": 2873,
      "##٨": 2874,
      "##٢": 2875,
      "##↦": 2876,
      "##¨": 2877,
      "##̓": 2878,
      "##π": 2879,
      "##κ": 2880,
      "##Д": 2881,
      "##п": 2882,
      "##ч": 2883,
      "##М": 2884,
      "##х": 2885,
      "##Р": 2886,
      "##Ф": 2887,
      "##ц": 2888,
      "##Ж": 2889,
      "##γ": 2890,
      "##ﷺ": 2891,
      "##∇": 2892,
      "##‍": 2893,
      "##ɾ": 2894,
      "##ٞ": 2895,
      "##ٱ": 2896,
      "##—": 2897,
      "##寿": 2898,
      "##命": 2899,
      "##星": 2900,
      "##死": 2901,
      "##兆": 2902,
      "##雷": 2903,
      "##神": 2904,
      "##電": 2905,
      "##½": 2906,
      "##外": 2907,
      "##来": 2908,
      "##語": 2909,
      "##♭": 2910,
      "##Г": 2911,
      "##€": 2912,
      "##’": 2913,
      "##đ": 2914,
      "##夢": 2915,
      "##と": 2916,
      "##知": 2917,
      "##り": 2918,
      "##せ": 2919,
      "##は": 2920,
      "##゙": 2921,
      "##き": 2922,
      "##み": 2923,
      "##の": 2924,
      "##結": 2925,
      "##ひ": 2926,
      "##め": 2927,
      "##こ": 2928,
      "##世": 2929,
      "##界": 2930,
      "##ん": 2931,
      "##ふ": 2932,
      "##浜": 2933,
      "##口": 2934,
      "##史": 2935,
      "##郎": 2936,
      "##日": 2937,
      "##野": 2938,
      "##由": 2939,
      "##利": 2940,
      "##加": 2941,
      "##宇": 2942,
      "##佐": 2943,
      "##美": 2944,
      "##貴": 2945,
      "##京": 2946,
      "##都": 2947,
      "##府": 2948,
      "##ð": 2949,
      "##Μ": 2950,
      "##Ο": 2951,
      "##Σ": 2952,
      "##Ε": 2953,
      "##∑": 2954,
      "##沉": 2955,
      "##香": 2956,
      "##木": 2957,
      "##<": 2958,
      "##ʌ": 2959,
      "##ʒ": 2960,
      "##ə": 2961,
      "##ɨ": 2962,
      "##ɡ": 2963,
      "##ɑ": 2964,
      "##ː": 2965,
      "##ח": 2966,
      "##ן": 2967,
      "##傘": 2968,
      "##æ": 2969,
      "##ښ": 2970,
      "##क": 2971,
      "##ु": 2972,
      "##र": 2973,
      "##्": 2974,
      "##म": 2975,
      "##ा": 2976,
      "##ल": 2977,
      "##ी": 2978,
      "##٣": 2979,
      "##◾": 2980,
      "##̀": 2981,
      "##ڭ": 2982,
      "##ᄒ": 2983,
      "##ᅮ": 2984,
      "##ᆫ": 2985,
      "##ᄆ": 2986,
      "##ᅵ": 2987,
      "##ᄌ": 2988,
      "##ᅥ": 2989,
      "##ᆼ": 2990,
      "##ᄋ": 2991,
      "##ᅳ": 2992,
      "##ᆷ": 2993,
      "##ᅡ": 2994,
      "##ᄀ": 2995,
      "##ᆯ": 2996,
      "##ᄉ": 2997,
      "##真": 2998,
      "##書": 2999,
      "##ᄏ": 3000,
      "##ᅢ": 3001,
      "##ᆻ": 3002,
      "##正": 3003,
      "##音": 3004,
      "##ᆨ": 3005,
      "##國": 3006,
      "##文": 3007,
      "##諺": 3008,
      "##ㆍ": 3009,
      "##ㅺ": 3010,
      "##ㅼ": 3011,
      "##ㅽ": 3012,
      "##ㅆ": 3013,
      "##ㅾ": 3014,
      "##ㄱ": 3015,
      "##ㄴ": 3016,
      "##ㄹ": 3017,
      "##ㅁ": 3018,
      "##ㅂ": 3019,
      "##ㅅ": 3020,
      "##ㅇ": 3021,
      "##ㄺ": 3022,
      "##ㄻ": 3023,
      "##ㄼ": 3024,
      "##ㄲ": 3025,
      "##ㄸ": 3026,
      "##ㅃ": 3027,
      "##ㅉ": 3028,
      "##ㄷ": 3029,
      "##ㅈ": 3030,
      "##ㅌ": 3031,
      "##ㅊ": 3032,
      "##ㅍ": 3033,
      "##ㄳ": 3034,
      "##ㄵ": 3035,
      "##ㄾ": 3036,
      "##ㄿ": 3037,
      "##ㅄ": 3038,
      "##ᄂ": 3039,
      "##ᄃ": 3040,
      "##ㆁ": 3041,
      "##ㅏ": 3042,
      "##ᆰ": 3043,
      "##ᄁ": 3044,
      "##ᅚ": 3045,
      "##ᄓ": 3046,
      "##ᄔ": 3047,
      "##ᄕ": 3048,
      "##ᄖ": 3049,
      "##ᅛ": 3050,
      "##ᅜ": 3051,
      "##ᅝ": 3052,
      "##ᄗ": 3053,
      "##ᄄ": 3054,
      "##ᅞ": 3055,
      "##ꥠ": 3056,
      "##ꥡ": 3057,
      "##ꥢ": 3058,
      "##ꥣ": 3059,
      "##ᄅ": 3060,
      "##ꥤ": 3061,
      "##ꥥ": 3062,
      "##ᄘ": 3063,
      "##ꥦ": 3064,
      "##ꥧ": 3065,
      "##ᄙ": 3066,
      "##ꥨ": 3067,
      "##ꥩ": 3068,
      "##ꥪ": 3069,
      "##ꥫ": 3070,
      "##ꥬ": 3071,
      "##ꥭ": 3072,
      "##ꥮ": 3073,
      "##ᄚ": 3074,
      "##ᄛ": 3075,
      "##ꥯ": 3076,
      "##ꥰ": 3077,
      "##ᄜ": 3078,
      "##ꥱ": 3079,
      "##ᄝ": 3080,
      "##ᄇ": 3081,
      "##ᄞ": 3082,
      "##ᄟ": 3083,
      "##ᄠ": 3084,
      "##ᄈ": 3085,
      "##ᄡ": 3086,
      "##ᄢ": 3087,
      "##ᄣ": 3088,
      "##ᄤ": 3089,
      "##ᄥ": 3090,
      "##ᄦ": 3091,
      "##ꥲ": 3092,
      "##ᄧ": 3093,
      "##ᄨ": 3094,
      "##ꥳ": 3095,
      "##ᄩ": 3096,
      "##ᄪ": 3097,
      "##ꥴ": 3098,
      "##ᄫ": 3099,
      "##ᄬ": 3100,
      "##ᄭ": 3101,
      "##ᄮ": 3102,
      "##ᄯ": 3103,
      "##ᄰ": 3104,
      "##ᄱ": 3105,
      "##ᄲ": 3106,
      "##ᄳ": 3107,
      "##ᄊ": 3108,
      "##ꥵ": 3109,
      "##ᄴ": 3110,
      "##ᄵ": 3111,
      "##ᄶ": 3112,
      "##ᄷ": 3113,
      "##ᄸ": 3114,
      "##ᄹ": 3115,
      "##ᄺ": 3116,
      "##ᄻ": 3117,
      "##ᄼ": 3118,
      "##ᄽ": 3119,
      "##ᄾ": 3120,
      "##ᄿ": 3121,
      "##ᅀ": 3122,
      "##ᅁ": 3123,
      "##ᅂ": 3124,
      "##ꥶ": 3125,
      "##ᅃ": 3126,
      "##ᅄ": 3127,
      "##ᅅ": 3128,
      "##ᅆ": 3129,
      "##ᅇ": 3130,
      "##ᅈ": 3131,
      "##ᅉ": 3132,
      "##ᅊ": 3133,
      "##ᅋ": 3134,
      "##ꥷ": 3135,
      "##ᅌ": 3136,
      "##ᅍ": 3137,
      "##ᄍ": 3138,
      "##ꥸ": 3139,
      "##ᅎ": 3140,
      "##ᅏ": 3141,
      "##ᅐ": 3142,
      "##ᅑ": 3143,
      "##ᄎ": 3144,
      "##ᅒ": 3145,
      "##ᅓ": 3146,
      "##ᅔ": 3147,
      "##ᅕ": 3148,
      "##ᄐ": 3149,
      "##ꥹ": 3150,
      "##ᄑ": 3151,
      "##ᅖ": 3152,
      "##ꥺ": 3153,
      "##ᅗ": 3154,
      "##ꥻ": 3155,
      "##ᅘ": 3156,
      "##ᅙ": 3157,
      "##ꥼ": 3158,
      "##ᅶ": 3159,
      "##ᅷ": 3160,
      "##ᆣ": 3161,
      "##ᅣ": 3162,
      "##ᅸ": 3163,
      "##ᅹ": 3164,
      "##ᆤ": 3165,
      "##ᅤ": 3166,
      "##ᅺ": 3167,
      "##ᅻ": 3168,
      "##ᅼ": 3169,
      "##ᅦ": 3170,
      "##ᅧ": 3171,
      "##ᆥ": 3172,
      "##ᅽ": 3173,
      "##ᅾ": 3174,
      "##ᅨ": 3175,
      "##ᅩ": 3176,
      "##ᅪ": 3177,
      "##ᅫ": 3178,
      "##ᆦ": 3179,
      "##ᆧ": 3180,
      "##ᅿ": 3181,
      "##ᆀ": 3182,
      "##ힰ": 3183,
      "##ᆁ": 3184,
      "##ᆂ": 3185,
      "##ힱ": 3186,
      "##ᆃ": 3187,
      "##ᅬ": 3188,
      "##ᅭ": 3189,
      "##ힲ": 3190,
      "##ힳ": 3191,
      "##ᆄ": 3192,
      "##ᆅ": 3193,
      "##ힴ": 3194,
      "##ᆆ": 3195,
      "##ᆇ": 3196,
      "##ᆈ": 3197,
      "##ᆉ": 3198,
      "##ᆊ": 3199,
      "##ᅯ": 3200,
      "##ᆋ": 3201,
      "##ᅰ": 3202,
      "##ힵ": 3203,
      "##ᆌ": 3204,
      "##ᆍ": 3205,
      "##ᅱ": 3206,
      "##ힶ": 3207,
      "##ᅲ": 3208,
      "##ᆎ": 3209,
      "##ힷ": 3210,
      "##ᆏ": 3211,
      "##ᆐ": 3212,
      "##ᆑ": 3213,
      "##ᆒ": 3214,
      "##ힸ": 3215,
      "##ᆓ": 3216,
      "##ᆔ": 3217,
      "##ힹ": 3218,
      "##ힺ": 3219,
      "##ힻ": 3220,
      "##ힼ": 3221,
      "##ᆕ": 3222,
      "##ᆖ": 3223,
      "##ᅴ": 3224,
      "##ᆗ": 3225,
      "##ᆘ": 3226,
      "##ᆙ": 3227,
      "##ힽ": 3228,
      "##ힾ": 3229,
      "##ힿ": 3230,
      "##ퟀ": 3231,
      "##ᆚ": 3232,
      "##ퟁ": 3233,
      "##ퟂ": 3234,
      "##ᆛ": 3235,
      "##ퟃ": 3236,
      "##ᆜ": 3237,
      "##ퟄ": 3238,
      "##ᆝ": 3239,
      "##ᆞ": 3240,
      "##ퟅ": 3241,
      "##ᆟ": 3242,
      "##ퟆ": 3243,
      "##ᆠ": 3244,
      "##ᆡ": 3245,
      "##ᆢ": 3246,
      "##ᆩ": 3247,
      "##ᇺ": 3248,
      "##ᇃ": 3249,
      "##ᇻ": 3250,
      "##ᆪ": 3251,
      "##ᇄ": 3252,
      "##ᇼ": 3253,
      "##ᇽ": 3254,
      "##ᇾ": 3255,
      "##ᇅ": 3256,
      "##ᇿ": 3257,
      "##ᇆ": 3258,
      "##ퟋ": 3259,
      "##ᇇ": 3260,
      "##ᇈ": 3261,
      "##ᆬ": 3262,
      "##ퟌ": 3263,
      "##ᇉ": 3264,
      "##ᆭ": 3265,
      "##ᆮ": 3266,
      "##ᇊ": 3267,
      "##ퟍ": 3268,
      "##ퟎ": 3269,
      "##ᇋ": 3270,
      "##ퟏ": 3271,
      "##ퟐ": 3272,
      "##ퟑ": 3273,
      "##ퟒ": 3274,
      "##ퟓ": 3275,
      "##ퟔ": 3276,
      "##ퟕ": 3277,
      "##ᇌ": 3278,
      "##ퟖ": 3279,
      "##ᇍ": 3280,
      "##ᇎ": 3281,
      "##ᇏ": 3282,
      "##ᇐ": 3283,
      "##ퟗ": 3284,
      "##ᆱ": 3285,
      "##ᇑ": 3286,
      "##ᇒ": 3287,
      "##ퟘ": 3288,
      "##ᆲ": 3289,
      "##ퟙ": 3290,
      "##ᇓ": 3291,
      "##ퟚ": 3292,
      "##ᇔ": 3293,
      "##ᇕ": 3294,
      "##ᆳ": 3295,
      "##ᇖ": 3296,
      "##ᇗ": 3297,
      "##ퟛ": 3298,
      "##ᇘ": 3299,
      "##ᆴ": 3300,
      "##ᆵ": 3301,
      "##ᆶ": 3302,
      "##ᇙ": 3303,
      "##ퟜ": 3304,
      "##ퟝ": 3305,
      "##ᇚ": 3306,
      "##ퟞ": 3307,
      "##ퟟ": 3308,
      "##ᇛ": 3309,
      "##ퟠ": 3310,
      "##ᇜ": 3311,
      "##ퟡ": 3312,
      "##ᇝ": 3313,
      "##ᇞ": 3314,
      "##ᇟ": 3315,
      "##ퟢ": 3316,
      "##ᇠ": 3317,
      "##ᇡ": 3318,
      "##ᇢ": 3319,
      "##ᆸ": 3320,
      "##ퟣ": 3321,
      "##ᇣ": 3322,
      "##ퟤ": 3323,
      "##ퟥ": 3324,
      "##ퟦ": 3325,
      "##ᆹ": 3326,
      "##ퟧ": 3327,
      "##ퟨ": 3328,
      "##ퟩ": 3329,
      "##ᇤ": 3330,
      "##ᇥ": 3331,
      "##ᇦ": 3332,
      "##ᆺ": 3333,
      "##ᇧ": 3334,
      "##ᇨ": 3335,
      "##ᇩ": 3336,
      "##ퟪ": 3337,
      "##ᇪ": 3338,
      "##ퟫ": 3339,
      "##ퟬ": 3340,
      "##ퟭ": 3341,
      "##ퟮ": 3342,
      "##ퟯ": 3343,
      "##ퟰ": 3344,
      "##ퟱ": 3345,
      "##ퟲ": 3346,
      "##ᇫ": 3347,
      "##ퟳ": 3348,
      "##ퟴ": 3349,
      "##ᇰ": 3350,
      "##ᇬ": 3351,
      "##ᇭ": 3352,
      "##ퟵ": 3353,
      "##ᇱ": 3354,
      "##ᇲ": 3355,
      "##ᇮ": 3356,
      "##ᇯ": 3357,
      "##ퟶ": 3358,
      "##ᆽ": 3359,
      "##ퟷ": 3360,
      "##ퟸ": 3361,
      "##ퟹ": 3362,
      "##ᆾ": 3363,
      "##ᆿ": 3364,
      "##ᇀ": 3365,
      "##ᇁ": 3366,
      "##ᇳ": 3367,
      "##ퟺ": 3368,
      "##ퟻ": 3369,
      "##ᇴ": 3370,
      "##ᇂ": 3371,
      "##ᇵ": 3372,
      "##ᇶ": 3373,
      "##ᇷ": 3374,
      "##ᇸ": 3375,
      "##ᇹ": 3376,
      "##ㅣ": 3377,
      "##ㅡ": 3378,
      "##ㅋ": 3379,
      "##ㅎ": 3380,
      "##→": 3381,
      "##٦": 3382,
      "##٩": 3383,
      "##٧": 3384,
      "##٠": 3385,
      "##Α": 3386,
      "##愛": 3387,
      "##幻": 3388,
      "##想": 3389,
      "##フ": 3390,
      "##ァ": 3391,
      "##シ": 3392,
      "##ス": 3393,
      "##ム": 3394,
      "##̄": 3395,
      "##一": 3396,
      "##番": 3397,
      "##目": 3398,
      "##適": 3399,
      "##格": 3400,
      "##者": 3401,
      "##第": 3402,
      "##少": 3403,
      "##女": 3404,
      "##三": 3405,
      "##人": 3406,
      "##子": 3407,
      "##供": 3408,
      "##年": 3409,
      "##碇": 3410,
      "##ン": 3411,
      "##綾": 3412,
      "##波": 3413,
      "##レ": 3414,
      "##イ": 3415,
      "##惣": 3416,
      "##流": 3417,
      "##・": 3418,
      "##ア": 3419,
      "##カ": 3420,
      "##ラ": 3421,
      "##ク": 3422,
      "##ー": 3423,
      "##式": 3424,
      "##鈴": 3425,
      "##原": 3426,
      "##ト": 3427,
      "##ウ": 3428,
      "##渚": 3429,
      "##ヲ": 3430,
      "##ル": 3431,
      "##希": 3432,
      "##マ": 3433,
      "##リ": 3434,
      "##ケ": 3435,
      "##冬": 3436,
      "##月": 3437,
      "##コ": 3438,
      "##ソ": 3439,
      "##葛": 3440,
      "##城": 3441,
      "##ミ": 3442,
      "##サ": 3443,
      "##赤": 3444,
      "##ツ": 3445,
      "##持": 3446,
      "##ョ": 3447,
      "##𝐕": 3448,
      "##艾": 3449,
      "##弗": 3450,
      "##फ": 3451,
      "##़": 3452,
      "##♯": 3453,
      "##~": 3454,
      "##金": 3455,
      "##新": 3456,
      "##羅": 3457,
      "##С": 3458,
      "##г": 3459,
      "##雞": 3460,
      "##龍": 3461,
      "##В": 3462,
      "##і": 3463,
      "##ь": 3464,
      "##Х": 3465,
      "##ˌ": 3466,
      "##ɦ": 3467,
      "##§": 3468,
      "##江": 3469,
      "##南": 3470,
      "##机": 3471,
      "##器": 3472,
      "##厂": 3473,
      "##⋅": 3474,
      "##Δ": 3475,
      "##δ": 3476,
      "##£": 3477,
      "##٥": 3478,
      "##ܣ": 3479,
      "##ܘ": 3480,
      "##ܪ": 3481,
      "##ܝ": 3482,
      "##ܐ": 3483,
      "##ܦ": 3484,
      "##ܫ": 3485,
      "##ܛ": 3486,
      "##ܬ": 3487,
      "##ܟ": 3488,
      "##ܒ": 3489,
      "##ܢ": 3490,
      "##ܚ": 3491,
      "##ܕ": 3492,
      "##⸵": 3493,
      "##β": 3494,
      "##Λ": 3495,
      "##𐤋": 3496,
      "##𐤁": 3497,
      "##𐤉": 3498,
      "##መ": 3499,
      "##ን": 3500,
      "##ግ": 3501,
      "##ስ": 3502,
      "##ቱ": 3503,
      "##ኃ": 3504,
      "##ይ": 3505,
      "##ለ": 3506,
      "##ማ": 3507,
      "##ር": 3508,
      "##ያ": 3509,
      "##ም": 3510,
      "##̔": 3511,
      "##͂": 3512,
      "##‹": 3513,
      "##›": 3514,
      "##⚔": 3515,
      "##µ": 3516,
      "##ɒ": 3517,
      "##ʃ": 3518,
      "##ㅑ": 3519,
      "##ø": 3520,
      "##Π": 3521,
      "##ψ": 3522,
      "##″": 3523,
      "##ᠬ": 3524,
      "##ᠦ": 3525,
      "##ᠯ": 3526,
      "##ᠢ": 3527,
      "##ᠭ": 3528,
      "##ᠨ": 3529,
      "##ᠤ": 3530,
      "##ᠰ": 3531,
      "##ھ": 3532,
      "##÷": 3533,
      "##紀": 3534,
      "##エ": 3535,
      "##オ": 3536,
      "##И": 3537,
      "##ј": 3538,
      "##Н": 3539,
      "##ß": 3540,
      "##⟨": 3541,
      "##ɶ": 3542,
      "##⟩": 3543,
      "##К": 3544,
      "##ж": 3545,
      "##А": 3546,
      "##ɪ": 3547,
      "##̯": 3548,
      "##ʀ": 3549,
      "##ژ": 3550,
      "##Φ": 3551,
      "##∈": 3552,
      "##̨": 3553,
      "##羊": 3554,
      "##蛇": 3555,
      "##馬": 3556,
      "##猴": 3557,
      "##鷄": 3558,
      "##狗": 3559,
      "##猪": 3560,
      "##`": 3561,
      "##©": 3562,
      "##¥": 3563,
      "##̇": 3564,
      "##ı": 3565,
      "##ល": 3566,
      "##ⓘ": 3567,
      "##ہ": 3568,
      "##ⵎ": 3569,
      "##ⵓ": 3570,
      "##ⵃ": 3571,
      "##ⴰ": 3572,
      "##ⴷ": 3573,
      "##ⵉ": 3574,
      "##吉": 3575,
      "##岡": 3576,
      "##茉": 3577,
      "##祐": 3578,
      "##朝": 3579,
      "##鮮": 3580,
      "##民": 3581,
      "##主": 3582,
      "##義": 3583,
      "##共": 3584,
      "##和": 3585,
      "##⁬": 3586,
      "##ە": 3587,
      "##ⵢ": 3588,
      "##ⵜ": 3589,
      "##ⵣ": 3590,
      "##ⵏ": 3591,
      "##ד": 3592,
      "##ש": 3593,
      "##٫": 3594,
      "##ħ": 3595,
      "##ℏ": 3596,
      "##五": 3597,
      "##雨": 3598,
      "##片": 3599,
      "##山": 3600,
      "##梨": 3601,
      "##絵": 3602,
      "##富": 3603,
      "##嶽": 3604,
      "##十": 3605,
      "##六": 3606,
      "##景": 3607,
      "##छ": 3608,
      "##त": 3609,
      "##प": 3610,
      "##≪": 3611,
      "##ϵ": 3612,
      "##ニ": 3613,
      "##ッ": 3614,
      "##ᵍ": 3615,
      "##遊": 3616,
      "##☆": 3617,
      "##戯": 3618,
      "##王": 3619,
      "##徳": 3620,
      "##井": 3621,
      "##青": 3622,
      "##空": 3623,
      "##Հ": 3624,
      "##ա": 3625,
      "##ն": 3626,
      "##ր": 3627,
      "##պ": 3628,
      "##ե": 3629,
      "##տ": 3630,
      "##կ": 3631,
      "##մ": 3632,
      "##զ": 3633,
      "##դ": 3634,
      "##շ": 3635,
      "##≤": 3636,
      "##⋯": 3637,
      "##⌊": 3638,
      "##⌋": 3639,
      "##⌈": 3640,
      "##⌉": 3641,
      "##晉": 3642,
      "##八": 3643,
      "##岐": 3644,
      "##阳": 3645,
      "##诸": 3646,
      "##侯": 3647,
      "##服": 3648,
      "##虔": 3649,
      "##集": 3650,
      "##解": 3651,
      "##白": 3652,
      "##狄": 3653,
      "##۔": 3654,
      "##⅔": 3655,
      "##¾": 3656,
      "##谷": 3657,
      "##博": 3658,
      "##之": 3659,
      "##ज": 3660,
      "##न": 3661,
      "##ू": 3662,
      "##ह": 3663,
      "##श": 3664,
      "##स": 3665,
      "##蒙": 3666,
      "##商": 3667,
      "##邱": 3668,
      "##周": 3669,
      "##吏": 3670,
      "##莊": 3671,
      "##叟": 3672,
      "##←": 3673,
      "##З": 3674,
      "##川": 3675,
      "##家": 3676,
      "##康": 3677,
      "##安": 3678,
      "##土": 3679,
      "##桃": 3680,
      "##時": 3681,
      "##代": 3682,
      "##戸": 3683,
      "##大": 3684,
      "##名": 3685,
      "##武": 3686,
      "##士": 3687,
      "##侍": 3688,
      "##浪": 3689,
      "##阪": 3690,
      "##歌": 3691,
      "##舞": 3692,
      "##伎": 3693,
      "##近": 3694,
      "##松": 3695,
      "##門": 3696,
      "##左": 3697,
      "##衛": 3698,
      "##尾": 3699,
      "##芭": 3700,
      "##蕉": 3701,
      "##俳": 3702,
      "##句": 3703,
      "##𐎂": 3704,
      "##𐎓": 3705,
      "##Θ": 3706,
      "##𐎉": 3707,
      "##𐎖": 3708,
      "##𐎅": 3709,
      "##𐎆": 3710,
      "##𐎔": 3711,
      "##𐎘": 3712,
      "##̊": 3713,
      "##自": 3714,
      "##也": 3715,
      "##仙": 3716,
      "##術": 3717,
      "##Χ": 3718,
      "##„": 3719,
      "##上": 3720,
      "##蔡": 3721,
      "##焚": 3722,
      "##书": 3723,
      "##坑": 3724,
      "##儒": 3725,
      "##腰": 3726,
      "##斩": 3727,
      "##仓": 3728,
      "##颉": 3729,
      "##篇": 3730,
      "##倉": 3731,
      "##頡": 3732,
      "##Κ": 3733,
      "##ィ": 3734,
      "##Τ": 3735,
      "##⇧": 3736,
      "##ठ": 3737,
      "##व": 3738,
      "##ि": 3739,
      "##ड": 3740,
      "##य": 3741,
      "##љ": 3742,
      "##ћ": 3743,
      "##橋": 3744,
      "##奈": 3745,
      "##ʊ": 3746,
      "##Є": 3747,
      "##Е": 3748,
      "##♦": 3749,
      "##ⴳ": 3750,
      "##ⵔ": 3751,
      "##ɣ": 3752,
      "##પ": 3753,
      "##̸": 3754,
      "##³": 3755,
      "##̦": 3756,
      "##直": 3757,
      "##隶": 3758,
      "##北": 3759,
      "##防": 3760,
      "##庁": 3761,
      "##市": 3762,
      "##ヶ": 3763,
      "##陸": 3764,
      "##軍": 3765,
      "##官": 3766,
      "##校": 3767,
      "##რ": 3768,
      "##ჭ": 3769,
      "##Ш": 3770,
      "##б": 3771,
      "##י": 3772,
      "##ְ": 3773,
      "##ה": 3774,
      "##ּ": 3775,
      "##ִ": 3776,
      "##弈": 3777,
      "##囲": 3778,
      "##碁": 3779,
      "##圍": 3780,
      "##棋": 3781,
      "##聶": 3782,
      "##平": 3783,
      "##വ": 3784,
      "##ി": 3785,
      "##ഷ": 3786,
      "##ു": 3787,
      "##心": 3788,
      "##þ": 3789,
      "##妹": 3790,
      "##巾": 3791,
      "##幗": 3792,
      "##英": 3793,
      "##雄": 3794,
      "##东": 3795,
      "##満": 3796,
      "##州": 3797,
      "##關": 3798,
      "##東": 3799,
      "##关": 3800,
      "##省": 3801,
      "##ᡩ": 3802,
      "##ᡝ": 3803,
      "##ᡵ": 3804,
      "##ᡤ": 3805,
      "##ᡳ": 3806,
      "##ᠠ": 3807,
      "##ᠣ": 3808,
      "##中": 3809,
      "##剎": 3810,
      "##呼": 3811,
      "##揭": 3812,
      "##得": 3813,
      "##乌": 3814,
      "##护": 3815,
      "##Б": 3816,
      "##э": 3817,
      "##☉": 3818,
      "##歼": 3819,
      "##ڨ": 3820,
      "##": 3821,
      "##ے": 3822,
      "##У": 3823,
      "##魍": 3824,
      "##魎": 3825,
      "##揺": 3826,
      "##か": 3827,
      "##ߒ": 3828,
      "##ߞ": 3829,
      "##ߏ": 3830,
      "##☮": 3831,
      "##風": 3832,
      "##特": 3833,
      "##攻": 3834,
      "##隊": 3835,
      "##ш": 3836,
      "##Т": 3837,
      "##Ω": 3838,
      "##@": 3839,
      "##‡": 3840,
      "##ⴽ": 3841,
      "##沢": 3842,
      "##⇐": 3843,
      "##前": 3844,
      "##田": 3845,
      "##剛": 3846,
      "##鮭": 3847,
      "##汁": 3848,
      "##Β": 3849,
      "##ק": 3850,
      "##ַ": 3851,
      "##ב": 3852,
      "##ָ": 3853,
      "##ל": 3854,
      "##ס": 3855,
      "##ף": 3856,
      "##ם": 3857,
      "##ٹ": 3858,
      "##潟": 3859,
      "##水": 3860,
      "##俣": 3861,
      "##病": 3862,
      "##二": 3863,
      "##阿": 3864,
      "##賀": 3865,
      "##有": 3866,
      "##機": 3867,
      "##銀": 3868,
      "##毒": 3869,
      "##भ": 3870,
      "##ो": 3871,
      "##ʱ": 3872,
      "##⇋": 3873,
      "##入": 3874,
      "##学": 3875,
      "##試": 3876,
      "##験": 3877,
      "##セ": 3878,
      "##タ": 3879,
      "##次": 3880,
      "##נ": 3881,
      "##״": 3882,
      "##ך": 3883,
      "##𐀡": 3884,
      "##𐀮": 3885,
      "##𐀆": 3886,
      "##𐀃": 3887,
      "##𐀺": 3888,
      "##𐀚": 3889,
      "##ϝ": 3890,
      "##郑": 3891,
      "##秀": 3892,
      "##妍": 3893,
      "##ג": 3894,
      "##ֹ": 3895,
      "##春": 3896,
      "##秋": 3897,
      "##时": 3898,
      "##伯": 3899,
      "##霸": 3900,
      "##‰": 3901,
      "##؉": 3902,
      "##ᶜ": 3903,
      "##ێ": 3904,
      "##鄂": 3905,
      "##爾": 3906,
      "##多": 3907,
      "##斯": 3908,
      "##沙": 3909,
      "##漠": 3910,
      "##村": 3911,
      "##輔": 3912,
      "##স": 3913,
      "##ে": 3914,
      "##া": 3915,
      "##ন": 3916,
      "##র": 3917,
      "##ক": 3918,
      "##ল": 3919,
      "##্": 3920,
      "##■": 3921,
      "##ˀ": 3922,
      "##℧": 3923,
      "##贛": 3924,
      "##維": 3925,
      "##基": 3926,
      "##百": 3927,
      "##科": 3928,
      "##慕": 3929,
      "##漱": 3930,
      "##柳": 3931,
      "##花": 3932,
      "##河": 3933,
      "##依": 3934,
      "##慮": 3935,
      "##玄": 3936,
      "##勿": 3937,
      "##卒": 3938,
      "##本": 3939,
      "##夫": 3940,
      "##餘": 3941,
      "##ກ": 3942,
      "##າ": 3943,
      "##ນ": 3944,
      "##ບ": 3945,
      "##ິ": 3946,
      "##ລ": 3947,
      "##ວ": 3948,
      "##₹": 3949,
      "##ⴼ": 3950,
      "##ⵖ": 3951,
      "##参": 3952,
      "##西": 3953,
      "##洋": 3954,
      "##太": 3955,
      "##參": 3956,
      "##刺": 3957,
      "##紅": 3958,
      "##蔘": 3959,
      "##红": 3960,
      "##ⲫ": 3961,
      "##ⲉ": 3962,
      "##ⲗ": 3963,
      "##ⲧ": 3964,
      "##ⲣ": 3965,
      "##ⲏ": 3966,
      "##ශ": 3967,
      "##්": 3968,
      "##ර": 3969,
      "##ී": 3970,
      "##ල": 3971,
      "##ං": 3972,
      "##ක": 3973,
      "##ා": 3974,
      "##ව": 3975,
      "##இ": 3976,
      "##ல": 3977,
      "##ங": 3978,
      "##்": 3979,
      "##க": 3980,
      "##ை": 3981,
      "##†": 3982,
      "##天": 3983,
      "##门": 3984,
      "##桥": 3985,
      "##": 3986,
      "##ノ": 3987,
      "##ハ": 3988,
      "##≡": 3989,
      "##º": 3990,
      "##ξ": 3991,
      "##ɐ": 3992,
      "##慰": 3993,
      "##禮": 3994,
      "##漢": 3995,
      "##陽": 3996,
      "##徐": 3997,
      "##伐": 3998,
      "##首": 3999,
      "##尔": 4000,
      "##በ": 4001,
      "##ጋ": 4002,
      "##ድ": 4003,
      "##高": 4004,
      "##行": 4005,
      "##健": 4006,
      "##島": 4007,
      "##九": 4008,
      "##ۥ": 4009,
      "##ۡ": 4010,
      "##ࣲ": 4011,
      "##ࣰ": 4012,
      "##留": 4013,
      "##ʿ": 4014,
      "##ʾ": 4015,
      "##那": 4016,
      "##古": 4017,
      "##۳": 4018,
      "##๓": 4019,
      "##३": 4020,
      "##൩": 4021,
      "##௩": 4022,
      "##Ʒ": 4023,
      "##●": 4024,
      "##¼": 4025,
      "##ݒ": 4026,
      "##﻿": 4027,
      "##Թ": 4028,
      "##ո": 4029,
      "##ի": 4030,
      "##ז": 4031,
      "##甘": 4032,
      "##德": 4033,
      "##胡": 4034,
      "##锦": 4035,
      "##涛": 4036,
      "##舟": 4037,
      "##号": 4038,
      "##゚": 4039,
      "##お": 4040,
      "##っ": 4041,
      "##い": 4042,
      "##ڪ": 4043,
      "##洪": 4044,
      "##陵": 4045,
      "##裕": 4046,
      "##丁": 4047,
      "##字": 4048,
      "##閣": 4049,
      "##贾": 4050,
      "##湖": 4051,
      "##契": 4052,
      "##刻": 4053,
      "##符": 4054,
      "##★": 4055,
      "##⅓": 4056,
      "##克": 4057,
      "##ら": 4058,
      "##メ": 4059,
      "##テ": 4060,
      "##し": 4061,
      "##つ": 4062,
      "##津": 4063,
      "##修": 4064,
      "##治": 4065,
      "##־": 4066,
      "##四": 4067,
      "##国": 4068,
      "##海": 4069,
      "##道": 4070,
      "##П": 4071,
      "##ʰ": 4072,
      "##陳": 4073,
      "##荊": 4074,
      "##華": 4075,
      "##容": 4076,
      "##摩": 4077,
      "##訶": 4078,
      "##止": 4079,
      "##観": 4080,
      "##法": 4081,
      "##坐": 4082,
      "##歴": 4083,
      "##縁": 4084,
      "##対": 4085,
      "##境": 4086,
      "##昧": 4087,
      "##念": 4088,
      "##千": 4089,
      "##堤": 4090,
      "##明": 4091,
      "##צ": 4092,
      "##ℓ": 4093,
      "##事": 4094,
      "##件": 4095,
      "##宋": 4096,
      "##慧": 4097,
      "##教": 4098,
      "##𐭧": 4099,
      "##𐭥": 4100,
      "##𐭮": 4101,
      "##𐭫": 4102,
      "##𐭣": 4103,
      "##𐭩": 4104,
      "##ট": 4105,
      "##৳": 4106,
      "##菅": 4107,
      "##悟": 4108,
      "##小": 4109,
      "##型": 4110,
      "##貨": 4111,
      "##物": 4112,
      "##車": 4113,
      "##‑": 4114,
      "##‒": 4115,
      "##幕": 4116,
      "##料": 4117,
      "##理": 4118,
      "##食": 4119,
      "##旬": 4120,
      "##す": 4121,
      "##御": 4122,
      "##飯": 4123,
      "##菜": 4124,
      "##麺": 4125,
      "##類": 4126,
      "##Γ": 4127,
      "##̺": 4128,
      "##‿": 4129,
      "##´": 4130,
      "##ʕ": 4131,
      "##漫": 4132,
      "##画": 4133,
      "##ま": 4134,
      "##性": 4135,
      "##成": 4136,
      "##火": 4137,
      "##鳥": 4138,
      "##כ": 4139,
      "##悪": 4140,
      "##即": 4141,
      "##斬": 4142,
      "##藤": 4143,
      "##ခ": 4144,
      "##ျ": 4145,
      "##ဉ": 4146,
      "##်": 4147,
      "##ပ": 4148,
      "##ေ": 4149,
      "##ါ": 4150,
      "##င": 4151,
      "##洛": 4152,
      "##ก": 4153,
      "##ร": 4154,
      "##ะ": 4155,
      "##เ": 4156,
      "##จ": 4157,
      "##ี": 4158,
      "##๊": 4159,
      "##ย": 4160,
      "##บ": 4161,
      "##ສ": 4162,
      "##ົ": 4163,
      "##້": 4164,
      "##ມ": 4165,
      "##ພ": 4166,
      "##ໍ": 4167,
      "##ດ": 4168,
      "##ີ": 4169,
      "##ស": 4170,
      "##្": 4171,
      "##ឹ": 4172,
      "##ក": 4173,
      "##ជ": 4174,
      "##ូ": 4175,
      "##រ": 4176,
      "##ណ": 4177,
      "##ត": 4178,
      "##ា": 4179,
      "##ន": 4180,
      "##់": 4181,
      "##ទ": 4182,
      "##េ": 4183,
      "##ម": 4184,
      "##ប": 4185,
      "##ំ": 4186,
      "##ង": 4187,
      "##ព": 4188,
      "##̣": 4189,
      "##চ": 4190,
      "##ু": 4191,
      "##ই": 4192,
      "##অ": 4193,
      "##ম": 4194,
      "##ধ": 4195,
      "##ঙ": 4196,
      "##ৰ": 4197,
      "##হ": 4198,
      "##ফ": 4199,
      "##କ": 4200,
      "##ା": 4201,
      "##ଊ": 4202,
      "##ଂ": 4203,
      "##ର": 4204,
      "##ି": 4205,
      "##ଆ": 4206,
      "##ଶ": 4207,
      "##ଗ": 4208,
      "##ଖ": 4209,
      "##ଟ": 4210,
      "##ପ": 4211,
      "##ଳ": 4212,
      "##ଙ": 4213,
      "##୍": 4214,
      "##ଭ": 4215,
      "##େ": 4216,
      "##ଣ": 4217,
      "##ଡ": 4218,
      "##ಪ": 4219,
      "##ು": 4220,
      "##ಂ": 4221,
      "##ಡ": 4222,
      "##ಿ": 4223,
      "##ಲ": 4224,
      "##್": 4225,
      "##ಯ": 4226,
      "##ಸ": 4227,
      "##ೆ": 4228,
      "##ೂ": 4229,
      "##മ": 4230,
      "##ത": 4231,
      "##്": 4232,
      "##പ": 4233,
      "##ള": 4234,
      "##െ": 4235,
      "##ണ": 4236,
      "##ട": 4237,
      "##अ": 4238,
      "##ं": 4239,
      "##ब": 4240,
      "##ப": 4241,
      "##ு": 4242,
      "##ள": 4243,
      "##ி": 4244,
      "##ச": 4245,
      "##ீ": 4246,
      "##ர": 4247,
      "##గ": 4248,
      "##ో": 4249,
      "##ం": 4250,
      "##ూ": 4251,
      "##ర": 4252,
      "##ከ": 4253,
      "##ዴ": 4254,
      "##ܩ": 4255,
      "##ܠ": 4256,
      "##ܥ": 4257,
      "##ܡ": 4258,
      "##®": 4259,
      "##杏": 4260,
      "##七": 4261,
      "##夕": 4262,
      "##̛": 4263,
      "##̉": 4264,
      "##ڑ": 4265,
      "##ँ": 4266,
      "##ऀ": 4267,
      "##ओ": 4268,
      "##Æ": 4269,
      "##◦": 4270,
      "##ۆ": 4271,
      "##ۈ": 4272,
      "##📺": 4273,
      "##📻": 4274,
      "##。": 4275,
      "##­": 4276,
      "##ᑭ": 4277,
      "##ᓯ": 4278,
      "##ᐢ": 4279,
      "##ᑳ": 4280,
      "##ᒋ": 4281,
      "##ᐘ": 4282,
      "##ᓂ": 4283,
      "##ᓰ": 4284,
      "##ᐱ": 4285,
      "##ᐩ": 4286,
      "##ɜ": 4287,
      "##牛": 4288,
      "##蒡": 4289,
      "##ホ": 4290,
      "##ۚ": 4291,
      "##": 4292,
      "##豆": 4293,
      "##吾": 4294,
      "##え": 4295,
      "##深": 4296,
      "##త": 4297,
      "##ె": 4298,
      "##ల": 4299,
      "##ు": 4300,
      "##వ": 4301,
      "##ి": 4302,
      "##క": 4303,
      "##ీ": 4304,
      "##ప": 4305,
      "##డ": 4306,
      "##య": 4307,
      "##ా": 4308,
      "##《": 4309,
      "##》": 4310,
      "##ׁ": 4311,
      "##➖": 4312,
      "##林": 4313,
      "##ব": 4314,
      "##ং": 4315,
      "##ি": 4316,
      "##প": 4317,
      "##ŋ": 4318,
      "##ไ": 4319,
      "##ท": 4320,
      "##แ": 4321,
      "##อ": 4322,
      "##์": 4323,
      "##ช": 4324,
      "##ٲ": 4325,
      "##弥": 4326,
      "##生": 4327,
      "##蛮": 4328,
      "##調": 4329,
      "##所": 4330,
      "##學": 4331,
      "##द": 4332,
      "##ध": 4333,
      "##थ": 4334,
      "##ग": 4335,
      "##ौ": 4336,
      "##Đ": 4337,
      "##ۃ": 4338,
      "##∞": 4339,
      "##ⲭ": 4340,
      "##ⲙ": 4341,
      "##ⲓ": 4342,
      "##̞": 4343,
      "##ݘ": 4344,
      "##暴": 4345,
      "##動": 4346,
      "##∫": 4347,
      "##ய": 4348,
      "##ா": 4349,
      "##ம": 4350,
      "##ன": 4351,
      "##柔": 4352,
      "##剣": 4353,
      "##部": 4354,
      "##執": 4355,
      "##韓": 4356,
      "##標": 4357,
      "##準": 4358,
      "##馴": 4359,
      "##れ": 4360,
      "##司": 4361,
      "##熟": 4362,
      "##な": 4363,
      "##早": 4364,
      "##握": 4365,
      "##屋": 4366,
      "##与": 4367,
      "##兵": 4368,
      "##養": 4369,
      "##老": 4370,
      "##律": 4371,
      "##令": 4372,
      "##雑": 4373,
      "##鮨": 4374,
      "##斗": 4375,
      "##鮓": 4376,
      "##興": 4377,
      "##け": 4378,
      "##ぬ": 4379,
      "##守": 4380,
      "##貞": 4381,
      "##謾": 4382,
      "##稿": 4383,
      "##醢": 4384,
      "##滓": 4385,
      "##以": 4386,
      "##塩": 4387,
      "##米": 4388,
      "##醸": 4389,
      "##葅": 4390,
      "##而": 4391,
      "##系": 4392,
      "##う": 4393,
      "##ナ": 4394,
      "##地": 4395,
      "##方": 4396,
      "##♮": 4397,
      "##ۢ": 4398,
      "##ю": 4399,
      "##ۗ": 4400,
      "##ۖ": 4401,
      "##ਹ": 4402,
      "##ਰ": 4403,
      "##ਿ": 4404,
      "##ਗ": 4405,
      "##ੋ": 4406,
      "##ਬ": 4407,
      "##ੰ": 4408,
      "##ਦ": 4409,
      "##ਖ": 4410,
      "##ੁ": 4411,
      "##ਾ": 4412,
      "##ਨ": 4413,
      "##√": 4414,
      "##Қ": 4415,
      "##ғ": 4416,
      "##ܰ": 4417,
      "##ܳ": 4418,
      "##ܗ": 4419,
      "##ֱ": 4420,
      "##ʔ": 4421,
      "##曹": 4422,
      "##操": 4423,
      "##梟": 4424,
      "##魏": 4425,
      "##帝": 4426,
      "##̱": 4427,
      "##ᒾ": 4428,
      "##Ι": 4429,
      "##℉": 4430,
      "##ˁ": 4431,
      "##❪": 4432,
      "##❫": 4433,
      "##‚": 4434,
      "##騎": 4435,
      "##Э": 4436,
      "##ृ": 4437,
      "##ፊ": 4438,
      "##ደ": 4439,
      "##ል": 4440,
      "##♠": 4441,
      "##港": 4442,
      "##別": 4443,
      "##政": 4444,
      "##區": 4445,
      "##葉": 4446,
      "##気": 4447,
      "##街": 4448,
      "##万": 4449,
      "##警": 4450,
      "##察": 4451,
      "##署": 4452,
      "##ɲ": 4453,
      "##ォ": 4454,
      "##े": 4455,
      "##Η": 4456,
      "##里": 4457,
      "##不": 4458,
      "##哥": 4459,
      "##雪": 4460,
      "##˃": 4461,
      "##て": 4462,
      "##¹": 4463,
      "##‟": 4464,
      "##完": 4465,
      "##颜": 4466,
      "##骨": 4467,
      "##打": 4468,
      "##赏": 4469,
      "##猎": 4470,
      "##¤": 4471,
      "##乐": 4472,
      "##映": 4473,
      "##倫": 4474,
      "##管": 4475,
      "##委": 4476,
      "##員": 4477,
      "##会": 4478,
      "##ヘ": 4479,
      "##ⵍ": 4480,
      "##ⴱ": 4481,
      "##Л": 4482,
      "##晃": 4483,
      "##▪": 4484,
      "##渡": 4485,
      "##泰": 4486,
      "##虎": 4487,
      "##チ": 4488,
      "##ャ": 4489,
      "##福": 4490,
      "##謙": 4491,
      "##↔": 4492,
      "##章": 4493,
      "##怡": 4494,
      "##ゥ": 4495,
      "##Ξ": 4496,
      "##芥": 4497,
      "##肉": 4498,
      "##桂": 4499,
      "##飛": 4500,
      "##推": 4501,
      "##皇": 4502,
      "##崇": 4503,
      "##峻": 4504,
      "##ბ": 4505,
      "##გ": 4506,
      "##ტ": 4507,
      "##ძ": 4508,
      "##О": 4509,
      "##ٗ": 4510,
      "##ֵ": 4511,
      "##望": 4512,
      "##恐": 4513,
      "##龙": 4514,
      "##寐": 4515,
      "##蜃": 4516,
      "##尺": 4517,
      "##ॉ": 4518,
      "##ᚼ": 4519,
      "##ᛒ": 4520,
      "##͡": 4521,
      "##ɬ": 4522,
      "##≥": 4523,
      "##˂": 4524,
      "##¶": 4525,
      "##த": 4526,
      "##ழ": 4527,
      "##ஃ": 4528,
      "##ற": 4529,
      "##ȷ": 4530,
      "##奇": 4531,
      "##谈": 4532,
      "##蝦": 4533,
      "##夷": 4534,
      "##摂": 4535,
      "##関": 4536,
      "##清": 4537,
      "##長": 4538,
      "##紫": 4539,
      "##源": 4540,
      "##氏": 4541,
      "##納": 4542,
      "##言": 4543,
      "##後": 4544,
      "##冷": 4545,
      "##泉": 4546,
      "##条": 4547,
      "##堀": 4548,
      "##羽": 4549,
      "##頼": 4550,
      "##鎌": 4551,
      "##促": 4552,
      "##そ": 4553,
      "##く": 4554,
      "##た": 4555,
      "##切": 4556,
      "##ロ": 4557,
      "##ュ": 4558,
      "##可": 4559,
      "##偉": 4560,
      "##為": 4561,
      "##ې": 4562,
      "##̡": 4563,
      "##玉": 4564,
      "##ิ": 4565,
      "##ง": 4566,
      "##ด": 4567,
      "##↑": 4568,
      "##™": 4569,
      "##ʻ": 4570,
      "##∆": 4571,
      "##◄": 4572,
      "##ଓ": 4573,
      "##଼": 4574,
      "##च": 4575,
      "##≳": 4576,
      "##ɫ": 4577,
      "##𑀩": 4578,
      "##𑁆": 4579,
      "##𑀭": 4580,
      "##𑀸": 4581,
      "##𑀳": 4582,
      "##𑀫": 4583,
      "##𑀻": 4584,
      "##ʘ": 4585,
      "##ࣱ": 4586,
      "##Ø": 4587,
      "##Ɔ": 4588,
      "##宏": 4589,
      "##̪": 4590,
      "##に": 4591,
      "##む": 4592,
      "##⊙": 4593,
      "##Œ": 4594,
      "##♕": 4595,
      "##♛": 4596,
      "##⁪": 4597,
      "##∣": 4598,
      "##∼": 4599,
      "##І": 4600,
      "##粉": 4601,
      "##面": 4602,
      "##线": 4603,
      "##伊": 4604,
      "##Я": 4605,
      "##ቀ": 4606,
      "##ሕ": 4607,
      "##ባ": 4608,
      "##ሪ": 4609,
      "##Վ": 4610,
      "##հ": 4611,
      "##Ք": 4612,
      "##չ": 4613,
      "##夏": 4614,
      "##助": 4615,
      "##隆": 4616,
      "##介": 4617,
      "##ヨ": 4618,
      "##ヤ": 4619,
      "##Þ": 4620,
      "##昭": 4621,
      "##拝": 4622,
      "##⫶": 4623,
      "##Щ": 4624,
      "##Ц": 4625,
      "##⇌": 4626,
      "##ә": 4627,
      "##ъ": 4628,
      "##Ӏ": 4629,
      "##қ": 4630,
      "##ұ": 4631,
      "##ө": 4632,
      "##؜": 4633,
      "##̋": 4634,
      "##¬": 4635,
      "##¯": 4636,
      "##​": 4637,
      "##յ": 4638,
      "##Ա": 4639,
      "##բ": 4640,
      "##ւ": 4641,
      "##Բ": 4642,
      "##⅛": 4643,
      "##ፐ": 4644,
      "##ብ": 4645,
      "##ሊ": 4646,
      "##ክ": 4647,
      "##萌": 4648,
      "##る": 4649,
      "##や": 4650,
      "##燃": 4651,
      "##⁧": 4652,
      "##⁩": 4653,
      "##ແ": 4654,
      "##ຂ": 4655,
      "##ງ": 4656,
      "##٭": 4657,
      "##˙": 4658,
      "##諍": 4659,
      "##益": 4660,
      "##若": 4661,
      "##苻": 4662,
      "##堅": 4663,
      "##惠": 4664,
      "##亮": 4665,
      "##慈": 4666,
      "##藏": 4667,
      "##ʏ": 4668,
      "##┒": 4669,
      "##ϣ": 4670,
      "##ⲁ": 4671,
      "##ⲩ": 4672,
      "##Ⅱ": 4673,
      "##̮": 4674,
      "##ٙ": 4675,
      "##ф": 4676,
      "##霊": 4677,
      "##靈": 4678,
      "##氣": 4679,
      "##キ": 4680,
      "##臼": 4681,
      "##瓮": 4682,
      "##男": 4683,
      "##灵": 4684,
      "##气": 4685,
      "##疗": 4686,
      "##忠": 4687,
      "##戒": 4688,
      "##療": 4689,
      "##必": 4690,
      "##携": 4691,
      "##初": 4692,
      "##伝": 4693,
      "##奥": 4694,
      "##秘": 4695,
      "##掌": 4696,
      "##吸": 4697,
      "##合": 4698,
      "##示": 4699,
      "##響": 4700,
      "##宗": 4701,
      "##瑞": 4702,
      "##郡": 4703,
      "##鎭": 4704,
      "##農": 4705,
      "##說": 4706,
      "##华": 4707,
      "##为": 4708,
      "##技": 4709,
      "##术": 4710,
      "##限": 4711,
      "##公": 4712,
      "##ؼ": 4713,
      "##―": 4714,
      "##শ": 4715,
      "##গ": 4716,
      "##ঢ": 4717,
      "##খ": 4718,
      "##জ": 4719,
      "##ী": 4720,
      "##য": 4721,
      "##়": 4722,
      "##ส": 4723,
      "##า": 4724,
      "##ว": 4725,
      "##ϛ": 4726,
      "##Ϝ": 4727,
      "##⁹": 4728,
      "##ゅ": 4729,
      "##ユ": 4730,
      "##蔵": 4731,
      "##間": 4732,
      "##坂": 4733,
      "##角": 4734,
      "##授": 4735,
      "##荒": 4736,
      "##如": 4737,
      "##斎": 4738,
      "##⨀": 4739,
      "##屈": 4740,
      "##浦": 4741,
      "##石": 4742,
      "##壯": 4743,
      "##₤": 4744,
      "##વ": 4745,
      "##ા": 4746,
      "##ણ": 4747,
      "##િ": 4748,
      "##ય": 4749,
      "##ો": 4750,
      "##顔": 4751,
      "##久": 4752,
      "##－": 4753,
      "##ڵ": 4754,
      "##遠": 4755,
      "##保": 4756,
      "##仁": 4757,
      "##आ": 4758,
      "##ͅ": 4759,
      "##ⵄ": 4760,
      "##ⵇ": 4761,
      "##ञ": 4762,
      "##散": 4763,
      "##‐": 4764,
      "##企": 4765,
      "##ϑ": 4766,
      "##探": 4767,
      "##偵": 4768,
      "##孔": 4769,
      "##வ": 4770,
      "##急": 4771,
      "##穴": 4772,
      "##位": 4773,
      "##మ": 4774,
      "##్": 4775,
      "##స": 4776,
      "##థ": 4777,
      "##న": 4778,
      "##ര": 4779,
      "##ം": 4780,
      "##点": 4781,
      "##脉": 4782,
      "##點": 4783,
      "##脈": 4784,
      "##𝄇": 4785,
      "##𝄆": 4786,
      "##恋": 4787,
      "##寺": 4788,
      "##場": 4789,
      "##⋃": 4790,
      "##∪": 4791,
      "##უ": 4792,
      "##ნ": 4793,
      "##株": 4794,
      "##社": 4795,
      "##眼": 4796,
      "##説": 4797,
      "##忍": 4798,
      "##ະ": 4799,
      "##ຫ": 4800,
      "##ັ": 4801,
      "##ເ": 4802,
      "##ҷ": 4803,
      "##ʙ": 4804,
      "##Ƣ": 4805,
      "##⚜": 4806,
      "##🇹": 4807,
      "##🇳": 4808,
      "##🇷": 4809,
      "##🇸": 4810,
      "##🇦": 4811,
      "##Ս": 4812,
      "##Դ": 4813,
      "##Կ": 4814,
      "##ܨ": 4815,
      "##ण": 4816,
      "##全": 4817,
      "##煥": 4818,
      "##∴": 4819,
      "##ʋ": 4820,
      "##濯": 4821,
      "##纓": 4822,
      "##愍": 4823,
      "##ⲡ": 4824,
      "##ⲱ": 4825,
      "##ⲟ": 4826,
      "##ⲛ": 4827,
      "##欽": 4828,
      "##影": 4829,
      "##鹿": 4830,
      "##苑": 4831,
      "##ۇ": 4832,
      "##မ": 4833,
      "##ြ": 4834,
      "##န": 4835,
      "##ာ": 4836,
      "##့": 4837,
      "##သ": 4838,
      "##ိ": 4839,
      "##ု": 4840,
      "##ڇ": 4841,
      "##ٖ": 4842,
      "##ڄ": 4843,
      "##ۉ": 4844,
      "##〖": 4845,
      "##〗": 4846,
      "##۞": 4847,
      "##ݣ": 4848,
      "##⊥": 4849,
      "##ⴻ": 4850,
      "##ɕ": 4851,
      "##ѥ": 4852,
      "##ⵗ": 4853,
      "##ⵝ": 4854,
      "##Ɣ": 4855,
      "##佑": 4856,
      "##己": 4857,
      "##Υ": 4858,
      "##素": 4859,
      "##股": 4860,
      "##𐩷": 4861,
      "##𐩥": 4862,
      "##𐩤": 4863,
      "##𐩨": 4864,
      "##𐩱": 4865,
      "##𐩡": 4866,
      "##𐩠": 4867,
      "##𐩻": 4868,
      "##𐩫": 4869,
      "##𐩩": 4870,
      "##𐩲": 4871,
      "##ꜣ": 4872,
      "##Ζ": 4873,
      "##􏰁": 4874,
      "##􏰀": 4875,
      "##̩": 4876,
      "##僕": 4877,
      "##を": 4878,
      "##読": 4879,
      "##元": 4880,
      "##値": 4881,
      "##ֶ": 4882,
      "##臨": 4883,
      "##韩": 4884,
      "##汤": 4885,
      "##姚": 4886,
      "##𓂋": 4887,
      "##𓏺": 4888,
      "##𓈖": 4889,
      "##𓆎": 4890,
      "##𓅓": 4891,
      "##𓏏": 4892,
      "##𓊖": 4893,
      "##ጉ": 4894,
      "##ሠ": 4895,
      "##ነ": 4896,
      "##ገ": 4897,
      "##ሥ": 4898,
      "##ት": 4899,
      "##放": 4900,
      "##送": 4901,
      "##協": 4902,
      "##受": 4903,
      "##信": 4904,
      "##⁠": 4905,
      "##Ⲛ": 4906,
      "##Ⲣ": 4907,
      "##ⲥ": 4908,
      "##𒄭": 4909,
      "##𒆪": 4910,
      "##𒌒": 4911,
      "##𒋫": 4912,
      "##𒀪": 4913,
      "##𒈬": 4914,
      "##𒀫": 4915,
      "##𐎎": 4916,
      "##𐎕": 4917,
      "##𐎗": 4918,
      "##𓇥": 4919,
      "##𓊅": 4920,
      "##𐎸": 4921,
      "##𐎭": 4922,
      "##𐎼": 4923,
      "##𐎠": 4924,
      "##𐎹": 4925,
      "##𒃻": 4926,
      "##𒅮": 4927,
      "##𒈾": 4928,
      "##育": 4929,
      "##常": 4930,
      "##用": 4931,
      "##当": 4932,
      "##下": 4933,
      "##森": 4934,
      "##楽": 4935,
      "##亜": 4936,
      "##敦": 4937,
      "##々": 4938,
      "##色": 4939,
      "##仝": 4940,
      "##┐": 4941,
      "##同": 4942,
      "##建": 4943,
      "##凶": 4944,
      "##銅": 4945,
      "##₫": 4946,
      "##撫": 4947,
      "##君": 4948,
      "##李": 4949,
      "##芳": 4950,
      "##蕃": 4951,
      "##后": 4952,
      "##鄭": 4953,
      "##傳": 4954,
      "##Ρ": 4955,
      "##内": 4956,
      "##夜": 4957,
      "##ろ": 4958,
      "##像": 4959,
      "##⟶": 4960,
      "##څ": 4961,
      "##ʝ": 4962,
      "##ۍ": 4963,
      "##Ю": 4964,
      "##简": 4965,
      "##今": 4966,
      "##反": 4967,
      "##逆": 4968,
      "##务": 4969,
      "##鏡": 4970,
      "##簡": 4971,
      "##易": 4972,
      "##裁": 4973,
      "##判": 4974,
      "##庭": 4975,
      "##等": 4976,
      "##最": 4977,
      "##使": 4978,
      "##睦": 4979,
      "##薩": 4980,
      "##板": 4981,
      "##垣": 4982,
      "##退": 4983,
      "##党": 4984,
      "##隈": 4985,
      "##重": 4986,
      "##沖": 4987,
      "##矢": 4988,
      "##昴": 4989,
      "##🕊": 4990,
      "##闽": 4991,
      "##牟": 4992,
      "##唯": 4993,
      "##ڌ": 4994,
      "##ٻ": 4995,
      "##≫": 4996,
      "##ⵙ": 4997,
      "##ˤ": 4998,
      "##ʦ": 4999,
      "##ץ": 5000,
      "##鯨": 5001,
      "##（": 5002,
      "##）": 5003,
      "##۱": 5004,
      "##۲": 5005,
      "##۰": 5006,
      "##۷": 5007,
      "##ȝ": 5008,
      "##ℵ": 5009,
      "##℅": 5010,
      "##΄": 5011,
      "##︎": 5012,
      "##ܓ": 5013,
      "##ܙ": 5014,
      "##↵": 5015,
      "##⇆": 5016,
      "##巨": 5017,
      "##査": 5018,
      "##団": 5019,
      "##駐": 5020,
      "##屯": 5021,
      "##憲": 5022,
      "##立": 5023,
      "##体": 5024,
      "##装": 5025,
      "##置": 5026,
      "##進": 5027,
      "##撃": 5028,
      "##！": 5029,
      "##悔": 5030,
      "##選": 5031,
      "##択": 5032,
      "##寸": 5033,
      "##劇": 5034,
      "##「": 5035,
      "##」": 5036,
      "##編": 5037,
      "##～": 5038,
      "##蓮": 5039,
      "##弓": 5040,
      "##翼": 5041,
      "##臓": 5042,
      "##捧": 5043,
      "##よ": 5044,
      "##暮": 5045,
      "##残": 5046,
      "##酷": 5047,
      "##座": 5048,
      "##償": 5049,
      "##狼": 5050,
      "##煙": 5051,
      "##於": 5052,
      "##拉": 5053,
      "##场": 5054,
      "##维": 5055,
      "##ಮ": 5056,
      "##ರ": 5057,
      "##斌": 5058,
      "##光": 5059,
      "##刘": 5060,
      "##黎": 5061,
      "##强": 5062,
      "##黄": 5063,
      "##峰": 5064,
      "##鷹": 5065,
      "##志": 5066,
      "##節": 5067,
      "##父": 5068,
      "##母": 5069,
      "##ք": 5070,
      "##փ": 5071,
      "##Մ": 5072,
      "##՝": 5073,
      "##վ": 5074,
      "##ծ": 5075,
      "##記": 5076,
      "##ち": 5077,
      "##ゃ": 5078,
      "##さ": 5079,
      "##も": 5080,
      "##磯": 5081,
      "##鱈": 5082,
      "##優": 5083,
      "##良": 5084,
      "##作": 5085,
      "##友": 5086,
      "##敬": 5087,
      "##穂": 5088,
      "##輪": 5089,
      "##彦": 5090,
      "##菊": 5091,
      "##池": 5092,
      "##丸": 5093,
      "##末": 5094,
      "##展": 5095,
      "##崎": 5096,
      "##孝": 5097,
      "##折": 5098,
      "##笠": 5099,
      "##ワ": 5100,
      "##毛": 5101,
      "##泽": 5102,
      "##澤": 5103,
      "##雅": 5104,
      "##塚": 5105,
      "##ट": 5106,
      "##ℝ": 5107,
      "##∠": 5108,
      "##马": 5109,
      "##孫": 5110,
      "##逸": 5111,
      "##象": 5112,
      "##載": 5113,
      "##翠": 5114,
      "##亨": 5115,
      "##院": 5116,
      "##論": 5117,
      "##♌": 5118,
      "##巴": 5119,
      "##緋": 5120,
      "##¦": 5121,
      "##澳": 5122,
      "##⛯": 5123,
      "##降": 5124,
      "##零": 5125,
      "##室": 5126,
      "##透": 5127,
      "##版": 5128,
      "##ኛ": 5129,
      "##寛": 5130,
      "##𝑣": 5131,
      "##∂": 5132,
      "##Ч": 5133,
      "##𒀸": 5134,
      "##𒋩": 5135,
      "##щ": 5136,
      "##ヒ": 5137,
      "##杉": 5138,
      "##足": 5139,
      "##輝": 5140,
      "##織": 5141,
      "##勝": 5142,
      "##উ": 5143,
      "##দ": 5144,
      "##আ": 5145,
      "##筑": 5146,
      "##✡": 5147,
      "##比": 5148,
      "##裂": 5149,
      "##籐": 5150,
      "##曽": 5151,
      "##熊": 5152,
      "##あ": 5153,
      "##破": 5154,
      "##尚": 5155,
      "##⌬": 5156,
      "##⊞": 5157,
      "##ட": 5158,
      "##貝": 5159,
      "##ݞ": 5160,
      "##ै": 5161,
      "##ஈ": 5162,
      "##聖": 5163,
      "##∘": 5164,
      "##∏": 5165,
      "##栄": 5166,
      "##ۜ": 5167,
      "##ѣ": 5168,
      "##ѫ": 5169,
      "##染": 5170,
      "##桜": 5171,
      "##枝": 5172,
      "##垂": 5173,
      "##۸": 5174,
      "##۹": 5175,
      "##越": 5176,
      "##ۙ": 5177,
      "##占": 5178,
      "##邑": 5179,
      "##町": 5180,
      "##尊": 5181,
      "##詮": 5182,
      "##唐": 5183,
      "##禅": 5184,
      "##湯": 5185,
      "##応": 5186,
      "##戦": 5187,
      "##۩": 5188,
      "##苏": 5189,
      "##ײ": 5190,
      "##独": 5191,
      "##宙": 5192,
      "##航": 5193,
      "##研": 5194,
      "##究": 5195,
      "##開": 5196,
      "##発": 5197,
      "##構": 5198,
      "##𝑒": 5199,
      "##𝜙": 5200,
      "##׃": 5201,
      "##─": 5202,
      "##ƶ": 5203,
      "##客": 5204,
      "##譚": 5205,
      "##⋂": 5206,
      "##Ł": 5207,
      "##ۛ": 5208,
      "##分": 5209,
      "##儀": 5210,
      "##殷": 5211,
      "##ƿ": 5212,
      "##ⵛ": 5213,
      "##ⵯ": 5214,
      "##ⵕ": 5215,
      "##ヌ": 5216,
      "##円": 5217,
      "##盤": 5218,
      "##争": 5219,
      "##燕": 5220,
      "##㦕": 5221,
      "##戊": 5222,
      "##午": 5223,
      "##禍": 5224,
      "##甲": 5225,
      "##是": 5226,
      "##舌": 5227,
      "##身": 5228,
      "##刀": 5229,
      "##閉": 5230,
      "##處": 5231,
      "##牢": 5232,
      "##弾": 5233,
      "##列": 5234,
      "##↓": 5235,
      "##✝": 5236,
      "##✚": 5237,
      "##渾": 5238,
      "##膽": 5239,
      "##孤": 5240,
      "##隴": 5241,
      "## ا": 5242,
      "## ال": 5243,
      "##ة ": 5244,
      "## و": 5245,
      "## م": 5246,
      "##ال": 5247,
      "## أ": 5248,
      "##في": 5249,
      "##ن ": 5250,
      "##أ": 5251,
      "## ب": 5252,
      "## الم": 5253,
      "##ا ": 5254,
      "##ري": 5255,
      "##ات": 5256,
      "##ة ال": 5257,
      "## ع": 5258,
      "##ان": 5259,
      "## ت": 5260,
      "## في": 5261,
      "##ام": 5262,
      "##لى": 5263,
      "##دي": 5264,
      "## ل": 5265,
      "##ن ال": 5266,
      "## إ": 5267,
      "##ية ": 5268,
      "##ار": 5269,
      "##، و": 5270,
      "##اي": 5271,
      "##ول": 5272,
      "## ك": 5273,
      "## ي": 5274,
      "##بي": 5275,
      "## الأ": 5276,
      "##لي": 5277,
      "##را": 5278,
      "##ست": 5279,
      "##سي": 5280,
      "##ها": 5281,
      "##ين": 5282,
      "##لا": 5283,
      "## ح": 5284,
      "##اب": 5285,
      "##ون": 5286,
      "##ائ": 5287,
      "## الت": 5288,
      "##إ": 5289,
      "##ور": 5290,
      "## ن": 5291,
      "## من": 5292,
      "## الع": 5293,
      "##ير": 5294,
      "## وال": 5295,
      "## ف": 5296,
      "## ه": 5297,
      "##اد": 5298,
      "##. و": 5299,
      "##لك": 5300,
      "##عد": 5301,
      "## س": 5302,
      "##لم": 5303,
      "##ة م": 5304,
      "## إلى": 5305,
      "##نا": 5306,
      "## 1": 5307,
      "##وا": 5308,
      "##, ": 5309,
      "## من ": 5310,
      "##سم": 5311,
      "##وم": 5312,
      "## ق": 5313,
      "## من ال": 5314,
      "## على": 5315,
      "##ية": 5316,
      "##ها ": 5317,
      "##سب": 5318,
      "##هم": 5319,
      "## ج": 5320,
      "##بر": 5321,
      "##وي": 5322,
      "##تي": 5323,
      "## الح": 5324,
      "##اء": 5325,
      "##رب": 5326,
      "##شر": 5327,
      "##قد": 5328,
      "##ة و": 5329,
      "## أو": 5330,
      "##حد": 5331,
      "##تم": 5332,
      "## الق": 5333,
      "##ان ": 5334,
      "## (": 5335,
      "## مع": 5336,
      "##رو": 5337,
      "##بل": 5338,
      "##ني": 5339,
      "##ة في": 5340,
      "## الج": 5341,
      "## 2": 5342,
      "## د": 5343,
      "##وري": 5344,
      "##مي": 5345,
      "##رك": 5346,
      "##ما ": 5347,
      "## الك": 5348,
      "##قي": 5349,
      "##ة ب": 5350,
      "## بال": 5351,
      "##اع": 5352,
      "## الس": 5353,
      "## ش": 5354,
      "##كان": 5355,
      "##على": 5356,
      "## الب": 5357,
      "##رف": 5358,
      "##ون ": 5359,
      "## أن": 5360,
      "##ود": 5361,
      "##ة.": 5362,
      "##اف": 5363,
      "##ة ل": 5364,
      "##خل": 5365,
      "##00": 5366,
      "##ند": 5367,
      "## عام": 5368,
      "##عم": 5369,
      "##تو": 5370,
      "##ين ": 5371,
      "##ة الم": 5372,
      "## الإ": 5373,
      "##اني": 5374,
      "##الي": 5375,
      "##حت": 5376,
      "## الن": 5377,
      "##يل": 5378,
      "## 19": 5379,
      "##كل": 5380,
      "## لل": 5381,
      "##جم": 5382,
      "##نت": 5383,
      "##حي": 5384,
      "##ة،": 5385,
      "##هي": 5386,
      "##ذلك": 5387,
      "## الف": 5388,
      "##ما": 5389,
      "##وع": 5390,
      "##كي": 5391,
      "##زي": 5392,
      "## أن ": 5393,
      "##تر": 5394,
      "##تب": 5395,
      "## الش": 5396,
      "##اري": 5397,
      "##سط": 5398,
      "##سل": 5399,
      "##سر": 5400,
      "##هر": 5401,
      "## الا": 5402,
      "##ذي": 5403,
      "##سا": 5404,
      "##خر": 5405,
      "## الد": 5406,
      "##صل": 5407,
      "##وج": 5408,
      "##وب": 5409,
      "##عي": 5410,
      "##ة أ": 5411,
      "##ذه": 5412,
      "##تح": 5413,
      "##خد": 5414,
      "##ة الأ": 5415,
      "##نة ": 5416,
      "##هو": 5417,
      "##مر": 5418,
      "##ديد": 5419,
      "##وق": 5420,
      "##ة وال": 5421,
      "## «": 5422,
      "##ؤ": 5423,
      "## كان": 5424,
      "##ذا": 5425,
      "## الص": 5426,
      "##غير": 5427,
      "##كن": 5428,
      "##ية و": 5429,
      "##لف": 5430,
      "##. ت": 5431,
      "##ة، و": 5432,
      "##ا ي": 5433,
      "##قا": 5434,
      "## ص": 5435,
      "## ر": 5436,
      "##عض": 5437,
      "##له": 5438,
      "## التي": 5439,
      "##ته": 5440,
      "## است": 5441,
      "## ط": 5442,
      "##\r\n": 5443,
      "##با": 5444,
      "## أي": 5445,
      "##فر": 5446,
      "##الم": 5447,
      "##ثر": 5448,
      "##قل": 5449,
      "##جل": 5450,
      "##ثل": 5451,
      "##كر": 5452,
      "##بد": 5453,
      "##صر": 5454,
      "##عام": 5455,
      "## خ": 5456,
      "##لغ": 5457,
      "##مل": 5458,
      "##ا في": 5459,
      "##ات الم": 5460,
      "##تع": 5461,
      "##يم": 5462,
      "## الخ": 5463,
      "## بعد": 5464,
      "##01": 5465,
      "##. ي": 5466,
      "## أك": 5467,
      "## الر": 5468,
      "##در": 5469,
      "##لق": 5470,
      "##تاب": 5471,
      "## عد": 5472,
      "##طق": 5473,
      "## ث": 5474,
      "##سبة ": 5475,
      "##رض": 5476,
      "## آ": 5477,
      "##وس": 5478,
      "## مح": 5479,
      "##ا ل": 5480,
      "## الذي": 5481,
      "## بي": 5482,
      "##عت": 5483,
      "## الط": 5484,
      "##هد": 5485,
      "##ة الك": 5486,
      "##اس": 5487,
      "##خت": 5488,
      "## وي": 5489,
      "##دين": 5490,
      "##تش": 5491,
      "##من": 5492,
      "##صب": 5493,
      "##كم": 5494,
      "##اص": 5495,
      "##اق": 5496,
      "##جي": 5497,
      "##، ف": 5498,
      "##ائل": 5499,
      "##قط": 5500,
      "##عب": 5501,
      "##ية في": 5502,
      "##تق": 5503,
      "##ريق": 5504,
      "##عل": 5505,
      "## الث": 5506,
      "## حي": 5507,
      "## الو": 5508,
      "##خدم": 5509,
      "##اح": 5510,
      "##لب": 5511,
      "##كان ": 5512,
      "##. في": 5513,
      "##كانت": 5514,
      "## 201": 5515,
      "## هو": 5516,
      "##نه": 5517,
      "##مد": 5518,
      "## غ": 5519,
      "##ولي": 5520,
      "##رئ": 5521,
      "## هي": 5522,
      "## ذلك": 5523,
      "## وأ": 5524,
      "##اج": 5525,
      "##نو": 5526,
      "##شي": 5527,
      "##خص": 5528,
      "## تم": 5529,
      "##وت": 5530,
      "##ادي": 5531,
      "##ة ع": 5532,
      "##قت": 5533,
      "##نس": 5534,
      "##ية م": 5535,
      "## كانت": 5536,
      "## هذه": 5537,
      "##، وال": 5538,
      "##يس": 5539,
      "##فس": 5540,
      "##تف": 5541,
      "## بد": 5542,
      "##بلغ": 5543,
      "## 200": 5544,
      "##بير": 5545,
      "## من أ": 5546,
      "##ظم": 5547,
      "##ة على": 5548,
      "## عام 19": 5549,
      "##.\r\n": 5550,
      "##حرف": 5551,
      "##خلال": 5552,
      "##شكل": 5553,
      "## عدد": 5554,
      "##ة إلى": 5555,
      "##طي": 5556,
      "## وم": 5557,
      "##ون ال": 5558,
      "##ربي": 5559,
      "##ة الع": 5560,
      "##تك": 5561,
      "##ية ل": 5562,
      "## في م": 5563,
      "##قبل": 5564,
      "##از": 5565,
      "##راء": 5566,
      "##است": 5567,
      "##حل": 5568,
      "##يا": 5569,
      "##ة التي": 5570,
      "## حيث": 5571,
      "## سي": 5572,
      "## علي": 5573,
      "##خرى": 5574,
      "##بال": 5575,
      "##جد": 5576,
      "##صف": 5577,
      "##ربع": 5578,
      "## من الأ": 5579,
      "##ائي": 5580,
      "##ضي": 5581,
      "##قر": 5582,
      "##وف": 5583,
      "## كان ": 5584,
      "##نج": 5585,
      "##، أ": 5586,
      "##ة ت": 5587,
      "##كن ": 5588,
      "## الغ": 5589,
      "## لم": 5590,
      "## بأ": 5591,
      "## من الم": 5592,
      "##قال": 5593,
      "##رق": 5594,
      "##19": 5595,
      "##تحد": 5596,
      "##ية وال": 5597,
      "##وني": 5598,
      "##مري": 5599,
      "##ضم": 5600,
      "## بعض": 5601,
      "## هذا": 5602,
      "##مال": 5603,
      "##ن الأ": 5604,
      "## تع": 5605,
      "##وز": 5606,
      "##دار": 5607,
      "##رج": 5608,
      "## عند": 5609,
      "##ة. و": 5610,
      "##جر": 5611,
      "##ناء": 5612,
      "##جموع": 5613,
      "##تد": 5614,
      "##، ب": 5615,
      "##ة من": 5616,
      "##ة من ": 5617,
      "##عة ": 5618,
      "##ا و": 5619,
      "##بج": 5620,
      "##ا ب": 5621,
      "##بو": 5622,
      "##ات ال": 5623,
      "##راب": 5624,
      "## المن": 5625,
      "## كل": 5626,
      "##قدم": 5627,
      "## أكثر": 5628,
      "##شار": 5629,
      "## مر": 5630,
      "##مع": 5631,
      "##كس": 5632,
      "## وج": 5633,
      "##ة الكوري": 5634,
      "##قع": 5635,
      "##ميع": 5636,
      "##بجدي": 5637,
      "##تى": 5638,
      "##نسبة ": 5639,
      "##ئ": 5640,
      "##ستخدم": 5641,
      "##ة لل": 5642,
      "##حو": 5643,
      "##سك": 5644,
      "##سبب": 5645,
      "##تج": 5646,
      "## اله": 5647,
      "## عن ": 5648,
      "##ما ي": 5649,
      "##ة من ال": 5650,
      "##أس": 5651,
      "##ثير": 5652,
      "## أيض": 5653,
      "##بيدي": 5654,
      "## 3": 5655,
      "##بار": 5656,
      "##حر": 5657,
      "##اه": 5658,
      "## ذ": 5659,
      "##ة الإ": 5660,
      "##ية.": 5661,
      "## انت": 5662,
      "##ة الس": 5663,
      "##ية،": 5664,
      "##فل": 5665,
      "##طر": 5666,
      "##كيبيدي": 5667,
      "##تن": 5668,
      "##ها في": 5669,
      "##عمل": 5670,
      "##فا": 5671,
      "## الي": 5672,
      "## المع": 5673,
      "##حا": 5674,
      "##ديم": 5675,
      "##بن": 5676,
      "##دو": 5677,
      "##ن في": 5678,
      "##ظام": 5679,
      "## أن ي": 5680,
      "##يني": 5681,
      "## قد": 5682,
      "##شري": 5683,
      "##خدام": 5684,
      "## مثل": 5685,
      "##ليم": 5686,
      "##دا": 5687,
      "##فق": 5688,
      "## الآ": 5689,
      "##ة إ": 5690,
      "##ة أو": 5691,
      "##وض": 5692,
      "##كون": 5693,
      "##تص": 5694,
      "##ائر": 5695,
      "##روف": 5696,
      "##لاث": 5697,
      "## التي ت": 5698,
      "## القر": 5699,
      "##ه في": 5700,
      "##وك": 5701,
      "## ثم": 5702,
      "## لي": 5703,
      "## بين ال": 5704,
      "##. أ": 5705,
      "## نسبة ": 5706,
      "## وا": 5707,
      "##قيق": 5708,
      "##تز": 5709,
      "##قو": 5710,
      "##قاط": 5711,
      "##دول": 5712,
      "##بات": 5713,
      "## ان": 5714,
      "##رئيس": 5715,
      "##توسط": 5716,
      "##. ب": 5717,
      "##جز": 5718,
      "##عاد": 5719,
      "##ة بال": 5720,
      "## والم": 5721,
      "## مست": 5722,
      "## أنه": 5723,
      "## بن ": 5724,
      "## بم": 5725,
      "## -": 5726,
      "##ناك": 5727,
      "## تح": 5728,
      "## ويكيبيدي": 5729,
      "##ولاي": 5730,
      "##فض": 5731,
      "## حتى": 5732,
      "##، ل": 5733,
      "## ز": 5734,
      "##صبح": 5735,
      "##سلام": 5736,
      "## 18": 5737,
      "##اريخ": 5738,
      "##عداد": 5739,
      "##ا ع": 5740,
      "##شرك": 5741,
      "##تها": 5742,
      "##ة الح": 5743,
      "##جن": 5744,
      "## يم": 5745,
      "## الذ": 5746,
      "##لاد": 5747,
      "##تأ": 5748,
      "##ركز": 5749,
      "##جه": 5750,
      "##ية ب": 5751,
      "##امل": 5752,
      "## السي": 5753,
      "## بن": 5754,
      "## ض": 5755,
      "##ثم": 5756,
      "##ختلف": 5757,
      "##غم": 5758,
      "## الله": 5759,
      "##اك": 5760,
      "##طل": 5761,
      "##يد": 5762,
      "##امس": 5763,
      "## أول": 5764,
      "##ا، و": 5765,
      "##غل": 5766,
      "##به": 5767,
      "##ة ك": 5768,
      "##ظهر": 5769,
      "## أم": 5770,
      "##شت": 5771,
      "## الأم": 5772,
      "## عن": 5773,
      "##رد": 5774,
      "##اط": 5775,
      "##لاح": 5776,
      "## مت": 5777,
      "##ضاف": 5778,
      "##ية، و": 5779,
      "##عشر": 5780,
      "## العالم": 5781,
      "## والأ": 5782,
      "## للم": 5783,
      "## غير": 5784,
      "## في الم": 5785,
      "## كما ": 5786,
      "##صو": 5787,
      "##لد": 5788,
      "## إن": 5789,
      "##زل": 5790,
      "##هذه": 5791,
      "##0.": 5792,
      "##يب": 5793,
      "## دي": 5794,
      "##بري": 5795,
      "##كوم": 5796,
      "## نسم": 5797,
      "##دينة ": 5798,
      "## سنة ": 5799,
      "##ة ح": 5800,
      "##ا،": 5801,
      "## لأ": 5802,
      "##لاق": 5803,
      "##صول": 5804,
      "## تق": 5805,
      "## من م": 5806,
      "## الأحرف": 5807,
      "## الل": 5808,
      "##طب": 5809,
      "##وان": 5810,
      "##وط": 5811,
      "## اسم": 5812,
      "##زم": 5813,
      "##راق": 5814,
      "## دول": 5815,
      "##ه و": 5816,
      "##لإ": 5817,
      "##هذا": 5818,
      "##جتم": 5819,
      "##ا على": 5820,
      "## أن ال": 5821,
      "##عو": 5822,
      "##عمال": 5823,
      "##ارات": 5824,
      "##قام": 5825,
      "##ة (": 5826,
      "##ظر": 5827,
      "##ولى": 5828,
      "##صري": 5829,
      "##ديث": 5830,
      "##شرق": 5831,
      "##عيش": 5832,
      "##بعد": 5833,
      "## الأسر": 5834,
      "##اسم": 5835,
      "##مو": 5836,
      "##)، و": 5837,
      "##ذا ": 5838,
      "##ولايات الم": 5839,
      "## إي": 5840,
      "##وى": 5841,
      "##عدد": 5842,
      "##كانت نسبة ": 5843,
      "##ت في": 5844,
      "##ولايات المتحد": 5845,
      "##تل": 5846,
      "##طريق": 5847,
      "##ليل": 5848,
      "## الأول": 5849,
      "##ا.": 5850,
      "##ضع": 5851,
      "##قص": 5852,
      "##برا": 5853,
      "##ا م": 5854,
      "##لط": 5855,
      "##يز": 5856,
      "##طول": 5857,
      "## 4": 5858,
      "##آ": 5859,
      "##بين": 5860,
      "## في ال": 5861,
      "##ابل": 5862,
      "##وجد": 5863,
      "##راس": 5864,
      "## ما ": 5865,
      "##شع": 5866,
      "##كتب": 5867,
      "## إلا": 5868,
      "## أحد": 5869,
      "##عتبر": 5870,
      "##كون ": 5871,
      "##. وفي": 5872,
      "##لاف": 5873,
      "##قدر": 5874,
      "##راض": 5875,
      "##. ل": 5876,
      "##ات و": 5877,
      "##تخ": 5878,
      "## المست": 5879,
      "## محمد": 5880,
      "##، وأ": 5881,
      "##رن": 5882,
      "## الأبجدي": 5883,
      "##، م": 5884,
      "## المس": 5885,
      "##طلق": 5886,
      "##افظ": 5887,
      "## عشر": 5888,
      "##انية ": 5889,
      "## بين": 5890,
      "##اسي": 5891,
      "##ة ف": 5892,
      "##ات الأ": 5893,
      "## الفي": 5894,
      "##، ت": 5895,
      "##ويل": 5896,
      "##دى": 5897,
      "## الز": 5898,
      "##ارس": 5899,
      "##اير": 5900,
      "##عمر": 5901,
      "## الملك": 5902,
      "##ن ب": 5903,
      "##، وي": 5904,
      "##اته": 5905,
      "## المح": 5906,
      "##قب": 5907,
      "##اث": 5908,
      "##وريا": 5909,
      "##هل": 5910,
      "##خامس": 5911,
      "##راد": 5912,
      "##يف": 5913,
      "## جميع": 5914,
      "##وفي": 5915,
      "##مس": 5916,
      "## خلال": 5917,
      "##رس": 5918,
      "##تط": 5919,
      "##ين و": 5920,
      "##ات الت": 5921,
      "## وجود": 5922,
      "## 6": 5923,
      "## بدأ": 5924,
      "## نفس": 5925,
      "##وسي": 5926,
      "##غي": 5927,
      "##حيث": 5928,
      "## اب": 5929,
      "##حتى": 5930,
      "## القرن ال": 5931,
      "##ة الج": 5932,
      "## 5": 5933,
      "##اض": 5934,
      "## الان": 5935,
      "##بيل": 5936,
      "## تلك": 5937,
      "##ات م": 5938,
      "##، ي": 5939,
      "##2.": 5940,
      "## تش": 5941,
      "## رو": 5942,
      "##مريكي": 5943,
      "## كتاب": 5944,
      "##% من الأ": 5945,
      "## تعداد": 5946,
      "##ثال": 5947,
      "##تحت": 5948,
      "##ة مع": 5949,
      "##ة)": 5950,
      "## تحت": 5951,
      "##واع": 5952,
      "##طف": 5953,
      "## للأ": 5954,
      "##امع": 5955,
      "##ريب": 5956,
      "## الاست": 5957,
      "## في ح": 5958,
      "##ندي": 5959,
      "## العديد": 5960,
      "## عم": 5961,
      "##حم": 5962,
      "##ة»": 5963,
      "##سمي": 5964,
      "##ت ب": 5965,
      "##ده": 5966,
      "## الدول": 5967,
      "##ابق": 5968,
      "##رابع": 5969,
      "##خاص": 5970,
      "##تس": 5971,
      "##ة س": 5972,
      "## قبل": 5973,
      "##ثام": 5974,
      "##1.": 5975,
      "##جال": 5976,
      "##بيع": 5977,
      "##ن ل": 5978,
      "##خط": 5979,
      "##مريك": 5980,
      "##ية الم": 5981,
      "## العام": 5982,
      "##18": 5983,
      "## الذي ي": 5984,
      "##ها و": 5985,
      "##نوب": 5986,
      "## «ال": 5987,
      "##نف": 5988,
      "## اللغ": 5989,
      "## البر": 5990,
      "##ة الص": 5991,
      "##كو": 5992,
      "##مت": 5993,
      "##تحرك": 5994,
      "## مص": 5995,
      "## مس": 5996,
      "## مجموع": 5997,
      "## له": 5998,
      "## النا": 5999,
      "##وح": 6000,
      "##سس": 6001,
      "## ما": 6002,
      "## إلي": 6003,
      "##ون في": 6004,
      "## المر": 6005,
      "##دف": 6006,
      "## العلم": 6007,
      "## ما ي": 6008,
      "##جلس": 6009,
      "##ة. ت": 6010,
      "## الكتاب": 6011,
      "## استخدام": 6012,
      "## العائل": 6013,
      "##نة عشر": 6014,
      "##% من ال": 6015,
      "## متوسط": 6016,
      "##ثي": 6017,
      "##شا": 6018,
      "##. وقد": 6019,
      "##ة الن": 6020,
      "## كبير": 6021,
      "##ها ل": 6022,
      "##صور": 6023,
      "## التع": 6024,
      "##نى": 6025,
      "##قطع": 6026,
      "##نجلي": 6027,
      "## ين": 6028,
      "##رية ": 6029,
      "##3.": 6030,
      "##قول": 6031,
      "## منطق": 6032,
      "## عام 200": 6033,
      "## واحد": 6034,
      "##حص": 6035,
      "##، حيث": 6036,
      "## بشكل": 6037,
      "##رم": 6038,
      "##).": 6039,
      "## عبد": 6040,
      "##ائم": 6041,
      "## في أ": 6042,
      "## سكان": 6043,
      "##وار": 6044,
      "##. بلغ": 6045,
      "##يش": 6046,
      "##جمع": 6047,
      "## ويكيبيديا": 6048,
      "##شأ": 6049,
      "##ة الق": 6050,
      "##ة ج": 6051,
      "## (ال": 6052,
      "## لم ي": 6053,
      "##تبع": 6054,
      "##ائد": 6055,
      "##واء": 6056,
      "##وبي": 6057,
      "## حد": 6058,
      "##سمى": 6059,
      "## ‏": 6060,
      "##ا لل": 6061,
      "## قام": 6062,
      "##ية على": 6063,
      "##إن": 6064,
      "## المدين": 6065,
      "##فت": 6066,
      "##امي": 6067,
      "## من قبل": 6068,
      "##ا ك": 6069,
      "##راع": 6070,
      "##الب": 6071,
      "## الجز": 6072,
      "##ساس": 6073,
      "##كثر": 6074,
      "##لات": 6075,
      "##عرف": 6076,
      "##فري": 6077,
      "##000": 6078,
      "##% كانت": 6079,
      "##ة ن": 6080,
      "##وقت": 6081,
      "## المنا": 6082,
      "##حق": 6083,
      "##لت": 6084,
      "##ايا": 6085,
      "## الض": 6086,
      "## 7": 6087,
      "##درس": 6088,
      "##، ك": 6089,
      "##شهر": 6090,
      "##ا (": 6091,
      "##ترا": 6092,
      "## منذ": 6093,
      "##. وي": 6094,
      "##ة الب": 6095,
      "##بدأ": 6096,
      "## مؤ": 6097,
      "##نتاج": 6098,
      "##ملك": 6099,
      "## سب": 6100,
      "##رع": 6101,
      "##والي": 6102,
      "##بيض": 6103,
      "##ة الث": 6104,
      "## تأ": 6105,
      "##روس": 6106,
      "## عن ال": 6107,
      "##ريف": 6108,
      "##دير": 6109,
      "##ثامنة عشر": 6110,
      "##ا ف": 6111,
      "##ادر": 6112,
      "## بالإ": 6113,
      "##ية (": 6114,
      "##مه": 6115,
      "##ثناء": 6116,
      "##كت": 6117,
      "##زب": 6118,
      "## ول": 6119,
      "## عليه": 6120,
      "##وجود": 6121,
      "##حسب": 6122,
      "##. ف": 6123,
      "## عام 201": 6124,
      "##رين": 6125,
      "## وت": 6126,
      "##خي": 6127,
      "##كور": 6128,
      "##غرب": 6129,
      "##ة الش": 6130,
      "##ضافة إلى": 6131,
      "##ابع": 6132,
      "## الولايات المتحد": 6133,
      "##سن": 6134,
      "## شخص": 6135,
      "## المؤ": 6136,
      "##ريد": 6137,
      "##ها ب": 6138,
      "##كال": 6139,
      "##وروب": 6140,
      "##لم ي": 6141,
      "##اكن": 6142,
      "##فضل": 6143,
      "##ها أ": 6144,
      "## المي": 6145,
      "##عشري": 6146,
      "##اتح": 6147,
      "##لال": 6148,
      "##ونغ": 6149,
      "## الكوري": 6150,
      "##اتي": 6151,
      "##علم": 6152,
      "##4.": 6153,
      "##حمد": 6154,
      "##ا. و": 6155,
      "##قيم": 6156,
      "##حدى": 6157,
      "##مثل": 6158,
      "##ات في": 6159,
      "## يوم": 6160,
      "##ركيب": 6161,
      "##ة ا": 6162,
      "##ريك": 6163,
      "## تن": 6164,
      "##تهم": 6165,
      "## أغ": 6166,
      "##مار": 6167,
      "## هناك": 6168,
      "## \"": 6169,
      "##لاء": 6170,
      "##قاطع": 6171,
      "##كتاب": 6172,
      "##بق": 6173,
      "##ما في": 6174,
      "##انب": 6175,
      "##تيج": 6176,
      "##رير": 6177,
      "##). و": 6178,
      "## العربي": 6179,
      "##ساعد": 6180,
      "##هان": 6181,
      "##ن ع": 6182,
      "##ة، ف": 6183,
      "## دولار": 6184,
      "## أخرى": 6185,
      "##ضر": 6186,
      "##) و": 6187,
      "##ناع": 6188,
      "##ين في": 6189,
      "##هناك": 6190,
      "##ظيم": 6191,
      "##ارج": 6192,
      "##سع": 6193,
      "##ات وال": 6194,
      "##ميل": 6195,
      "##شاء": 6196,
      "##ا ت": 6197,
      "##17": 6198,
      "##ية لل": 6199,
      "##جار": 6200,
      "##قرب": 6201,
      "##امج": 6202,
      "## آخر": 6203,
      "##قابل": 6204,
      "## الشي": 6205,
      "##عيد": 6206,
      "##50": 6207,
      "## الأبجدية الكوري": 6208,
      "## ملي": 6209,
      "##ائز": 6210,
      "##عام 19": 6211,
      "##ة الت": 6212,
      "##سير": 6213,
      "##نوبي": 6214,
      "##زال": 6215,
      "##بلد": 6216,
      "##خرج": 6217,
      "## مد": 6218,
      "## مي": 6219,
      "##لام": 6220,
      "##)،": 6221,
      "##اش": 6222,
      "##خامسة وال": 6223,
      "## الحرب": 6224,
      "## العائلات": 6225,
      "## ست": 6226,
      "##ة ي": 6227,
      "##تيب": 6228,
      "## أكبر": 6229,
      "## أنواع": 6230,
      "##حدث": 6231,
      "##ريط": 6232,
      "## تر": 6233,
      "## الإسلام": 6234,
      "##جميع": 6235,
      "##خذ": 6236,
      "## عمل": 6237,
      "## بل": 6238,
      "##ة وم": 6239,
      "##بين ": 6240,
      "## لا ي": 6241,
      "## بين ": 6242,
      "## جز": 6243,
      "##جا": 6244,
      "## كم": 6245,
      "## خط": 6246,
      "##ة الد": 6247,
      "##سكري": 6248,
      "##صاب": 6249,
      "##5.": 6250,
      "## الإم": 6251,
      "##فوق": 6252,
      "##ات الس": 6253,
      "##جب": 6254,
      "##12": 6255,
      "##ذكر": 6256,
      "##انية": 6257,
      "##6.": 6258,
      "##، وهو": 6259,
      "##نجليز": 6260,
      "##يسي": 6261,
      "## وز": 6262,
      "##هاي": 6263,
      "## من خلال": 6264,
      "## نظام": 6265,
      "##براط": 6266,
      "##نع": 6267,
      "## الثاني": 6268,
      "##طفال": 6269,
      "##او": 6270,
      "##غر": 6271,
      "##بط": 6272,
      "## 8": 6273,
      "## ثلاث": 6274,
      "## الشمال": 6275,
      "## أسر": 6276,
      "##10": 6277,
      "## درج": 6278,
      "## وهو": 6279,
      "## علم": 6280,
      "##وال": 6281,
      "##جتمع": 6282,
      "## دخل": 6283,
      "## عام 1": 6284,
      "## به": 6285,
      "## الذين ": 6286,
      "## وفي": 6287,
      "##عود": 6288,
      "##ستر": 6289,
      "## المنطق": 6290,
      "## بر": 6291,
      "##واقع": 6292,
      "##واب": 6293,
      "## بالم": 6294,
      "##عند": 6295,
      "## إحدى": 6296,
      "##ارك": 6297,
      "##وير": 6298,
      "##خير": 6299,
      "## عبر": 6300,
      "##: «": 6301,
      "## كوريا": 6302,
      "##كري": 6303,
      "##افي": 6304,
      "##ثاف": 6305,
      "##نتج": 6306,
      "##لماني": 6307,
      "## سن ال": 6308,
      "##نوات": 6309,
      "## ري": 6310,
      "##صلي": 6311,
      "##ة الر": 6312,
      "## أيضا": 6313,
      "##لع": 6314,
      "##، في": 6315,
      "##بنى": 6316,
      "##جري": 6317,
      "## عاد": 6318,
      "##تكون": 6319,
      "## وإ": 6320,
      "##من ": 6321,
      "## إذ": 6322,
      "##ليف": 6323,
      "##وات": 6324,
      "##أي": 6325,
      "##دم": 6326,
      "##بت": 6327,
      "##شارك": 6328,
      "##. ك": 6329,
      "##تفاع": 6330,
      "##المي": 6331,
      "##صال": 6332,
      "##اعي": 6333,
      "##وقع": 6334,
      "##ة الأولى": 6335,
      "##هور": 6336,
      "## معظم": 6337,
      "##نيس": 6338,
      "##نسي": 6339,
      "##اتحاد": 6340,
      "##صح": 6341,
      "## يمكن": 6342,
      "##تمد": 6343,
      "##راك": 6344,
      "## المو": 6345,
      "## 10": 6346,
      "## الوقت": 6347,
      "##زع": 6348,
      "## حجم": 6349,
      "## حرف": 6350,
      "##زيد": 6351,
      "##حيد": 6352,
      "##200": 6353,
      "##صبحت": 6354,
      "##قوم": 6355,
      "## 9": 6356,
      "##ين ال": 6357,
      "## تط": 6358,
      "## قر": 6359,
      "##رئيسي": 6360,
      "## ضم": 6361,
      "##أن": 6362,
      "##، تم": 6363,
      "## المت": 6364,
      "## الرغم": 6365,
      "##اسع": 6366,
      "##طني": 6367,
      "##سمح": 6368,
      "##20": 6369,
      "##ة أخرى": 6370,
      "##طاق": 6371,
      "## لكل": 6372,
      "## نسب": 6373,
      "## إلى م": 6374,
      "## .": 6375,
      "##حكم": 6376,
      "##ة، وال": 6377,
      "##اند": 6378,
      "##طار": 6379,
      "## ظ": 6380,
      "## مربع": 6381,
      "##بلغ عدد": 6382,
      "##واحد": 6383,
      "##صار": 6384,
      "## المد": 6385,
      "## الدي": 6386,
      "##قلي": 6387,
      "##ة التي ت": 6388,
      "##اول": 6389,
      "## شي": 6390,
      "##ات الح": 6391,
      "##صدر": 6392,
      "##سكان ": 6393,
      "##ات ت": 6394,
      "## مو": 6395,
      "##نين": 6396,
      "##حيط": 6397,
      "## قال": 6398,
      "##غط": 6399,
      "##er": 6400,
      "##ها مع": 6401,
      "##ولا": 6402,
      "##حري": 6403,
      "## والتي": 6404,
      "##خب": 6405,
      "##بعض": 6406,
      "##نية ": 6407,
      "## وهي": 6408,
      "##ن ي": 6409,
      "##حث": 6410,
      "##سباني": 6411,
      "## أس": 6412,
      "##لس": 6413,
      "##تين": 6414,
      "## شرك": 6415,
      "##% من ": 6416,
      "##ثار": 6417,
      "## دون": 6418,
      "##ه ب": 6419,
      "##7.": 6420,
      "##ها م": 6421,
      "## البي": 6422,
      "##واج": 6423,
      "##فع": 6424,
      "##سماء": 6425,
      "##لاب": 6426,
      "## العمل": 6427,
      "## سكانها ": 6428,
      "##شد": 6429,
      "##شخص": 6430,
      "## احت": 6431,
      "## الخاص": 6432,
      "##دور": 6433,
      "##اهر": 6434,
      "## كيل": 6435,
      "##، أو": 6436,
      "##ومي": 6437,
      "## الشر": 6438,
      "##راج": 6439,
      "##ائيل": 6440,
      "##8.": 6441,
      "## فتر": 6442,
      "##، على": 6443,
      "##ناث": 6444,
      "##ها.": 6445,
      "##، وقد": 6446,
      "##قف": 6447,
      "## 20": 6448,
      "## وحد": 6449,
      "##ة. ي": 6450,
      "##ة السكان": 6451,
      "##ليس": 6452,
      "##نوع": 6453,
      "## مقال": 6454,
      "##تبار": 6455,
      "## بسبب": 6456,
      "##15": 6457,
      "##بين ال": 6458,
      "## سن الثامنة عشر": 6459,
      "## سن": 6460,
      "## رئيس": 6461,
      "##قتص": 6462,
      "##توبر": 6463,
      "##لاج": 6464,
      "##عبد": 6465,
      "##ة هي": 6466,
      "## حال": 6467,
      "##بك": 6468,
      "##لل": 6469,
      "## شكل": 6470,
      "##ة:": 6471,
      "##ة للم": 6472,
      "## حول": 6473,
      "##بارا": 6474,
      "##انت": 6475,
      "##زد": 6476,
      "##ودي": 6477,
      "## ار": 6478,
      "##سلسل": 6479,
      "##كا": 6480,
      "##ناصر": 6481,
      "##كن ال": 6482,
      "##قار": 6483,
      "## دور": 6484,
      "##دع": 6485,
      "##سجل": 6486,
      "##ثلاث": 6487,
      "## الحال": 6488,
      "##ذهب": 6489,
      "## الجنوبي": 6490,
      "##وليو": 6491,
      "##حرك": 6492,
      "##201": 6493,
      "##فريقي": 6494,
      "## على م": 6495,
      "##راف": 6496,
      "##e ": 6497,
      "##ما أ": 6498,
      "## الساكن": 6499,
      "##نفس": 6500,
      "##واسط": 6501,
      "## من أصل": 6502,
      "##عودي": 6503,
      "##، وفي": 6504,
      "## الوسط": 6505,
      "##ان و": 6506,
      "##ارد": 6507,
      "##. وت": 6508,
      "##ونيو": 6509,
      "##لعب": 6510,
      "##سام": 6511,
      "##لا ": 6512,
      "##سين": 6513,
      "##، ثم": 6514,
      "##اضي": 6515,
      "## ذكر": 6516,
      "##ة أي": 6517,
      "## الحكوم": 6518,
      "## اخت": 6519,
      "##ان في": 6520,
      "## أبو": 6521,
      "##نق": 6522,
      "##ها على": 6523,
      "##هما": 6524,
      "##ما فوق": 6525,
      "##مين": 6526,
      "##هرب": 6527,
      "## فيه": 6528,
      "##ة الف": 6529,
      "##دل": 6530,
      "##13": 6531,
      "## عام 18": 6532,
      "##اخل": 6533,
      "##، ولك": 6534,
      "## فر": 6535,
      "## أكتوبر": 6536,
      "##ة «": 6537,
      "##نب": 6538,
      "##فراد": 6539,
      "## خل": 6540,
      "##ائية ": 6541,
      "## الخل": 6542,
      "##ت م": 6543,
      "## تاريخ": 6544,
      "## في عام 19": 6545,
      "##رابعة وال": 6546,
      "##هدف": 6547,
      "##باشر": 6548,
      "##اخ": 6549,
      "##ية من ": 6550,
      "##مكن": 6551,
      "## الفتر": 6552,
      "## 199": 6553,
      "## الري": 6554,
      "##ظري": 6555,
      "##9.": 6556,
      "## وقت": 6557,
      "##سرائيل": 6558,
      "## أنها ": 6559,
      "##لو": 6560,
      "##ة عن ": 6561,
      "## وك": 6562,
      "##باب": 6563,
      "## الرو": 6564,
      "##أربع": 6565,
      "##14": 6566,
      "##اصم": 6567,
      "## البعض": 6568,
      "## السلط": 6569,
      "## ماي": 6570,
      "##ائع": 6571,
      "##غال": 6572,
      "## لدي": 6573,
      "##واعد": 6574,
      "##16": 6575,
      "##ٔة ال": 6576,
      "## المجموع": 6577,
      "## نادي": 6578,
      "##قرا": 6579,
      "##ين وال": 6580,
      "##ات من ال": 6581,
      "## في ب": 6582,
      "##فاع": 6583,
      "## نشر": 6584,
      "##، والتي": 6585,
      "##سمبر": 6586,
      "##ولوج": 6587,
      "## التركيب": 6588,
      "##ات الع": 6589,
      "##لين": 6590,
      "##كلم": 6591,
      "##ميز": 6592,
      "##an": 6593,
      "##تقع": 6594,
      "##نسب": 6595,
      "##ها إلى": 6596,
      "##كتش": 6597,
      "## بالإضافة إلى": 6598,
      "##مان": 6599,
      "##ة الي": 6600,
      "## ني": 6601,
      "## الشع": 6602,
      "##راضي": 6603,
      "## حوالي": 6604,
      "## أن ت": 6605,
      "## 16": 6606,
      "##ساح": 6607,
      "##دخل": 6608,
      "##طاع": 6609,
      "## يناير": 6610,
      "##طالي": 6611,
      "## 15": 6612,
      "##ركب": 6613,
      "##in": 6614,
      "## نوع": 6615,
      "##بريل": 6616,
      "##طلح": 6617,
      "##قد ت": 6618,
      "##لا ي": 6619,
      "## المسي": 6620,
      "##. بلغ عدد": 6621,
      "##وا ": 6622,
      "##قاف": 6623,
      "##سيم": 6624,
      "##درج": 6625,
      "##ومتر": 6626,
      "##سخ": 6627,
      "## اع": 6628,
      "##شف": 6629,
      "##حب": 6630,
      "## الأرض": 6631,
      "##لدي": 6632,
      "##الث": 6633,
      "## عندما ": 6634,
      "## البحر": 6635,
      "##74": 6636,
      "## خاص": 6637,
      "## تص": 6638,
      "##تعلق": 6639,
      "## اليوم": 6640,
      "##مهوري": 6641,
      "##براطوري": 6642,
      "##اذ": 6643,
      "## بإ": 6644,
      "## الحديث": 6645,
      "##كار": 6646,
      "##وء": 6647,
      "##وية ": 6648,
      "## من الع": 6649,
      "##فين": 6650,
      "##ساسي": 6651,
      "## وب": 6652,
      "##، وهي": 6653,
      "##عشرين": 6654,
      "## زي": 6655,
      "##كبر": 6656,
      "##ينات": 6657,
      "##، وم": 6658,
      "##عاما، و": 6659,
      "##تنا": 6660,
      "##ة بم": 6661,
      "##21": 6662,
      "##خم": 6663,
      "##، أما": 6664,
      "## يونيو": 6665,
      "##مام": 6666,
      "## مربع (": 6667,
      "## مصر": 6668,
      "## التالي": 6669,
      "##استخدام": 6670,
      "##تالي": 6671,
      "##طح": 6672,
      "## بين الخامسة وال": 6673,
      "## أكثر من ": 6674,
      "## عملي": 6675,
      "##توفي": 6676,
      "## أن أ": 6677,
      "##عاما، ونسبة ": 6678,
      "## يوليو": 6679,
      "## المص": 6680,
      "##هند": 6681,
      "##تلك": 6682,
      "## كر": 6683,
      "## عن طريق": 6684,
      "##علي": 6685,
      "##إن ": 6686,
      "## متوسط حجم": 6687,
      "##، ونسبة ": 6688,
      "ال": 6689,
      "##% من الأمريكي": 6690,
      "## يتم": 6691,
      "##فار": 6692,
      "## الوطني": 6693,
      "##ادل": 6694,
      "## في الأ": 6695,
      "## منا": 6696,
      "## إلى ج": 6697,
      "##قى": 6698,
      "## سبيل": 6699,
      "##. تم": 6700,
      "##ساب": 6701,
      "##ميم": 6702,
      "## مدينة ": 6703,
      "##% من أصل": 6704,
      "##ه ل": 6705,
      "##نيف": 6706,
      "## أهم": 6707,
      "## العالمي": 6708,
      "##حال": 6709,
      "##2). و": 6710,
      "##ريطاني": 6711,
      "##ية. و": 6712,
      "##مالي": 6713,
      "##هن": 6714,
      "## حسب": 6715,
      "## الاسم": 6716,
      "##صد": 6717,
      "##كون ال": 6718,
      "## الأخرى": 6719,
      "##يران": 6720,
      "##جعل": 6721,
      "##هام": 6722,
      "##شير": 6723,
      "## أبي": 6724,
      "## الأن": 6725,
      "## الدم": 6726,
      "##هاز": 6727,
      "##on": 6728,
      "##ضاء": 6729,
      "## مل": 6730,
      "##».": 6731,
      "## محافظ": 6732,
      "##سيس": 6733,
      "## الجنوب": 6734,
      "##أم": 6735,
      "##ة لك": 6736,
      "## لا ": 6737,
      "## اليم": 6738,
      "## القديم": 6739,
      "##صيل": 6740,
      "##حافظ": 6741,
      "##تبط": 6742,
      "##وروبي": 6743,
      "## البواب": 6744,
      "##اتج": 6745,
      "## أع": 6746,
      "## منه": 6747,
      "## الحي": 6748,
      "## السن": 6749,
      "##ابي": 6750,
      "##سنة ": 6751,
      "##ارض": 6752,
      "##جين": 6753,
      "## الأح": 6754,
      "##سيد": 6755,
      "##تين ": 6756,
      "## بها": 6757,
      "##ائق": 6758,
      "##هاد": 6759,
      "##سلم": 6760,
      "##، بين": 6761,
      "##راح": 6762,
      "## منهم": 6763,
      "##ؤدي": 6764,
      "##وسط": 6765,
      "##ة بعد": 6766,
      "## عائل": 6767,
      "##صي": 6768,
      "## أوروب": 6769,
      "## العديد من ال": 6770,
      "##دري": 6771,
      "##غيير": 6772,
      "##عدل": 6773,
      "## اعت": 6774,
      "## الجديد": 6775,
      "## التر": 6776,
      "##حيان": 6777,
      "## 194": 6778,
      "## نحو": 6779,
      "## في ج": 6780,
      "##قات": 6781,
      "##علام": 6782,
      "## شريك": 6783,
      "##، وت": 6784,
      "## الصح": 6785,
      "## باسم": 6786,
      "## 14": 6787,
      "##تكون ": 6788,
      "## مليون ": 6789,
      "##ا من ": 6790,
      "## البلاد": 6791,
      "##الية ": 6792,
      "## طريق": 6793,
      "##ويت": 6794,
      "##كب": 6795,
      "## لإ": 6796,
      "##ورد": 6797,
      "##عام 200": 6798,
      "##جنوب": 6799,
      "## كيلومتر": 6800,
      "## بالأ": 6801,
      "##حصاء": 6802,
      "##: ": 6803,
      "## معهم": 6804,
      "## المسلم": 6805,
      "## الأحرف الم": 6806,
      "##ين الأ": 6807,
      "## منها": 6808,
      "##وه": 6809,
      "##30": 6810,
      "##ة القدم": 6811,
      "##انج": 6812,
      "## وف": 6813,
      "## تج": 6814,
      "## فقط": 6815,
      "##عضاء": 6816,
      "##ا لم": 6817,
      "## الكبير": 6818,
      "##25": 6819,
      "## مدين": 6820,
      "## نهاي": 6821,
      "## الإنس": 6822,
      "##ة ش": 6823,
      "## دون وجود": 6824,
      "## قي": 6825,
      "##ة في الم": 6826,
      "##زيز": 6827,
      "## أب": 6828,
      "##رافي": 6829,
      "## ميل": 6830,
      "##دئ": 6831,
      "##حمل": 6832,
      "##خفض": 6833,
      "##ة لم": 6834,
      "##سلط": 6835,
      "##شل": 6836,
      "## أثناء": 6837,
      "## 17": 6838,
      "##% من الأسر": 6839,
      "##اتب": 6840,
      "## إذا ": 6841,
      "##حول": 6842,
      "##ها معيل": 6843,
      "##ائف": 6844,
      "##ولد": 6845,
      "##يمي": 6846,
      "##عن": 6847,
      "## رب": 6848,
      "## يمكن ": 6849,
      "##راز": 6850,
      "##ين م": 6851,
      "## كان ي": 6852,
      "## دون وجود شريك": 6853,
      "##كيل": 6854,
      "## مستوى": 6855,
      "##ة ق": 6856,
      "##ضح": 6857,
      "##تمام": 6858,
      "##فتر": 6859,
      "##دب": 6860,
      "##ة السكانية ": 6861,
      "##تفع": 6862,
      "## للإ": 6863,
      "##وافق": 6864,
      "##وغ": 6865,
      "## الجيش": 6866,
      "##فرد": 6867,
      "##مبر": 6868,
      "##هول": 6869,
      "##حلول": 6870,
      "##، س": 6871,
      "## ون": 6872,
      "##is": 6873,
      "##ذات": 6874,
      "## الشخص": 6875,
      "##ة الخ": 6876,
      "##داخل": 6877,
      "## مش": 6878,
      "## ولا": 6879,
      "##توزع": 6880,
      "## أربع": 6881,
      "## العرب": 6882,
      "##ياه": 6883,
      "## شمال": 6884,
      "##تحقيق": 6885,
      "##ة د": 6886,
      "##هود": 6887,
      "## الثالث": 6888,
      "## ألف": 6889,
      "##كذلك": 6890,
      "##بع": 6891,
      "##وضح": 6892,
      "## 100": 6893,
      "##نان": 6894,
      "## أو أكثر": 6895,
      "##قم": 6896,
      "##ات، و": 6897,
      "##ونس": 6898,
      "## ضد": 6899,
      "##هار": 6900,
      "##ات الب": 6901,
      "## فيها": 6902,
      "## وس": 6903,
      "## مختلف": 6904,
      "##وان ": 6905,
      "##جوم": 6906,
      "## أبريل": 6907,
      "##حوالي": 6908,
      "## الياب": 6909,
      "## مف": 6910,
      "## الخط": 6911,
      "##رنسي": 6912,
      "## سنوات": 6913,
      "##شترك": 6914,
      "## والد": 6915,
      "##قدس": 6916,
      "##ة.\r\n": 6917,
      "## إنشاء": 6918,
      "## مث": 6919,
      "## قو": 6920,
      "##حرار": 6921,
      "## أقل": 6922,
      "## سنة 19": 6923,
      "##دارس": 6924,
      "##جع": 6925,
      "##طلاق": 6926,
      "##ه.": 6927,
      "##ية ت": 6928,
      "## العم": 6929,
      "##سلح": 6930,
      "## المصري": 6931,
      "## عديد": 6932,
      "## المغ": 6933,
      "##ائب": 6934,
      "##ادس": 6935,
      "## الهند": 6936,
      "##ات،": 6937,
      "##ون ب": 6938,
      "##,000": 6939,
      "##جزاء": 6940,
      "##ة وأ": 6941,
      "##ادة ": 6942,
      "##تمل": 6943,
      "## التق": 6944,
      "## الشيخ": 6945,
      "##لسط": 6946,
      "##حصل": 6947,
      "## تو": 6948,
      "##ية ك": 6949,
      "## بو": 6950,
      "## كثير": 6951,
      "##عتقد": 6952,
      "##73": 6953,
      "##امعة ": 6954,
      "##ن الع": 6955,
      "##فظ": 6956,
      "##تميز": 6957,
      "##صوص": 6958,
      "## شر": 6959,
      "##بجدية الكوري": 6960,
      "## الكثير": 6961,
      "##ول مر": 6962,
      "## الاتحاد": 6963,
      "## أحمد": 6964,
      "## وق": 6965,
      "##نين ": 6966,
      "##en": 6967,
      "##خصص": 6968,
      "## إنتاج": 6969,
      "## من الن": 6970,
      "## تي": 6971,
      "##ة والم": 6972,
      "## المب": 6973,
      "## أيضا ": 6974,
      "##جتماع": 6975,
      "## أل": 6976,
      "## متر": 6977,
      "##ناس": 6978,
      "##ه، و": 6979,
      "##ه على": 6980,
      "##ات التي": 6981,
      "## من العمر": 6982,
      "## ابن ": 6983,
      "##تمبر": 6984,
      "##سطس": 6985,
      "##ات.": 6986,
      "## منها ": 6987,
      "## يع": 6988,
      "##اعد": 6989,
      "## الأس": 6990,
      "## 12": 6991,
      "## القو": 6992,
      "##الج": 6993,
      "## يد": 6994,
      "## في ق": 6995,
      "## التاريخ": 6996,
      "##ية من": 6997,
      "##داد": 6998,
      "## الرئيس": 6999,
      "##تحدث": 7000,
      "##ة وي": 7001,
      "## مجلس": 7002,
      "## أصبح": 7003,
      "##ترك": 7004,
      "## 198": 7005,
      "## الغربي": 7006,
      "##انس": 7007,
      "##ية بال": 7008,
      "##وذ": 7009,
      "## استخدم": 7010,
      "##زن": 7011,
      "## الأمر": 7012,
      "##روم": 7013,
      "## سم": 7014,
      "## نوف": 7015,
      "##عدم": 7016,
      "##ه إلى": 7017,
      "##سيا": 7018,
      "##تها ": 7019,
      "##انون": 7020,
      "##ات ب": 7021,
      "##شط": 7022,
      "##ية أو": 7023,
      "## إسرائيل": 7024,
      "## لغ": 7025,
      "##دد": 7026,
      "## عض": 7027,
      "##ة الط": 7028,
      "## جديد": 7029,
      "## الروم": 7030,
      "## واق": 7031,
      "##ات على": 7032,
      "##هير": 7033,
      "##ويس": 7034,
      "##ور. و": 7035,
      "## الوحد": 7036,
      "## 13": 7037,
      "##رفض": 7038,
      "##قتل": 7039,
      "##ة مثل": 7040,
      "##شروع": 7041,
      "## المثال": 7042,
      "## آل": 7043,
      "##شق": 7044,
      "##ة. في": 7045,
      "## /": 7046,
      "##ريبا": 7047,
      "##ar": 7048,
      "## سل": 7049,
      "##روب": 7050,
      "## منت": 7051,
      "## للسكان ": 7052,
      "## عام 199": 7053,
      "## ملك": 7054,
      "## جم": 7055,
      "## البلد": 7056,
      "##حدد": 7057,
      "## وع": 7058,
      "## لاح": 7059,
      "##ارب": 7060,
      "##براير": 7061,
      "##هيم": 7062,
      "##ان ب": 7063,
      "##زواج": 7064,
      "##شكال": 7065,
      "##كلي": 7066,
      "## ولك": 7067,
      "##هاب": 7068,
      "##ابه": 7069,
      "## حق": 7070,
      "##كاني": 7071,
      "##لاع": 7072,
      "## ،": 7073,
      "##شمال": 7074,
      "## نطق": 7075,
      "##تمر": 7076,
      "##توزع التركيب": 7077,
      "##سياس": 7078,
      "## العراق": 7079,
      "##حاول": 7080,
      "##زيم": 7081,
      "##ارز": 7082,
      "##تعليم": 7083,
      "## عرض": 7084,
      "##ين.": 7085,
      "## الجم": 7086,
      "##ريع": 7087,
      "## جي": 7088,
      "##زوج": 7089,
      "##40": 7090,
      "##بيعي": 7091,
      "##ة في م": 7092,
      "## شع": 7093,
      "## حصل": 7094,
      "##وضع": 7095,
      "##نظام": 7096,
      "##طبق": 7097,
      "##ة ط": 7098,
      "##ات ل": 7099,
      "## ظهر": 7100,
      "##ضد": 7101,
      "##حتوي": 7102,
      "## عالم": 7103,
      "##ها، و": 7104,
      "##هانغل": 7105,
      "##لعاب": 7106,
      "## ديسمبر": 7107,
      "## قص": 7108,
      "## أد": 7109,
      "## والذي": 7110,
      "## اخ": 7111,
      "##60": 7112,
      "## الطريق": 7113,
      "##23": 7114,
      "##ة الأمريك": 7115,
      "##جزء": 7116,
      "##ايت": 7117,
      "##جاري": 7118,
      "## فقد": 7119,
      "##عملي": 7120,
      "##ديل": 7121,
      "##يمكن": 7122,
      "##جو": 7123,
      "##زو": 7124,
      "##رار": 7125,
      "##قاطعة ": 7126,
      "## الإنجليز": 7127,
      "##صلاح": 7128,
      "##كسي": 7129,
      "## مارس": 7130,
      "## الأحرف الساكن": 7131,
      "##قسم": 7132,
      "## عهد": 7133,
      "##ما في ذلك": 7134,
      "##لمان": 7135,
      "## متوسط دخل": 7136,
      "## السابق": 7137,
      "## نوفمبر": 7138,
      "##شاط": 7139,
      "##ة الدول": 7140,
      "##جهز": 7141,
      "##ذين ": 7142,
      "##رية م": 7143,
      "##قتصادي": 7144,
      "##تاريخ": 7145,
      "## سبتمبر": 7146,
      "##رام": 7147,
      "##al": 7148,
      "##ذر": 7149,
      "## الكلي": 7150,
      "##جراء": 7151,
      "## يعيش": 7152,
      "## الفرنسي": 7153,
      "## جزء": 7154,
      "##لكتر": 7155,
      "##. بعد": 7156,
      "## سبيل المثال": 7157,
      "##ة الغ": 7158,
      "## طول": 7159,
      "##ة لأ": 7160,
      "## والع": 7161,
      "## الثلاث": 7162,
      "##واجه": 7163,
      "## نظر": 7164,
      "##قيد": 7165,
      "##at": 7166,
      "## في إ": 7167,
      "##طن": 7168,
      "##ية من ال": 7169,
      "## اكتش": 7170,
      "##قافي": 7171,
      "##ة العربي": 7172,
      "##22": 7173,
      "## النظام": 7174,
      "## العر": 7175,
      "##سمية ": 7176,
      "## حكم": 7177,
      "##وا ي": 7178,
      "## الرئيسي": 7179,
      "##زئ": 7180,
      "##ستان": 7181,
      "##. على": 7182,
      "##معنى": 7183,
      "## ام": 7184,
      "##ة ص": 7185,
      "##ة بي": 7186,
      "##تابع": 7187,
      "## داخل": 7188,
      "## والإ": 7189,
      "##ذج": 7190,
      "##عن ": 7191,
      "##ذكور": 7192,
      "## في ت": 7193,
      "##ت على": 7194,
      "##قاوم": 7195,
      "## وضع": 7196,
      "##وتي": 7197,
      "## في حين ": 7198,
      "## الدين": 7199,
      "##فصل": 7200,
      "##ريم": 7201,
      "##ثاني": 7202,
      "##قليم": 7203,
      "##اغ": 7204,
      "##الك": 7205,
      "##11": 7206,
      "## بدأت": 7207,
      "##ة، ت": 7208,
      "##نها ": 7209,
      "##) ب": 7210,
      "## أعمال": 7211,
      "## من ن": 7212,
      "##قاد": 7213,
      "## تحت سن الثامنة عشر": 7214,
      "##سطح": 7215,
      "##ثيل": 7216,
      "## مك": 7217,
      "##لاست": 7218,
      "##) ": 7219,
      "##st": 7220,
      "##ا إلى": 7221,
      "##فاد": 7222,
      "## عليها": 7223,
      "## سطح": 7224,
      "##or": 7225,
      "##يت": 7226,
      "## كتب": 7227,
      "##سرح": 7228,
      "##اتها": 7229,
      "## من أجل": 7230,
      "## من ج": 7231,
      "## أر": 7232,
      "##عامل": 7233,
      "## الشرك": 7234,
      "##بيب": 7235,
      "##لوم": 7236,
      "## ها": 7237,
      "##ستقبل": 7238,
      "## استمر": 7239,
      "##ورت": 7240,
      "##% من الأمريكيين الأ": 7241,
      "##فعل": 7242,
      "## إن ": 7243,
      "##حيح": 7244,
      "##70": 7245,
      "##طلب": 7246,
      "##غراض": 7247,
      "##، بلغ": 7248,
      "##ثالث": 7249,
      "## مركز": 7250,
      "##، تم ت": 7251,
      "##جاب": 7252,
      "## الميلاد": 7253,
      "## التص": 7254,
      "##ة هو": 7255,
      "## إم": 7256,
      "##. وأ": 7257,
      "##ن الح": 7258,
      "##ضل": 7259,
      "##جيش": 7260,
      "##ا فما فوق": 7261,
      "## يبلغ": 7262,
      "## مايو": 7263,
      "## الهي": 7264,
      "## الظ": 7265,
      "## ونسبة ": 7266,
      "##كام": 7267,
      "##عا": 7268,
      "##عيش معهم": 7269,
      "##حداث": 7270,
      "##ية وم": 7271,
      "##اتهم": 7272,
      "##برت": 7273,
      "##تيار": 7274,
      "## المناطق": 7275,
      "## العمر": 7276,
      "##نادي": 7277,
      "##انغ": 7278,
      "##، والذي": 7279,
      "##انو": 7280,
      "##صدار": 7281,
      "##شخاص": 7282,
      "##28": 7283,
      "## الإي": 7284,
      "##، كما ": 7285,
      "##وجه": 7286,
      "## القاد": 7287,
      "##جيل": 7288,
      "##سرع": 7289,
      "##24": 7290,
      "## فبراير": 7291,
      "##ا من ال": 7292,
      "## 2019": 7293,
      "##، الذي": 7294,
      "##ى في": 7295,
      "## التح": 7296,
      "## بالك": 7297,
      "## القي": 7298,
      "##27": 7299,
      "##فاء": 7300,
      "##ستين": 7301,
      "## بلغ": 7302,
      "##ة لكل": 7303,
      "## الأمير": 7304,
      "## (إ": 7305,
      "## تعداد الولايات المتحد": 7306,
      "## الشرق": 7307,
      "## (19": 7308,
      "##نتيج": 7309,
      "##ورك": 7310,
      "##زدوج": 7311,
      "##وخ": 7312,
      "##ورا": 7313,
      "##وش": 7314,
      "##مع ذلك": 7315,
      "## الحكم": 7316,
      "##قلال": 7317,
      "##رخ": 7318,
      "##تمي": 7319,
      "## جنوب": 7320,
      "## المش": 7321,
      "##احب": 7322,
      "##مير": 7323,
      "##جمالي": 7324,
      "##سيط": 7325,
      "##ذب": 7326,
      "##نا ": 7327,
      "## كلي": 7328,
      "##كان ي": 7329,
      "##، بينما ": 7330,
      "##طان": 7331,
      "##م الم": 7332,
      "##حاء": 7333,
      "## بعضهم": 7334,
      "## العلمي": 7335,
      "##واخر": 7336,
      "## انتقل": 7337,
      "##بيق": 7338,
      "## شهر": 7339,
      "## الاحت": 7340,
      "## مكتب": 7341,
      "## العلماء": 7342,
      "##) هو": 7343,
      "##ديمقرا": 7344,
      "## كلم": 7345,
      "##ا. وكانت نسبة ": 7346,
      "##ليدي": 7347,
      "## –": 7348,
      "##اثولي": 7349,
      "##) في": 7350,
      "## الحرك": 7351,
      "##ت الك": 7352,
      "##برز": 7353,
      "##سبع": 7354,
      "##ثماني": 7355,
      "## عكس": 7356,
      "## على أ": 7357,
      "##ساء": 7358,
      "## المقال": 7359,
      "##هاية ": 7360,
      "## الحيا": 7361,
      "## متحرك": 7362,
      "##يغ": 7363,
      "##يمكن ": 7364,
      "## فيلم": 7365,
      "##ت ل": 7366,
      "## رس": 7367,
      "##ديري": 7368,
      "##ة الإسلام": 7369,
      "##وث": 7370,
      "##هم في": 7371,
      "##ايد": 7372,
      "## أمام": 7373,
      "##وعي": 7374,
      "## بن عبد": 7375,
      "##ة، ل": 7376,
      "##ن (": 7377,
      "##درو": 7378,
      "##الح": 7379,
      "## الحد": 7380,
      "##هداف": 7381,
      "##اية ال": 7382,
      "##تبر": 7383,
      "##عاما، ونسبة 2": 7384,
      "##ية»": 7385,
      "## أغسطس": 7386,
      "## المحيط": 7387,
      "##ية مع": 7388,
      "## الوز": 7389,
      "##ة بحسب": 7390,
      "##كنية ": 7391,
      "##ية. ت": 7392,
      "##ختلط": 7393,
      "##فلام": 7394,
      "## الأوروبي": 7395,
      "##ا أ": 7396,
      "## الأولى": 7397,
      "##صل إلى": 7398,
      "##ت إلى": 7399,
      "## اللا": 7400,
      "##فريق": 7401,
      "## وقد": 7402,
      "##رآ": 7403,
      "##داري": 7404,
      "## الماء": 7405,
      "##ة في الع": 7406,
      "##سف": 7407,
      "## مب": 7408,
      "##لفظ": 7409,
      "## كيلومتر مربع (": 7410,
      "## كي": 7411,
      "## منصب": 7412,
      "##ة واحد": 7413,
      "##صط": 7414,
      "##ين، و": 7415,
      "##فرق": 7416,
      "##الف": 7417,
      "##هما ": 7418,
      "## حرك": 7419,
      "##جماع": 7420,
      "##لح": 7421,
      "##تحديد": 7422,
      "##ن على": 7423,
      "##نائي": 7424,
      "## الأمريكي": 7425,
      "## •": 7426,
      "##ارع": 7427,
      "##ية:": 7428,
      "##بواب": 7429,
      "##توا": 7430,
      "##ات الج": 7431,
      "##حاث": 7432,
      "##شح": 7433,
      "##هاء": 7434,
      "##واح": 7435,
      "##وقف": 7436,
      "##فيد": 7437,
      "## تعريف": 7438,
      "##طيع": 7439,
      "##ic": 7440,
      "## عندما ي": 7441,
      "## أح": 7442,
      "##جاج": 7443,
      "## المدينة ": 7444,
      "##تحرير": 7445,
      "## من إ": 7446,
      "##ديق": 7447,
      "##ات الك": 7448,
      "##شعر": 7449,
      "##وسم": 7450,
      "## 196": 7451,
      "## الفر": 7452,
      "##، وكانت نسبة ": 7453,
      "##لاك": 7454,
      "##ات الإ": 7455,
      "##خري": 7456,
      "##مض": 7457,
      "##ناعي": 7458,
      "##ة القديم": 7459,
      "##. كما ": 7460,
      "## 193": 7461,
      "## قد ي": 7462,
      "## التن": 7463,
      "##ية ي": 7464,
      "##ة الجديد": 7465,
      "##كثير": 7466,
      "## الناس": 7467,
      "## 195": 7468,
      "##ون الأ": 7469,
      "##وا في": 7470,
      "##رابط": 7471,
      "##ه،": 7472,
      "##إن ال": 7473,
      "##حيا": 7474,
      "## نسمة بحسب": 7475,
      "##سكان": 7476,
      "##ة آ": 7477,
      "##ية)": 7478,
      "##/ميل": 7479,
      "## الحروف": 7480,
      "##1,": 7481,
      "##عة في": 7482,
      "## السياسي": 7483,
      "##ابت": 7484,
      "##واد": 7485,
      "## والرابعة وال": 7486,
      "## وجه": 7487,
      "##/ميل2). و": 7488,
      "##بناء": 7489,
      "##رغم": 7490,
      "##26": 7491,
      "## المنت": 7492,
      "## كثاف": 7493,
      "##ضط": 7494,
      "## عنه": 7495,
      "## ومن": 7496,
      "##طع": 7497,
      "## مناطق": 7498,
      "## الدولي": 7499,
      "##ة العرب": 7500,
      "## نسخ": 7501,
      "##ة حسب": 7502,
      "## المعروف": 7503,
      "##قليدي": 7504,
      "## قدر": 7505,
      "##هب": 7506,
      "##«ال": 7507,
      "##80": 7508,
      "##هائي": 7509,
      "## المركز": 7510,
      "##، مثل": 7511,
      "## تس": 7512,
      "##ات الن": 7513,
      "##ة عند": 7514,
      "## في س": 7515,
      "##وص": 7516,
      "## واست": 7517,
      "## الحرف": 7518,
      "## قسم": 7519,
      "##ة بشكل": 7520,
      "## كأس": 7521,
      "##جون": 7522,
      "##5 عام": 7523,
      "## بالع": 7524,
      "## شرق": 7525,
      "## بها ": 7526,
      "## العصر": 7527,
      "##ريض": 7528,
      "##بلغت": 7529,
      "## الصف": 7530,
      "##سد": 7531,
      "##لقب": 7532,
      "##ليج": 7533,
      "##دفع": 7534,
      "##، وكان": 7535,
      "##نتر": 7536,
      "##اوي": 7537,
      "##عط": 7538,
      "## شعب": 7539,
      "## قدم": 7540,
      "## وغير": 7541,
      "##ون على": 7542,
      "##ؤول": 7543,
      "##خول": 7544,
      "## عبد الله": 7545,
      "##ألف": 7546,
      "## 2016": 7547,
      "##la": 7548,
      "## الجدول": 7549,
      "##ذا ي": 7550,
      "##ا -": 7551,
      "##عماري": 7552,
      "##تخاب": 7553,
      "## لم ت": 7554,
      "##ة وا": 7555,
      "## دراس": 7556,
      "##صالح": 7557,
      "## الرغم من": 7558,
      "##تال": 7559,
      "##0، و": 7560,
      "## البل": 7561,
      "## التأ": 7562,
      "## أسماء": 7563,
      "##ة الكتاب": 7564,
      "##es": 7565,
      "##ثور": 7566,
      "## D": 7567,
      "##لم ت": 7568,
      "## 2014": 7569,
      "##نطق": 7570,
      "##ظيف": 7571,
      "## كما": 7572,
      "## الجزء": 7573,
      "##75": 7574,
      "##اريس": 7575,
      "##وسف": 7576,
      "## 30": 7577,
      "## وح": 7578,
      "##ة الفر": 7579,
      "## الرس": 7580,
      "## الخامس": 7581,
      "## بلد": 7582,
      "##ناطق": 7583,
      "## نسمة لكل": 7584,
      "## با": 7585,
      "##لادي": 7586,
      "##تألف": 7587,
      "##ار في": 7588,
      "##اهد": 7589,
      "## إيطالي": 7590,
      "##مكن ": 7591,
      "##اعر": 7592,
      "##نز": 7593,
      "##جامع": 7594,
      "##ن الم": 7595,
      "## مثلا": 7596,
      "##مز": 7597,
      "##وصف": 7598,
      "##قياد": 7599,
      "##ة ول": 7600,
      "## لاع": 7601,
      "##ستطيع": 7602,
      "## إعاد": 7603,
      "##ها ت": 7604,
      "##حدود": 7605,
      "## الإسلامي": 7606,
      "##ين،": 7607,
      "## تعني": 7608,
      "##ايات": 7609,
      "## جمع": 7610,
      "## الدوري": 7611,
      "##ة العام": 7612,
      "## والح": 7613,
      "## الجمهوري": 7614,
      "## مصطلح": 7615,
      "##فيذ": 7616,
      "##ه م": 7617,
      "##هودي": 7618,
      "## المقاطع": 7619,
      "## عبار": 7620,
      "##جان": 7621,
      "##تا": 7622,
      "## إن ال": 7623,
      "## إحصاء": 7624,
      "##باط": 7625,
      "## الأخير": 7626,
      "##جين ": 7627,
      "## اه": 7628,
      "## (أ": 7629,
      "## ارتفاع": 7630,
      "##عة لم": 7631,
      "##تطور": 7632,
      "## أخ": 7633,
      "## الني": 7634,
      "## أنث": 7635,
      "## أهل": 7636,
      "##حياء": 7637,
      "##خارج": 7638,
      "## السل": 7639,
      "##وسيقى": 7640,
      "##ونات": 7641,
      "##قرن ال": 7642,
      "## ترك": 7643,
      "##ية. ي": 7644,
      "##تحول": 7645,
      "## الفيلم": 7646,
      "## للتف": 7647,
      "## المنزل": 7648,
      "##هلي": 7649,
      "## عرف": 7650,
      "## مقابل": 7651,
      "## الجامع": 7652,
      "##يع": 7653,
      "##ون من ال": 7654,
      "##دراس": 7655,
      "## بعد ذلك": 7656,
      "##، فقد": 7657,
      "## أنحاء": 7658,
      "##غرافي": 7659,
      "##ها الم": 7660,
      "##مرور": 7661,
      "##شيخ": 7662,
      "##ة الاست": 7663,
      "## المبنى": 7664,
      "##، لكن": 7665,
      "## العرقي": 7666,
      "##تي ت": 7667,
      "##ها ف": 7668,
      "##ة قدر": 7669,
      "##. إلا": 7670,
      "## نج": 7671,
      "##كد": 7672,
      "## بح": 7673,
      "##ة مر": 7674,
      "##برى": 7675,
      "##سار": 7676,
      "## حروف": 7677,
      "##عرض": 7678,
      "##ات الق": 7679,
      "##أسست": 7680,
      "##وحد": 7681,
      "## المملك": 7682,
      "## :": 7683,
      "##ويد": 7684,
      "## الوسطي": 7685,
      "## المرض": 7686,
      "## C": 7687,
      "##ة المتحد": 7688,
      "## وذلك": 7689,
      "## 2013": 7690,
      "##ية إلى": 7691,
      "##38": 7692,
      "## غرب": 7693,
      "## وسط": 7694,
      "##وطن": 7695,
      "## عدد سكانها ": 7696,
      "## سكان ": 7697,
      "##ارئ": 7698,
      "##ة ه": 7699,
      "##نامج": 7700,
      "##ة؛": 7701,
      "##ترتيب": 7702,
      "## لت": 7703,
      "##ة الحديث": 7704,
      "##خرف": 7705,
      "## أعلى": 7706,
      "## أسرة ": 7707,
      "##. كانت": 7708,
      "## أو س": 7709,
      "##79": 7710,
      "## من ذلك": 7711,
      "## منظم": 7712,
      "##قياس": 7713,
      "##ليب": 7714,
      "##وضوع": 7715,
      "##ة الثان": 7716,
      "## الفريق": 7717,
      "## اح": 7718,
      "##% من": 7719,
      "## مبارا": 7720,
      "##ة وعدد": 7721,
      "##ة الأخرى": 7722,
      "##مط": 7723,
      "##قاب": 7724,
      "## 2.": 7725,
      "##إناث": 7726,
      "##ا عن ": 7727,
      "##ضمن": 7728,
      "##قض": 7729,
      "##ضاد": 7730,
      "##جاء": 7731,
      "## السم": 7732,
      "## الجزير": 7733,
      "##ه الم": 7734,
      "## بناء": 7735,
      "##تمثل": 7736,
      "##ران ": 7737,
      "##صول على": 7738,
      "##لفزي": 7739,
      "##اية ": 7740,
      "##تيش": 7741,
      "##، ح": 7742,
      "##ها من ": 7743,
      "## محاول": 7744,
      "##فو": 7745,
      "##فن": 7746,
      "##ذور": 7747,
      "## كان لدي": 7748,
      "## بأنه": 7749,
      "## لعب": 7750,
      "## رأس": 7751,
      "##مريكا": 7752,
      "##ديو": 7753,
      "##ة، ي": 7754,
      "##لاحظ": 7755,
      "##ة بنسبة ": 7756,
      "##باح": 7757,
      "##طال": 7758,
      "##ية هي": 7759,
      "## 2015": 7760,
      "##سيطر": 7761,
      "##تاسع": 7762,
      "## الآن": 7763,
      "##ين ب": 7764,
      "##علوم": 7765,
      "## ويكيبيديا ب": 7766,
      "## ويكيبيديا الإنجليز": 7767,
      "##شئ": 7768,
      "##شمل": 7769,
      "## إدار": 7770,
      "## ألماني": 7771,
      "## فيها ": 7772,
      "## مار": 7773,
      "##تحمل": 7774,
      "## أي مقال": 7775,
      "## أي مقالة على": 7776,
      "## القاط": 7777,
      "## الإمبراطوري": 7778,
      "## بعضهم البعض": 7779,
      "## عمر": 7780,
      "## جدار": 7781,
      "## 25": 7782,
      "## البارز": 7783,
      "## القص": 7784,
      "## عائلة م": 7785,
      "## بني": 7786,
      "## مجل": 7787,
      "## نفسه": 7788,
      "## هون": 7789,
      "## النوع": 7790,
      "## جو": 7791,
      "##شب": 7792,
      "## للح": 7793,
      "##ما بعد": 7794,
      "## الأسرة الم": 7795,
      "## ضمن في": 7796,
      "##داء": 7797,
      "## العزيز": 7798,
      "##غلب": 7799,
      "## 24": 7800,
      "## الجنسي": 7801,
      "## A": 7802,
      "##، إلا": 7803,
      "##ميت": 7804,
      "##بالتالي": 7805,
      "##ائيلي": 7806,
      "##، حتى": 7807,
      "##تعرف": 7808,
      "## لمد": 7809,
      "##اتف": 7810,
      "##باس": 7811,
      "## نسبة الأ": 7812,
      "##رئاس": 7813,
      "## الثور": 7814,
      "## وص": 7815,
      "##عائل": 7816,
      "##رياض": 7817,
      "##، وكانت": 7818,
      "##ين عام": 7819,
      "##نغ": 7820,
      "## لك": 7821,
      "## التي ي": 7822,
      "## فريق": 7823,
      "##خاب": 7824,
      "##فارق": 7825,
      "## بطول": 7826,
      "## الشمالي": 7827,
      "##ا لأ": 7828,
      "##قيمة في": 7829,
      "## كوريا الجنوبي": 7830,
      "##رت": 7831,
      "## الفئة ال": 7832,
      "## للأسر": 7833,
      "##هوم": 7834,
      "## كال": 7835,
      "## إليه": 7836,
      "##ضمن ": 7837,
      "## برو": 7838,
      "## صغير": 7839,
      "##غيل": 7840,
      "##صغر": 7841,
      "## نتيج": 7842,
      "## الرابع": 7843,
      "## الغرب": 7844,
      "## بالنسب": 7845,
      "## غال": 7846,
      "##29": 7847,
      "## S": 7848,
      "## أطلق": 7849,
      "## نسمة حسب": 7850,
      "##فور": 7851,
      "## عدم": 7852,
      "##ون أو": 7853,
      "## حرب": 7854,
      "## ضمن فئة ال": 7855,
      "##ائري": 7856,
      "## السعودي": 7857,
      "## لكل 100": 7858,
      "##سو": 7859,
      "##ورغ": 7860,
      "##سياسي": 7861,
      "##ة ر": 7862,
      "##، وبلغت": 7863,
      "##سرائيلي": 7864,
      "##35": 7865,
      "##ديها أ": 7866,
      "##صيب": 7867,
      "## عقد": 7868,
      "## مؤسس": 7869,
      "##أحرف": 7870,
      "##مارس": 7871,
      "##نين مع": 7872,
      "##. وبلغ": 7873,
      "##بدو": 7874,
      "##دعى": 7875,
      "##ا. في": 7876,
      "##ية والم": 7877,
      "##% من غير": 7878,
      "## اتف": 7879,
      "## بعد أن ": 7880,
      "## M": 7881,
      "## الفئة العم": 7882,
      "##قري": 7883,
      "##تنوع": 7884,
      "##ة من الأ": 7885,
      "##ون،": 7886,
      "## الطاق": 7887,
      "##شاهد": 7888,
      "##لازم": 7889,
      "الب": 7890,
      "## فبلغ": 7891,
      "##عشرين ": 7892,
      "##ذك": 7893,
      "##أل": 7894,
      "## واقعة في": 7895,
      "## نسمة بحسب تعداد": 7896,
      "##فيف": 7897,
      "##بلغ عدد الأسر": 7898,
      "##حيف": 7899,
      "##ة عشر": 7900,
      "##% بين ال": 7901,
      "## أسرة وعدد": 7902,
      "## الترتيب": 7903,
      "##توزع التركيب العرقي": 7904,
      "##0، وبلغ عدد الأسر": 7905,
      "## عائلة مقيمة في": 7906,
      "## أسرة وعدد العائلات": 7907,
      "## البريطاني": 7908,
      "##خامسة والست": 7909,
      "##رية ما": 7910,
      "##امر": 7911,
      "## ما بين الخامسة وال": 7912,
      "##% كانت واقعة في": 7913,
      "## الفئة العمرية ما": 7914,
      "##% كانت واقعة في الفئة العمرية ما": 7915,
      "##% كانت واقعة في الفئة العمرية ما بين الخامسة وال": 7916,
      "##% كانت ما بين الخامسة وال": 7917,
      "##% كانت ما بين الخامسة والأربع": 7918,
      "##قيل": 7919,
      "##% كانت ضمن فئة ال": 7920,
      "##% كانت ضمن فئة الخامسة والست": 7921,
      "## نقل": 7922,
      "## قد ت": 7923,
      "## العمر الوسطي": 7924,
      "## العمر الوسطي للسكان ": 7925,
      "##لز": 7926,
      "##ون و": 7927,
      "##ات الص": 7928,
      "## اللات": 7929,
      "##% من البيض": 7930,
      "##. بلغ العمر الوسطي للسكان ": 7931,
      "## المجموع الكلي": 7932,
      "##% بين الثامنة عشر": 7933,
      "##زهر": 7934,
      "## شهد": 7935,
      "##ذاك": 7936,
      "##موذج": 7937,
      "## تعيش معهم": 7938,
      "##ها لديها أ": 7939,
      "##طفال تحت سن الثامنة عشر": 7940,
      "## أسرة كانت نسبة ": 7941,
      "##% منها لديها أ": 7942,
      "##طفال تحت سن الثامنة عشر تعيش معهم": 7943,
      "##% منها لديها أطفال تحت سن الثامنة عشر تعيش معهم": 7944,
      "##روح": 7945,
      "## دم": 7946,
      "## حالي": 7947,
      "##% من أصل المجموع الكلي": 7948,
      "##زواج القاط": 7949,
      "## نسبة الأزواج القاط": 7950,
      "##، وبلغت نسبة الأزواج القاط": 7951,
      "##نين مع بعضهم البعض": 7952,
      "##% من غير العائلات": 7953,
      "##% منها لديها أطفال تحت سن الثامنة عشر تعيش معهم، وبلغت نسبة الأزواج القاط": 7954,
      "##% من أصل المجموع الكلي للأسر": 7955,
      "##% منها لديها أطفال تحت سن الثامنة عشر تعيش معهم، وبلغت نسبة الأزواج القاطنين مع بعضهم البعض": 7956,
      "##ة الشرق": 7957,
      "## في كتاب": 7958,
      "##فلسط": 7959,
      "##رث": 7960,
      "##، مع": 7961,
      "## فرن": 7962,
      "##جمه": 7963,
      "##عيشية ": 7964,
      "##كول": 7965,
      "##سباب": 7966,
      "##ضار": 7967,
      "## مركب": 7968,
      "## الشعب": 7969,
      "## العائلات فبلغ": 7970,
      "##، أما متوسط حجم": 7971,
      "## متوسط حجم الأسرة الم": 7972,
      "##، أما متوسط حجم العائلات فبلغ": 7973,
      "## متوسط حجم الأسرة المعيشية ": 7974,
      "##. وبلغ متوسط حجم الأسرة المعيشية ": 7975,
      "##ثافة السكانية ": 7976,
      "## إلى المدين": 7977,
      "##تاح": 7978,
      "##قاطنين ": 7979,
      "##اثوليك": 7980,
      "##اقتص": 7981,
      "##شو": 7982,
      "## هان": 7983,
      "## الآسي": 7984,
      "## ابن": 7985,
      "## تف": 7986,
      "##عمار": 7987,
      "## الآخر": 7988,
      "##تحت سن الثامنة عشر": 7989,
      "##قاطنين تحت سن الثامنة عشر": 7990,
      "## شتى": 7991,
      "##% من القاطنين تحت سن الثامنة عشر": 7992,
      "## لكل 100 أنث": 7993,
      "##وجد لكل 100 أنث": 7994,
      "## يبلغ من العمر": 7995,
      "## أصبحت": 7996,
      "##طور": 7997,
      "##براهيم": 7998,
      "## أنظم": 7999,
      "## قبل الميلاد": 8000,
      "##% من القاطنين تحت سن الثامنة عشر، وكانت نسبة ": 8001,
      "##ين الم": 8002,
      "##ناح": 8003,
      "##ية ال": 8004,
      "## مز": 8005,
      "##ؤسس": 8006,
      "##غداد": 8007,
      "##48": 8008,
      "## إس": 8009,
      "## طائر": 8010,
      "##ة عن": 8011,
      "## تطوير": 8012,
      "## الدور": 8013,
      "##ألفت": 8014,
      "## شارك": 8015,
      "## الهانج": 8016,
      "## للك": 8017,
      "##ات التي ت": 8018,
      "## الجدول التالي": 8019,
      "##ᅵ (": 8020,
      "##واق": 8021,
      "## الأبجدية الكورية في": 8022,
      "##ات من الإناث": 8023,
      "##% من الأسر كان لدي": 8024,
      "##ها معيلات من الإناث": 8025,
      "##% من أصل المجموع الكلي للأسر، ونسبة ": 8026,
      "##% من الأسر كان لديها معيلات من الإناث": 8027,
      "##% من الأسر كان لديها معيلات من الإناث دون وجود شريك": 8028,
      "##. كان": 8029,
      "##زيئ": 8030,
      "##سكند": 8031,
      "##رفع": 8032,
      "##78": 8033,
      "## الدراس": 8034,
      "##غب": 8035,
      "## مساح": 8036,
      "##ائه": 8037,
      "##. تألفت": 8038,
      "##99": 8039,
      "## العسكري": 8040,
      "##مبي": 8041,
      "##ة غير": 8042,
      "##صلب": 8043,
      "##. وب": 8044,
      "## المسيح": 8045,
      "##ها من ال": 8046,
      "##ثمان": 8047,
      "## الوحدات الس": 8048,
      "## من العناصر": 8049,
      "##، فقد ت": 8050,
      "##ة بمتوسط": 8051,
      "## محل": 8052,
      "##ة قدره": 8053,
      "##4.\r\n": 8054,
      "## نهاية ": 8055,
      "## 65 عام": 8056,
      "##جاز": 8057,
      "##ن الإ": 8058,
      "##ت الكثافة السكانية ": 8059,
      "##عرق": 8060,
      "## تعداد سكانها ": 8061,
      "## الوحدات السكنية ": 8062,
      "## كار": 8063,
      "##ون (": 8064,
      "##بلغ عدد الوحدات السكنية ": 8065,
      "## وحدة بمتوسط": 8066,
      "##سجلت الكثافة السكانية ": 8067,
      "## كثافة قدره": 8068,
      "## وحدة بمتوسط كثافة قدره": 8069,
      "## العثماني": 8070,
      "## جميع الأسر": 8071,
      "##تحتوي": 8072,
      "## الطائر": 8073,
      "##. بلغ عدد الأسر": 8074,
      "##76": 8075,
      "## بعض الأ": 8076,
      "## نهر": 8077,
      "##حاكم": 8078,
      "## سلط": 8079,
      "##كتو": 8080,
      "## 11": 8081,
      "## عديدة ": 8082,
      "##اكم": 8083,
      "##قاء": 8084,
      "##/كم": 8085,
      "##»، و": 8086,
      "## الأبواب": 8087,
      "##% من أصل جميع الأسر": 8088,
      "##% من غير العائلات. تألفت": 8089,
      "##% من غير العائلات. تألفت نسبة ": 8090,
      "## يبلغ من العمر 65 عام": 8091,
      "## بع": 8092,
      "## أحيان": 8093,
      "##ف في": 8094,
      "##el": 8095,
      "##ة. في حين ": 8096,
      "##قتر": 8097,
      "##ستور": 8098,
      "## وصف": 8099,
      "##رفي": 8100,
      "## التي تعد": 8101,
      "##سمح بال": 8102,
      "## القب": 8103,
      "##اب أو": 8104,
      "##تشي": 8105,
      "##اين": 8106,
      "## ذات": 8107,
      "## الطبيع": 8108,
      "##الد": 8109,
      "##تماد": 8110,
      "## عام 198": 8111,
      "## الاع": 8112,
      "##بيد": 8113,
      "##ة لتحقيق": 8114,
      "##ت الم": 8115,
      "## «م": 8116,
      "##قرار": 8117,
      "## إلى جانب": 8118,
      "##تعتبر": 8119,
      "##. ولد": 8120,
      "## أف": 8121,
      "## الشرقي": 8122,
      "##ريس": 8123,
      "## ذلك الوقت": 8124,
      "## را": 8125,
      "##90": 8126,
      "##36": 8127,
      "##. ا": 8128,
      "## المسيحي": 8129,
      "##نظر": 8130,
      "## صف": 8131,
      "## سلسل": 8132,
      "## يقول": 8133,
      "##فاعل": 8134,
      "##ة، وي": 8135,
      "##ة. في حين سجلت الكثافة السكانية ": 8136,
      "##اجتم": 8137,
      "## حكوم": 8138,
      "##ميد": 8139,
      "## حدث": 8140,
      "##ادث": 8141,
      "##جزر": 8142,
      "## من الإ": 8143,
      "##ضاع": 8144,
      "## جزير": 8145,
      "## الإنسان": 8146,
      "## الحزب": 8147,
      "##ا للم": 8148,
      "## التس": 8149,
      "##ساهم": 8150,
      "## جامع": 8151,
      "## ‏ هي": 8152,
      "##غن": 8153,
      "## بير": 8154,
      "##، وب": 8155,
      "## حساب": 8156,
      "##كرة القدم": 8157,
      "## مباشر": 8158,
      "## معرك": 8159,
      "##نساء": 8160,
      "##نقل": 8161,
      "## صور": 8162,
      "## السوفي": 8163,
      "##رنامج": 8164,
      "##ت هذه": 8165,
      "##نظم": 8166,
      "##96": 8167,
      "##ة عام": 8168,
      "## يقام": 8169,
      "##هندس": 8170,
      "## منتصف": 8171,
      "## الكنيس": 8172,
      "##قود": 8173,
      "##، فأ": 8174,
      "##قتصاد": 8175,
      "##»،": 8176,
      "## خمس": 8177,
      "##ات الف": 8178,
      "##راري": 8179,
      "##ا وال": 8180,
      "## طويل": 8181,
      "## الأصلي": 8182,
      "## الجسم": 8183,
      "## المواد": 8184,
      "##95": 8185,
      "أ": 8186,
      "##سلوب": 8187,
      "##ائج": 8188,
      "##ورج": 8189,
      "##تعرض": 8190,
      "## كامل": 8191,
      "##ؤدي إلى": 8192,
      "##واصل": 8193,
      "##ة، حيث": 8194,
      "##شتهر": 8195,
      "## الأكثر": 8196,
      "## ·": 8197,
      "## واسع": 8198,
      "##اعتبار": 8199,
      "##قاعد": 8200,
      "##كريم": 8201,
      "##افع": 8202,
      "## اليون": 8203,
      "##رجع": 8204,
      "## القادمين": 8205,
      "## الوحيد": 8206,
      "##جديد": 8207,
      "##ت ت": 8208,
      "##جمهوري": 8209,
      "##ائن": 8210,
      "## التو": 8211,
      "## التابع": 8212,
      "##انك": 8213,
      "##46": 8214,
      "## البحري": 8215,
      "## روم": 8216,
      "## زوج": 8217,
      "##ويكب": 8218,
      "##ة مبنى": 8219,
      "##فاظ": 8220,
      "##اطي": 8221,
      "##فاض": 8222,
      "## الحرب العالمي": 8223,
      "##راكز": 8224,
      "##45": 8225,
      "##33": 8226,
      "## هي تلك": 8227,
      "## من أي": 8228,
      "## الكيمي": 8229,
      "##سان": 8230,
      "## أولي": 8231,
      "##زياء": 8232,
      "## لأول مر": 8233,
      "## هذا الم": 8234,
      "## السياس": 8235,
      "## أفريقي": 8236,
      "## موقع": 8237,
      "##ادة ال": 8238,
      "## ومن ": 8239,
      "##حكوم": 8240,
      "##فير": 8241,
      "## خارج": 8242,
      "## كانت ت": 8243,
      "##خراج": 8244,
      "##. كان ": 8245,
      "##ة المست": 8246,
      "##شيد": 8247,
      "##ة في العمار": 8248,
      "## أن أشهر": 8249,
      "## باستخدام": 8250,
      "##قوش": 8251,
      "##سترالي": 8252,
      "## الأرد": 8253,
      "## يمكن أن ": 8254,
      "##راقي": 8255,
      "## من النبات": 8256,
      "##ا. ت": 8257,
      "## الها": 8258,
      "## مكان": 8259,
      "##واز": 8260,
      "## (م": 8261,
      "## وزار": 8262,
      "##جاه": 8263,
      "## بأن ": 8264,
      "##ين وتز": 8265,
      "## الاقتصادي": 8266,
      "##ة كبير": 8267,
      "## أنواع عديدة ": 8268,
      "## للتفتيش": 8269,
      "##مرور عبر": 8270,
      "##ية للم": 8271,
      "##ة، فتز": 8272,
      "##توفي بأ": 8273,
      "## لاحق": 8274,
      "##مم": 8275,
      "##. وتستقبل": 8276,
      "## المبنى.\r\n": 8277,
      "##ور. وله": 8278,
      "##ايا ": 8279,
      "## البطول": 8280,
      "##ستخدم البواب": 8281,
      "##ة أو للتفتيش": 8282,
      "##ة أو المبنى.\r\n": 8283,
      "## ليسمح بال": 8284,
      "## البوابة مبنى": 8285,
      "##غراض شتى": 8286,
      "## تعريفة أو للتفتيش": 8287,
      "## مثلا. إلا": 8288,
      "##خرف. وتستقبل": 8289,
      "## أو سور. وله": 8290,
      "## جدار أو سور. وله": 8291,
      "## البارزة في العمار": 8292,
      "الباب أو": 8293,
      "## إلى المدينة أو المبنى.\r\n": 8294,
      "## من العناصر البارزة في العمار": 8295,
      "##، فقد تستخدم البواب": 8296,
      "## الأبواب هي تلك": 8297,
      "## التي تعد من العناصر البارزة في العمار": 8298,
      "##ة لتحقيق تعريفة أو للتفتيش": 8299,
      "## يقام ليسمح بال": 8300,
      "## القادمين إلى المدينة أو المبنى.\r\n": 8301,
      "## أن أشهر الأبواب هي تلك": 8302,
      "##ين وتزخرف. وتستقبل": 8303,
      "## أنواع عديدة توفي بأ": 8304,
      "##مرور عبر جدار أو سور. وله": 8305,
      "##ة، فتزين وتزخرف. وتستقبل": 8306,
      "## البوابة مبنى يقام ليسمح بال": 8307,
      "##غراض شتى، فقد تستخدم البواب": 8308,
      "## مثلا. إلا أن أشهر الأبواب هي تلك": 8309,
      "الباب أو البوابة مبنى يقام ليسمح بال": 8310,
      "## التي تعد من العناصر البارزة في العمارة، فتزين وتزخرف. وتستقبل": 8311,
      "##ة لتحقيق تعريفة أو للتفتيش مثلا. إلا أن أشهر الأبواب هي تلك": 8312,
      "## أنواع عديدة توفي بأغراض شتى، فقد تستخدم البواب": 8313,
      "##مرور عبر جدار أو سور. وله أنواع عديدة توفي بأغراض شتى، فقد تستخدم البواب": 8314,
      "الباب أو البوابة مبنى يقام ليسمح بالمرور عبر جدار أو سور. وله أنواع عديدة توفي بأغراض شتى، فقد تستخدم البواب": 8315,
      "## التي تعد من العناصر البارزة في العمارة، فتزين وتزخرف. وتستقبل القادمين إلى المدينة أو المبنى.\r\n": 8316,
      "##ة لتحقيق تعريفة أو للتفتيش مثلا. إلا أن أشهر الأبواب هي تلك التي تعد من العناصر البارزة في العمارة، فتزين وتزخرف. وتستقبل القادمين إلى المدينة أو المبنى.\r\n": 8317,
      "الباب أو البوابة مبنى يقام ليسمح بالمرور عبر جدار أو سور. وله أنواع عديدة توفي بأغراض شتى، فقد تستخدم البوابة لتحقيق تعريفة أو للتفتيش مثلا. إلا أن أشهر الأبواب هي تلك التي تعد من العناصر البارزة في العمارة، فتزين وتزخرف. وتستقبل القادمين إلى المدينة أو المبنى.\r\n": 8318,
      "##لكن ": 8319,
      "##تشكل": 8320,
      "##عني": 8321,
      "## الأع": 8322,
      "##صوتي": 8323,
      "##. لقد": 8324,
      "##وجب": 8325,
      "## تحديد": 8326,
      "##ائح": 8327,
      "## أساس": 8328,
      "##روج": 8329,
      "##it": 8330,
      "## عصر": 8331,
      "## العظيم": 8332,
      "##ة العالم": 8333,
      "## المجتمع": 8334,
      "## إل": 8335,
      "##ية ع": 8336,
      "## القمر": 8337,
      "##». و": 8338,
      "##لقى": 8339,
      "## أمر": 8340,
      "## تأسيس": 8341,
      "## نطاق": 8342,
      "##راث": 8343,
      "##، ومن": 8344,
      "##ة خ": 8345,
      "##، لكن ": 8346,
      "## أما": 8347,
      "## الثام": 8348,
      "## التش": 8349,
      "## النبات": 8350,
      "## هدف": 8351,
      "##، أصبح": 8352,
      "##تان": 8353,
      "##ها. و": 8354,
      "## الهواء": 8355,
      "## تقريب": 8356,
      "##تغ": 8357,
      "## مغ": 8358,
      "##ازي": 8359,
      "## بواسط": 8360,
      "## المل": 8361,
      "##ين أو أكثر": 8362,
      "##، وذلك": 8363,
      "## الاجتماع": 8364,
      "##44": 8365,
      "## عاما. وكانت نسبة ": 8366,
      "## فأ": 8367,
      "##. أما": 8368,
      "## القوات": 8369,
      "##ة لذلك": 8370,
      "##رسال": 8371,
      "## العديد من الم": 8372,
      "## المتوسط": 8373,
      "##انات": 8374,
      "## «أ": 8375,
      "## المرتب": 8376,
      "##، والم": 8377,
      "##وي س": 8378,
      "##احت": 8379,
      "## أفضل": 8380,
      "##وئ": 8381,
      "## المحلي": 8382,
      "##ساط": 8383,
      "##بريط": 8384,
      "##تاسع عشر": 8385,
      "## فلسط": 8386,
      "##جتماعي": 8387,
      "##ثيرا": 8388,
      "##ة اله": 8389,
      "## 2000": 8390,
      "##، كما": 8391,
      "##ظاهر": 8392,
      "## في الع": 8393,
      "## الكلم": 8394,
      "## النف": 8395,
      "##وتو": 8396,
      "## الذي ت": 8397,
      "##تخب": 8398,
      "## العملي": 8399,
      "## لاعب": 8400,
      "##صنع": 8401,
      "## يست": 8402,
      "##ية مثل": 8403,
      "## موسم": 8404,
      "##خلف": 8405,
      "##ة المح": 8406,
      "## لدى": 8407,
      "##ندوني": 8408,
      "## كوريا الشمال": 8409,
      "##كتور": 8410,
      "## كون": 8411,
      "## شبه": 8412,
      "## انتشار": 8413,
      "##ة أن": 8414,
      "## على الأ": 8415,
      "##بوط": 8416,
      "## من ب": 8417,
      "## عام 196": 8418,
      "## 2012": 8419,
      "##يات": 8420,
      "##سيح": 8421,
      "##جونغ": 8422,
      "##us": 8423,
      "##توح": 8424,
      "##لبوم": 8425,
      "##كان في": 8426,
      "##لأ": 8427,
      "## ومع": 8428,
      "## نهاية الم": 8429,
      "##ثري": 8430,
      "##راه": 8431,
      "##زيع": 8432,
      "##ين مختلط": 8433,
      "##). ي": 8434,
      "## في الولايات المتحد": 8435,
      "##شهد": 8436,
      "##% من عرق": 8437,
      "##ين مختلطين أو أكثر": 8438,
      "##% من عرقين مختلطين أو أكثر": 8439,
      "##اون": 8440,
      "##شبه": 8441,
      "##يمن": 8442,
      "##ة السعودي": 8443,
      "##ينغ": 8444,
      "##تطلب": 8445,
      "## نشأ": 8446,
      "##طري": 8447,
      "## طبق": 8448,
      "##تكون ال": 8449,
      "##a ": 8450,
      "## فرنسا": 8451,
      "## حين": 8452,
      "##تقريبا": 8453,
      "##لاسي": 8454,
      "## النادي": 8455,
      "##رجال": 8456,
      "##عشرون ": 8457,
      "##دعم": 8458,
      "## بأن": 8459,
      "## إسباني": 8460,
      "##ربط": 8461,
      "## والأربع": 8462,
      "##ضطراب": 8463,
      "## في الت": 8464,
      "##سين ": 8465,
      "##) بمعنى": 8466,
      "##نر": 8467,
      "##سكر": 8468,
      "## اللي": 8469,
      "##ارجي": 8470,
      "## مهم": 8471,
      "##فال": 8472,
      "##ويم": 8473,
      "##رش": 8474,
      "##ة. وقد": 8475,
      "##اخت": 8476,
      "## نظري": 8477,
      "## الحيوان": 8478,
      "##نك": 8479,
      "##تغير": 8480,
      "## وين": 8481,
      "##ضرب": 8482,
      "##ة، وأ": 8483,
      "##ro": 8484,
      "## تعد": 8485,
      "##لوي": 8486,
      "##دية ": 8487,
      "##نية ال": 8488,
      "## الرحم": 8489,
      "##77": 8490,
      "## حمل": 8491,
      "##شاكل": 8492,
      "##تحف": 8493,
      "## قرى": 8494,
      "##يفي": 8495,
      "##ه بال": 8496,
      "##نط": 8497,
      "##غان": 8498,
      "##اخلي": 8499,
      "## لح": 8500,
      "##حيوان": 8501,
      "## كذلك": 8502,
      "## بج": 8503,
      "## أوائل": 8504,
      "## الكر": 8505,
      "## جائز": 8506,
      "##:\r\n": 8507,
      "##ة جي": 8508,
      "##عام 2004.\r\n": 8509,
      "## قب": 8510,
      "##ترجم": 8511,
      "##ة الأم": 8512,
      "##ويج": 8513,
      "## ليس": 8514,
      "##تأثير": 8515,
      "##إنه": 8516,
      "##كلف": 8517,
      "##تطوير": 8518,
      "##وضح الجدول التالي": 8519,
      "##ما يتعلق": 8520,
      "## الجو": 8521,
      "## 2011": 8522,
      "##ة حتى": 8523,
      "## رجل": 8524,
      "## الجوي": 8525,
      "##خلي": 8526,
      "##واعد الكتاب": 8527,
      "##توجد": 8528,
      "##م المتحد": 8529,
      "## خدم": 8530,
      "## وصل": 8531,
      "##براطور": 8532,
      "##ٔك": 8533,
      "##. كما": 8534,
      "##كادي": 8535,
      "##으": 8536,
      "##ا مع": 8537,
      "##اليد": 8538,
      "## تأثير": 8539,
      "## رسمي": 8540,
      "##انون ال": 8541,
      "## الأحرف المتحرك": 8542,
      "##جونغم": 8543,
      "## باست": 8544,
      "## مجال": 8545,
      "## مكتب تعداد الولايات المتحد": 8546,
      "##ية وأ": 8547,
      "## اصط": 8548,
      "##ضغط": 8549,
      "## السكان": 8550,
      "## حزب": 8551,
      "##ايل": 8552,
      "##تزال": 8553,
      "##نجليزي": 8554,
      "##2010": 8555,
      "##اصر": 8556,
      "##خطوط": 8557,
      "##وكي": 8558,
      "## 23": 8559,
      "## الأخ": 8560,
      "##باست": 8561,
      "## في الن": 8562,
      "## جاء": 8563,
      "##ضيق": 8564,
      "## وفا": 8565,
      "## طلب": 8566,
      "## اللعب": 8567,
      "##ولوجيا": 8568,
      "## بلاد": 8569,
      "## المكون": 8570,
      "## في الس": 8571,
      "## الصيني": 8572,
      "##تعلم": 8573,
      "##ة جد": 8574,
      "## المخ": 8575,
      "## في الق": 8576,
      "##قارن": 8577,
      "## والب": 8578,
      "##ة الز": 8579,
      "## النبي": 8580,
      "##رأ": 8581,
      "##ها بال": 8582,
      "##تقال": 8583,
      "##، كان ": 8584,
      "##ة الآ": 8585,
      "## من الح": 8586,
      "## صدر": 8587,
      "## الاب": 8588,
      "##هم و": 8589,
      "##نائ": 8590,
      "##ورو": 8591,
      "##خطط": 8592,
      "##ذوي": 8593,
      "## الطب": 8594,
      "## ذو": 8595,
      "##، ا": 8596,
      "##ارف": 8597,
      "##شرف": 8598,
      "##71": 8599,
      "##دى إلى": 8600,
      "##جرد": 8601,
      "## الأساسي": 8602,
      "## التاب": 8603,
      "##عدة أ": 8604,
      "## +": 8605,
      "##) هي": 8606,
      "##ة من أ": 8607,
      "## غالبا": 8608,
      "## من ك": 8609,
      "## انته": 8610,
      "##ات الأخرى": 8611,
      "## فوق": 8612,
      "##سيل": 8613,
      "##ة المع": 8614,
      "##ة الروم": 8615,
      "## محت": 8616,
      "##علماء": 8617,
      "##تجاه": 8618,
      "##ن لعام 2004.\r\n": 8619,
      "##قه": 8620,
      "## مما ": 8621,
      "## والن": 8622,
      "##. وكان": 8623,
      "## على الم": 8624,
      "##لوح": 8625,
      "##اتصال": 8626,
      "## النو": 8627,
      "##ساوي": 8628,
      "## الوسطى": 8629,
      "##زر": 8630,
      "## نصف": 8631,
      "##ة بين ال": 8632,
      "##ية ف": 8633,
      "## هذه الم": 8634,
      "##. لكن ": 8635,
      "##طائر": 8636,
      "## الأكبر": 8637,
      "## بار": 8638,
      "##ون من الذكور": 8639,
      "## ولد": 8640,
      "## لديها معيل": 8641,
      "##% من الأسر لديها معيل": 8642,
      "##% من الأسر لديها معيلون من الذكور": 8643,
      "## القرن الس": 8644,
      "##ة الو": 8645,
      "##ة البر": 8646,
      "##ة أيض": 8647,
      "##أتي": 8648,
      "## بك": 8649,
      "##عراق": 8650,
      "##. ومع ذلك": 8651,
      "##قوى": 8652,
      "## بالكامل": 8653,
      "## إبراهيم": 8654,
      "##ة بأ": 8655,
      "##خرين": 8656,
      "## والده": 8657,
      "## انتخاب": 8658,
      "## قنا": 8659,
      "## الفرد": 8660,
      "##ضيف": 8661,
      "##شور": 8662,
      "##ة الذي": 8663,
      "##قسام": 8664,
      "##ات مع": 8665,
      "## جمهوري": 8666,
      "##خيص": 8667,
      "## والأربعة و": 8668,
      "## وجد": 8669,
      "##دون": 8670,
      "##ويورك": 8671,
      "##خلايا": 8672,
      "##ٔلاء": 8673,
      "## علاق": 8674,
      "## الحم": 8675,
      "## نف": 8676,
      "##ة وكانت نسبة ": 8677,
      "## دون وجود شريكة وكانت نسبة ": 8678,
      "##، بينما كانت نسبة ": 8679,
      "##% من الأسر كان لديها معيلات من الإناث دون وجود شريك، بينما كانت نسبة ": 8680,
      "##% من الأسر لديها معيلون من الذكور دون وجود شريكة وكانت نسبة ": 8681,
      "##رح": 8682,
      "## شيء": 8683,
      "##روض": 8684,
      "## في ك": 8685,
      "## الخلايا": 8686,
      "##رؤ": 8687,
      "##راحل": 8688,
      "## اث": 8689,
      "##ا بين ": 8690,
      "##-19": 8691,
      "##وند": 8692,
      "##ا بعد": 8693,
      "## الأصول": 8694,
      "##32": 8695,
      "##ها،": 8696,
      "##طباع": 8697,
      "##، وإ": 8698,
      "##تفاعل": 8699,
      "##. بلغ عدد سكان ": 8700,
      "## لكرة القدم": 8701,
      "##ا عن ال": 8702,
      "##تون": 8703,
      "##، فإن": 8704,
      "## =": 8705,
      "##غو": 8706,
      "## استعمال": 8707,
      "##ه ي": 8708,
      "##ات أ": 8709,
      "##ديس": 8710,
      "##صبي": 8711,
      "## الطبيعي": 8712,
      "## المتحرك": 8713,
      "##ة منذ": 8714,
      "##ة. ف": 8715,
      "##عندما ": 8716,
      "## المف": 8717,
      "## جعل": 8718,
      "## 28": 8719,
      "##احل": 8720,
      "## هي إحدى": 8721,
      "##ة. وفي": 8722,
      "##سماع": 8723,
      "## مما ي": 8724,
      "## دار": 8725,
      "##بحاث": 8726,
      "## تك": 8727,
      "##ol": 8728,
      "##تقليدي": 8729,
      "##هري": 8730,
      "##. وهو": 8731,
      "##تباع": 8732,
      "## الترك": 8733,
      "##98": 8734,
      "## معروف": 8735,
      "## المواقع": 8736,
      "##ة الان": 8737,
      "## إنجل": 8738,
      "## أعل": 8739,
      "## الباب": 8740,
      "##. وبلغ متوسط حجم الأسرة المعيشية 2.": 8741,
      "##حن": 8742,
      "## الأوسط": 8743,
      "##ة الملك": 8744,
      "##قرر": 8745,
      "##لاحق": 8746,
      "## متعدد": 8747,
      "## بق": 8748,
      "##سبوع": 8749,
      "##دوث": 8750,
      "## جنس": 8751,
      "##تراوح": 8752,
      "##، ولكن ": 8753,
      "##نسا": 8754,
      "## والص": 8755,
      "## بالقرب": 8756,
      "## ظهور": 8757,
      "## ربما ": 8758,
      "## الوزراء": 8759,
      "##هذا ": 8760,
      "## تعداد اليم": 8761,
      "##تقع في": 8762,
      "## الصغير": 8763,
      "## ولاية ": 8764,
      "##ظل": 8765,
      "## قتل": 8766,
      "##تشكيل": 8767,
      "##رسل": 8768,
      "##يون": 8769,
      "##ليد": 8770,
      "##بيت": 8771,
      "## مان": 8772,
      "##عيم": 8773,
      "## نقط": 8774,
      "##. وبعد": 8775,
      "## كانوا ي": 8776,
      "## قائم": 8777,
      "## ساع": 8778,
      "## بدلا": 8779,
      "## قامت": 8780,
      "##حير": 8781,
      "##ا هي": 8782,
      "##توفر": 8783,
      "##56": 8784,
      "## إجمالي": 8785,
      "## هيئ": 8786,
      "##ينت": 8787,
      "##ة غ": 8788,
      "##ته في": 8789,
      "##ا ن": 8790,
      "## منتخب": 8791,
      "##ات الد": 8792,
      "##72": 8793,
      "## رسم": 8794,
      "##. ثم": 8795,
      "##روع": 8796,
      "##ات ي": 8797,
      "## العلاق": 8798,
      "##تشمل": 8799,
      "##ة وت": 8800,
      "## الصوت": 8801,
      "##ندر": 8802,
      "## الشمس": 8803,
      "## منح": 8804,
      "## مخ": 8805,
      "##علا": 8806,
      "## المغرب": 8807,
      "## دعم": 8808,
      "##امت": 8809,
      "##ة حيث": 8810,
      "##روسي": 8811,
      "##ة بر": 8812,
      "## القرن العشرين": 8813,
      "## برنامج": 8814,
      "## 26": 8815,
      "##ثان": 8816,
      "## فتح": 8817,
      "## كما ي": 8818,
      "##ة التي ي": 8819,
      "## ميل مربع (": 8820,
      "## وفق": 8821,
      "## مرض": 8822,
      "##تين ال": 8823,
      "##تجار": 8824,
      "##وسوع": 8825,
      "## H": 8826,
      "##ريح": 8827,
      "##شعب": 8828,
      "##39": 8829,
      "## التعليم": 8830,
      "##قوط": 8831,
      "## الإن": 8832,
      "##قصى": 8833,
      "##. بحلول": 8834,
      "##NA": 8835,
      "##ان،": 8836,
      "##جزير": 8837,
      "## العض": 8838,
      "##تألف من ": 8839,
      "## ان ": 8840,
      "##افر": 8841,
      "## اقت": 8842,
      "##58": 8843,
      "##قلب": 8844,
      "##et": 8845,
      "## 22": 8846,
      "##اتجاه": 8847,
      "## معدل": 8848,
      "## بدور": 8849,
      "##اقتصادي": 8850,
      "##ة لإ": 8851,
      "## أنهم": 8852,
      "##ة من الم": 8853,
      "## الواقع": 8854,
      "##ساك": 8855,
      "##ch": 8856,
      "## إضاف": 8857,
      "## التابعة لم": 8858,
      "##طالب": 8859,
      "##ت من ال": 8860,
      "## لهم": 8861,
      "## قيم": 8862,
      "## رحل": 8863,
      "##/كم2). و": 8864,
      "## T": 8865,
      "## تعداد اليمن لعام 2004.\r\n": 8866,
      "##تم ت": 8867,
      "##ضافي": 8868,
      "##ندا": 8869,
      "## الفرق": 8870,
      "## الخب": 8871,
      "## هذه الأ": 8872,
      "##ثقاف": 8873,
      "##رى": 8874,
      "##ديلات": 8875,
      "## من بين": 8876,
      "## صناع": 8877,
      "##: ي": 8878,
      "##ولوجي": 8879,
      "##ضب": 8880,
      "##ة كانت": 8881,
      "##ة، وفي": 8882,
      "##ات أو": 8883,
      "##ائص": 8884,
      "## النفس": 8885,
      "## عندما": 8886,
      "## والف": 8887,
      "##ة، ب": 8888,
      "## رفض": 8889,
      "##هؤلاء": 8890,
      "##، فإن ": 8891,
      "## أيضا ب": 8892,
      "##خمس": 8893,
      "## أشكال": 8894,
      "## الموجود": 8895,
      "##ات أخرى": 8896,
      "##، إذ": 8897,
      "## الكهرب": 8898,
      "##نا و": 8899,
      "## أواخر": 8900,
      "## بول": 8901,
      "##{\\": 8902,
      "##، وكان ": 8903,
      "## احتلت": 8904,
      "##خفاض": 8905,
      "## من الف": 8906,
      "##نذاك": 8907,
      "## الاخت": 8908,
      "##ة بين": 8909,
      "##ناه": 8910,
      "## يمكن ل": 8911,
      "## لها ": 8912,
      "## حل": 8913,
      "##صحاب": 8914,
      "## موا": 8915,
      "## قري": 8916,
      "## من عمر": 8917,
      "## على الن": 8918,
      "## الذكور": 8919,
      "##ة هذه": 8920,
      "##، بل": 8921,
      "## المستخدم": 8922,
      "## أنشأ": 8923,
      "##، بلغ تعداد سكانها ": 8924,
      "##34": 8925,
      "## الأبيض": 8926,
      "## اللاتيني": 8927,
      "## للع": 8928,
      "## أبجدي": 8929,
      "## معد": 8930,
      "##ديمقراطي": 8931,
      "##عال": 8932,
      "## الاجتماعي": 8933,
      "## )": 8934,
      "## مدرس": 8935,
      "## الأطفال": 8936,
      "## 2009": 8937,
      "##ة بالم": 8938,
      "## السف": 8939,
      "##ن و": 8940,
      "##yl": 8941,
      "##ين إلى": 8942,
      "##قصير": 8943,
      "##55": 8944,
      "## لا ت": 8945,
      "##مرض": 8946,
      "## التجار": 8947,
      "##. وكان ": 8948,
      "##ة الخامس": 8949,
      "##ة المن": 8950,
      "##هذا ي": 8951,
      "## والت": 8952,
      "## قليل": 8953,
      "##ينيات": 8954,
      "##% من الأمريكيين الأصلي": 8955,
      "## مرحل": 8956,
      "##رحل": 8957,
      "## قاد": 8958,
      "## الحق": 8959,
      "## عضو": 8960,
      "## الحالي": 8961,
      "## اختيار": 8962,
      "## أمريكي": 8963,
      "##مرأ": 8964,
      "##ون إلى": 8965,
      "## لديهم": 8966,
      "##دام": 8967,
      "## متاح": 8968,
      "##ابط": 8969,
      "##ا بال": 8970,
      "## أخذ": 8971,
      "## (الم": 8972,
      "## الشكل": 8973,
      "## أمير": 8974,
      "## بت": 8975,
      "## طالب": 8976,
      "## تطور": 8977,
      "##وريد": 8978,
      "## وزير": 8979,
      "## عزل": 8980,
      "##تحاد": 8981,
      "##نترنت": 8982,
      "##وتر": 8983,
      "## رغم": 8984,
      "## P": 8985,
      "##ولاد": 8986,
      "## أعضاء": 8987,
      "## موجود": 8988,
      "##تؤ": 8989,
      "## سا": 8990,
      "## الثقافي": 8991,
      "##ة است": 8992,
      "##ة مست": 8993,
      "##ه من ": 8994,
      "## وان": 8995,
      "## الرياضي": 8996,
      "##قترح": 8997,
      "##ا عن": 8998,
      "##ن بال": 8999,
      "## الأهلي": 9000,
      "## القرآ": 9001,
      "##، تح": 9002,
      "## أساسي": 9003,
      "## منع": 9004,
      "##ة من قبل": 9005,
      "##مث": 9006,
      "## صحيف": 9007,
      "##، واست": 9008,
      "##49": 9009,
      "##ة والأ": 9010,
      "## اكتشاف": 9011,
      "##خال": 9012,
      "##قد ي": 9013,
      "##جاور": 9014,
      "##وست": 9015,
      "##شم": 9016,
      "##، ول": 9017,
      "##ركزي": 9018,
      "## الخارج": 9019,
      "## عملية ": 9020,
      "## اعتبار": 9021,
      "##قوب": 9022,
      "##ية والأ": 9023,
      "## وآ": 9024,
      "##ٔك الذين ": 9025,
      "##ثبت": 9026,
      "##31": 9027,
      "##أنه": 9028,
      "## تنظيم": 9029,
      "## قض": 9030,
      "## في الب": 9031,
      "## على يد": 9032,
      "##خلص": 9033,
      "## مرة أخرى": 9034,
      "## عرق": 9035,
      "##ديسمبر": 9036,
      "## فاز": 9037,
      "##ة باسم": 9038,
      "## السود": 9039,
      "##عقد": 9040,
      "##il": 9041,
      "## الملكي": 9042,
      "## سجل": 9043,
      "## الميلادي": 9044,
      "##ت، و": 9045,
      "##يه": 9046,
      "##ة بين ": 9047,
      "## حدوث": 9048,
      "##% من الأمريكيين الأفارق": 9049,
      "##وين": 9050,
      "##وا على": 9051,
      "## الفلسط": 9052,
      "##تجا": 9053,
      "##مبراطوري": 9054,
      "## 2010": 9055,
      "##من ال": 9056,
      "##ترو": 9057,
      "## وصول": 9058,
      "##واني": 9059,
      "## أن يكون ": 9060,
      "##ية، وال": 9061,
      "##تمثيل": 9062,
      "##واف": 9063,
      "## لها": 9064,
      "##) أو": 9065,
      "## صوت": 9066,
      "##تصنيف": 9067,
      "##نصب": 9068,
      "##ركبات": 9069,
      "##حرب": 9070,
      "## والس": 9071,
      "##قدر عدد سكانها ": 9072,
      "##37": 9073,
      "##ستون": 9074,
      "## بحرف": 9075,
      "##ا بشكل": 9076,
      "## للمدين": 9077,
      "## الصين": 9078,
      "##ليبي": 9079,
      "##سبق": 9080,
      "##بلي": 9081,
      "##راقب": 9082,
      "##ريت": 9083,
      "##هاجم": 9084,
      "##بطال": 9085,
      "## سنة 200": 9086,
      "##حقوق": 9087,
      "## افت": 9088,
      "##خصوص": 9089,
      "## الحمل": 9090,
      "##وا ب": 9091,
      "## انضم": 9092,
      "## في حال": 9093,
      "## الأراضي": 9094,
      "##تنظيم": 9095,
      "##ة جديد": 9096,
      "##100": 9097,
      "##لاط": 9098,
      "## الألماني": 9099,
      "## أشهر": 9100,
      "##لي،": 9101,
      "## حيث ي": 9102,
      "## المال": 9103,
      "##راغ": 9104,
      "##ين ل": 9105,
      "## البشري": 9106,
      "##فرع": 9107,
      "## القدر": 9108,
      "## حم": 9109,
      "##ؤثر": 9110,
      "## الصور": 9111,
      "## المه": 9112,
      "##حاب": 9113,
      "## الإسرائيلي": 9114,
      "## الذي أ": 9115,
      "##اضر": 9116,
      "## بيري": 9117,
      "##انون ": 9118,
      "##اجتماع": 9119,
      "##ion": 9120,
      "## الشام": 9121,
      "##لكترون": 9122,
      "## كلا": 9123,
      "## 1.": 9124,
      "##تستخدم": 9125,
      "##توقع": 9126,
      "## رقم": 9127,
      "## محم": 9128,
      "## أنه ي": 9129,
      "## ظل": 9130,
      "##يري": 9131,
      "## إذا": 9132,
      "##ويات": 9133,
      "## توفي": 9134,
      "##يدي": 9135,
      "## الزي": 9136,
      "## جميع أنحاء": 9137,
      "## ، و": 9138,
      "##سور": 9139,
      "## لقب": 9140,
      "##قيام": 9141,
      "##قيقي": 9142,
      "##غالبا": 9143,
      "##عية ال": 9144,
      "##دت": 9145,
      "##نيع": 9146,
      "##اسم العلمي": 9147,
      "##وية و": 9148,
      "##فرده": 9149,
      "##ستاذ": 9150,
      "##واليد": 9151,
      "##ذكاري": 9152,
      "##سماعيل": 9153,
      "##يض": 9154,
      "## هم": 9155,
      "##ة تحت": 9156,
      "## التط": 9157,
      "##ربون": 9158,
      "## أيام": 9159,
      "## تعرض": 9160,
      "##تسع": 9161,
      "##هانج": 9162,
      "##غار": 9163,
      "##다": 9164,
      "##واص": 9165,
      "## حرفا ": 9166,
      "##قصر": 9167,
      "##그": 9168,
      "## المجلس": 9169,
      "## فكر": 9170,
      "## أنها": 9171,
      "## ولاي": 9172,
      "## تشوي س": 9173,
      "## هانغل": 9174,
      "##قرى": 9175,
      "##ة للأ": 9176,
      "##بس": 9177,
      "##ة الأبجدية الكوري": 9178,
      "##قرب نطق": 9179,
      "##مينجونغم": 9180,
      "## نطق الأحرف": 9181,
      "## في كل": 9182,
      "## في العالم": 9183,
      "##صوير": 9184,
      "##دفاع": 9185,
      "## تد": 9186,
      "##، كانت": 9187,
      "## الأصل": 9188,
      "##ية. في": 9189,
      "##. يعتبر": 9190,
      "## مقر": 9191,
      "##أخذ": 9192,
      "##» (": 9193,
      "##ياب": 9194,
      "## سابق": 9195,
      "##تحكم": 9196,
      "##دن": 9197,
      "##شجار": 9198,
      "##ول الله": 9199,
      "##ة علي": 9200,
      "## انتقال": 9201,
      "##تخذ": 9202,
      "## والك": 9203,
      "## بأن ال": 9204,
      "## إجراء": 9205,
      "##نتيجة لذلك": 9206,
      "##ة لي": 9207,
      "##فيروس": 9208,
      "## الفن": 9209,
      "## ثور": 9210,
      "## يعيشون في": 9211,
      "## ال\r\n": 9212,
      "## لكن": 9213,
      "## على الت": 9214,
      "## العاصم": 9215,
      "## البحث": 9216,
      "##دبي": 9217,
      "## والج": 9218,
      "##ة بالأ": 9219,
      "## القرن التاسع عشر": 9220,
      "##أربعين ": 9221,
      "## طاق": 9222,
      "## سيتم": 9223,
      "## الإمام": 9224,
      "## تعليم": 9225,
      "##ات الر": 9226,
      "##صناع": 9227,
      "##ur": 9228,
      "## باللغ": 9229,
      "## أحداث": 9230,
      "##ة قدم": 9231,
      "##يوم": 9232,
      "## الخدم": 9233,
      "##سيحي": 9234,
      "## فرق": 9235,
      "## الجهاز": 9236,
      "##ة عن ال": 9237,
      "## بداية ": 9238,
      "##ة (ال": 9239,
      "##وفر": 9240,
      "##صلح": 9241,
      "## الأحمر": 9242,
      "## مستوى العالم": 9243,
      "##عالم": 9244,
      "## الأعمال": 9245,
      "##طرق": 9246,
      "##ولندي": 9247,
      "##يسار": 9248,
      "## محط": 9249,
      "## أيضا في": 9250,
      "##جير": 9251,
      "##راكي": 9252,
      "##نشر": 9253,
      "## شبك": 9254,
      "## إضافة إلى": 9255,
      "## دون ": 9256,
      "## الطبق": 9257,
      "## الجماع": 9258,
      "## من ح": 9259,
      "##47": 9260,
      "##نود": 9261,
      "##: و": 9262,
      "## المعد": 9263,
      "##ة ما ي": 9264,
      "##اقي": 9265,
      "##ندونيسي": 9266,
      "##تمتع": 9267,
      "## غز": 9268,
      "## المنظم": 9269,
      "##صاص": 9270,
      "## يت": 9271,
      "##تقوم": 9272,
      "## بمفرده": 9273,
      "## R": 9274,
      "## في أكتوبر": 9275,
      "## بذلك": 9276,
      "##فيلم": 9277,
      "## الموا": 9278,
      "##زراع": 9279,
      "## الأف": 9280,
      "## قوات": 9281,
      "##ة سي": 9282,
      "##ين على": 9283,
      "##مج": 9284,
      "##توقف": 9285,
      "## للب": 9286,
      "## تعرف": 9287,
      "##87": 9288,
      "##ات ح": 9289,
      "## على جميع": 9290,
      "##ه ف": 9291,
      "##ة ون": 9292,
      "##ية أ": 9293,
      "##ظائف": 9294,
      "##رافق": 9295,
      "##، أما متوسط حجم العائلات فبلغ 2.": 9296,
      "## في منطق": 9297,
      "##هي ت": 9298,
      "## استطاع": 9299,
      "##ا لك": 9300,
      "##رجل": 9301,
      "## ثاني": 9302,
      "## عليها ": 9303,
      "##ت أ": 9304,
      "## 27": 9305,
      "## عبارة عن ": 9306,
      "##أو": 9307,
      "## موس": 9308,
      "##وكب": 9309,
      "##نم": 9310,
      "## الفقر": 9311,
      "##ماغ": 9312,
      "##ليام": 9313,
      "##ا وأ": 9314,
      "## جيش": 9315,
      "##ة. وي": 9316,
      "## المؤسس": 9317,
      "##نها": 9318,
      "## صح": 9319,
      "##وادي": 9320,
      "##ة أيام": 9321,
      "## سوري": 9322,
      "## من عدة أ": 9323,
      "## النهائي": 9324,
      "## نظرا ل": 9325,
      "##ة ما ": 9326,
      "##قارب": 9327,
      "##رابعة والستين": 9328,
      "##ين عاما فما فوق": 9329,
      "##% كانت ضمن فئة الخامسة والستين عاما فما فوق": 9330,
      "##رابعة والستين، ونسبة ": 9331,
      "##فيل": 9332,
      "##ونز": 9333,
      "## 21": 9334,
      "##تولى": 9335,
      "## مق": 9336,
      "##ين ذوي": 9337,
      "##تقديم": 9338,
      "##وين ": 9339,
      "##عرب": 9340,
      "## دوري": 9341,
      "##ة عن طريق": 9342,
      "##فقد": 9343,
      "## وتم": 9344,
      "## أن جميع": 9345,
      "##منطق": 9346,
      "## بن ال": 9347,
      "##ريخ": 9348,
      "## 700": 9349,
      "##. وعلى": 9350,
      "##ا علي": 9351,
      "## المرحل": 9352,
      "##قق": 9353,
      "## سك": 9354,
      "## 3.": 9355,
      "## التسوي": 9356,
      "##جانب": 9357,
      "## أغلب": 9358,
      "##فى": 9359,
      "##وائل": 9360,
      "##رز": 9361,
      "##كوري": 9362,
      "##yst": 9363,
      "## تتألف من ": 9364,
      "## جد": 9365,
      "##54": 9366,
      "##ات ع": 9367,
      "## التجاري": 9368,
      "## معه": 9369,
      "## الحدود": 9370,
      "##ا 2": 9371,
      "## عام 2019": 9372,
      "##66": 9373,
      "## B": 9374,
      "##ناحي": 9375,
      "##ا أو أكثر": 9376,
      "##ة الثانية ": 9377,
      "##، أصبحت": 9378,
      "##ثيق": 9379,
      "##ولاية ": 9380,
      "##92": 9381,
      "##أسس": 9382,
      "##ين والرابعة والستين، ونسبة ": 9383,
      "##% كانت واقعة في الفئة العمرية ما بين الخامسة والعشرين": 9384,
      "##% كانت ما بين الخامسة والأربعين والرابعة والستين، ونسبة ": 9385,
      "##راست": 9386,
      "##نسبي": 9387,
      "##ارت": 9388,
      "## بكر": 9389,
      "## 2008": 9390,
      "##ستمر": 9391,
      "##وامل": 9392,
      "##اليب": 9393,
      "##جرى": 9394,
      "## تخ": 9395,
      "## الطي": 9396,
      "##تيري": 9397,
      "##ا. ي": 9398,
      "##ان (": 9399,
      "##بيضاء": 9400,
      "## إطلاق": 9401,
      "##ستعمل": 9402,
      "##نسان": 9403,
      "##ة الحرار": 9404,
      "##وارد": 9405,
      "##ديدي": 9406,
      "##لبن": 9407,
      "##نحو": 9408,
      "## نظ": 9409,
      "##فتح": 9410,
      "## الرم": 9411,
      "##شفى": 9412,
      "##وصل": 9413,
      "## الخبراء": 9414,
      "## باب": 9415,
      "##، بما في ذلك": 9416,
      "##% من البيض و": 9417,
      "##سن ": 9418,
      "##ين من ال": 9419,
      "##تقدم": 9420,
      "## المز": 9421,
      "##يرل": 9422,
      "## الجزائر": 9423,
      "##انهي": 9424,
      "##هرم": 9425,
      "##ين ذوي الأصول": 9426,
      "## عاصم": 9427,
      "## مع أ": 9428,
      "## الداخلي": 9429,
      "## تكو": 9430,
      "## السيد": 9431,
      "##فاف": 9432,
      "## 2006": 9433,
      "##دوار": 9434,
      "##ا عند": 9435,
      "## لكل كيلومتر مربع (": 9436,
      "##نيكل": 9437,
      "## 29": 9438,
      "## نفس المنزل": 9439,
      "##لمي": 9440,
      "## القراء": 9441,
      "## الصناع": 9442,
      "## نسمة لكل كيلومتر مربع (": 9443,
      "## المياه": 9444,
      "## سليم": 9445,
      "## من عدة أفراد": 9446,
      "## تمام": 9447,
      "## والرابعة والعشرين ": 9448,
      "## والرابعة والأربعين ": 9449,
      "##/ميل2). وتوزع التركيب العرقي": 9450,
      "##/ميل2). وبلغ عدد الوحدات السكنية ": 9451,
      "##% بين الثامنة عشر والرابعة والعشرين ": 9452,
      "##% من أصل جميع الأسر من عدة أفراد": 9453,
      "## يعيشون في نفس المنزل": 9454,
      "##% كانت واقعة في الفئة العمرية ما بين الخامسة والعشرين والرابعة والأربعين ": 9455,
      "##% من أصل جميع الأسر من عدة أفراد يعيشون في نفس المنزل": 9456,
      "## مسا": 9457,
      "##نتشر": 9458,
      "##ماس": 9459,
      "##، مما ي": 9460,
      "##عتمد": 9461,
      "## ماري": 9462,
      "##، بعد": 9463,
      "##شخص يعيش": 9464,
      "##% من الأمريكيين ذوي الأصول": 9465,
      "## النووي": 9466,
      "##% من الأمريكيين ذوي الأصول الآسي": 9467,
      "##ية.\r\n": 9468,
      "##ات التقليدي": 9469,
      "##% كانت تتألف من ": 9470,
      "## يبلغ من العمر 65 عاما أو أكثر": 9471,
      "## بمفرده يبلغ من العمر 65 عاما أو أكثر": 9472,
      "##% من أصل جميع الأسر من عدة أفراد يعيشون في نفس المنزل ونسبة ": 9473,
      "##شخص يعيش بمفرده يبلغ من العمر 65 عاما أو أكثر": 9474,
      "##% كانت تتألف من شخص يعيش بمفرده يبلغ من العمر 65 عاما أو أكثر": 9475,
      "## من ا": 9476,
      "##احث": 9477,
      "##dis": 9478,
      "##حصل على": 9479,
      "##عث": 9480,
      "## امتد": 9481,
      "## الغذ": 9482,
      "##تها في": 9483,
      "##ات إلى": 9484,
      "##حتوي على": 9485,
      "## والق": 9486,
      "##افت": 9487,
      "##علان": 9488,
      "## رقيق": 9489,
      "## نجاح": 9490,
      "## عائلة مقيمة في المدين": 9491,
      "## للمدينة بنسبة ": 9492,
      "##جسم": 9493,
      "##رثوذ": 9494,
      "## أولئك الذين ": 9495,
      "##سهول": 9496,
      "##بيه": 9497,
      "## أرض": 9498,
      "##لاعب": 9499,
      "## المصطلح": 9500,
      "##). ت": 9501,
      "##ها ك": 9502,
      "## هن": 9503,
      "##لما ": 9504,
      "## تقديم": 9505,
      "##غاني": 9506,
      "## عليهم": 9507,
      "##زام": 9508,
      "##بيئ": 9509,
      "## في مدينة ": 9510,
      "## حسب إحصاء": 9511,
      "##. ومن": 9512,
      "##حقق": 9513,
      "##88": 9514,
      "##om": 9515,
      "##بني": 9516,
      "##94": 9517,
      "##ra": 9518,
      "## العلاج": 9519,
      "##نقسم": 9520,
      "##زين": 9521,
      "##تشير": 9522,
      "## حدود": 9523,
      "## وغ": 9524,
      "##97": 9525,
      "##ديمقراط": 9526,
      "##. في يناير": 9527,
      "## لا": 9528,
      "## من حيث": 9529,
      "##بان": 9530,
      "##ة المصري": 9531,
      "##ة الصح": 9532,
      "##؛ وفي": 9533,
      "## الضغط": 9534,
      "## عام 2010": 9535,
      "##ة. تم": 9536,
      "## الانتخاب": 9537,
      "## الإيطالي": 9538,
      "##ت من ": 9539,
      "##بعاد": 9540,
      "## الحقيق": 9541,
      "## التذكاري": 9542,
      "##ها ع": 9543,
      "## سياسي": 9544,
      "## آي": 9545,
      "## في هذه": 9546,
      "## التعديلات": 9547,
      "## الرياض": 9548,
      "##65": 9549,
      "##ا له": 9550,
      "## حين ": 9551,
      "##خبر": 9552,
      "##غني": 9553,
      "##ات ": 9554,
      "##ات (": 9555,
      "## العن": 9556,
      "## علماء": 9557,
      "##طمت": 9558,
      "##ة -": 9559,
      "## الموسوع": 9560,
      "## في ل": 9561,
      "##». ت": 9562,
      "## بنفس": 9563,
      "##هسباني": 9564,
      "## المدرس": 9565,
      "##ندق": 9566,
      "##تباط": 9567,
      "##ية بعد": 9568,
      "##حار": 9569,
      "##ون من أي": 9570,
      "##ة والإ": 9571,
      "##ية، وأ": 9572,
      "## المؤرخ": 9573,
      "##قدار": 9574,
      "##ة النه": 9575,
      "##وليد": 9576,
      "##pla": 9577,
      "##ية لم": 9578,
      "## بريطاني": 9579,
      "##عمد": 9580,
      "##شاري": 9581,
      "##تمال": 9582,
      "##. يقدر عدد سكانها ": 9583,
      "## ابنه": 9584,
      "##ون أو اللاتيني": 9585,
      "##ون من أي عرق": 9586,
      "##ون أو اللاتينيون من أي عرق": 9587,
      "##دين ": 9588,
      "##id": 9589,
      "## ممثل": 9590,
      "##واها": 9591,
      "##كيمي": 9592,
      "##جئ": 9593,
      "##ادم": 9594,
      "## مقالات": 9595,
      "##سنة 19": 9596,
      "## الحديد": 9597,
      "## حيث ت": 9598,
      "##ورم": 9599,
      "## عائلة مقيمة في المدينة. في حين سجلت الكثافة السكانية ": 9600,
      "##ه مع": 9601,
      "## حيا": 9602,
      "## الأسود": 9603,
      "##. في أبريل": 9604,
      "## ضغط": 9605,
      "## كوريا الجنوب": 9606,
      "##ية لأ": 9607,
      "## انق": 9608,
      "## خلف": 9609,
      "## زياد": 9610,
      "الم": 9611,
      "##ضخم": 9612,
      "## إصدار": 9613,
      "##% من الهسباني": 9614,
      "##ون أو اللاتينيون من أي عرق. بلغ عدد الأسر": 9615,
      "##% من الهسبانيون أو اللاتينيون من أي عرق. بلغ عدد الأسر": 9616,
      "##مين ال": 9617,
      "##جسام": 9618,
      "##طراف": 9619,
      "##اعت": 9620,
      "## السلام": 9621,
      "##بطول": 9622,
      "## اند": 9623,
      "##ان.": 9624,
      "## بيت": 9625,
      "## ‏ هو": 9626,
      "##ة أن ": 9627,
      "##، ": 9628,
      "##ة. في م": 9629,
      "## سياس": 9630,
      "##رقم": 9631,
      "##th": 9632,
      "##ة الياب": 9633,
      "##ة أكثر": 9634,
      "##وسع": 9635,
      "##طلع": 9636,
      "## إفريقي": 9637,
      "##ستي": 9638,
      "## العصور": 9639,
      "## تم تر": 9640,
      "##» في": 9641,
      "## 2007": 9642,
      "## 106": 9643,
      "##91": 9644,
      "## ألواح": 9645,
      "##باي": 9646,
      "##» و": 9647,
      "##منع": 9648,
      "## سيطر": 9649,
      "## العراقي": 9650,
      "## من ق": 9651,
      "##باك": 9652,
      "##تزوج": 9653,
      "## جماع": 9654,
      "##عمل على": 9655,
      "##ضاعف": 9656,
      "##اكي": 9657,
      "## ذكور": 9658,
      "##، يمكن أن ": 9659,
      "##لسف": 9660,
      "## 2016،": 9661,
      "##um": 9662,
      "##ينية ": 9663,
      "##. وكانت": 9664,
      "##ة ذات": 9665,
      "##انع": 9666,
      "##، وبعد": 9667,
      "## الأربع": 9668,
      "## العلوم": 9669,
      "## السادس": 9670,
      "##سابق": 9671,
      "##500": 9672,
      "## الزم": 9673,
      "##ولت": 9674,
      "##ناد": 9675,
      "##. على عكس": 9676,
      "##ات والم": 9677,
      "## قارئ": 9678,
      "##شدد": 9679,
      "##تجاوز": 9680,
      "##حزب": 9681,
      "##86": 9682,
      "## مسير": 9683,
      "##عروف": 9684,
      "##لاز": 9685,
      "## القرن الخامس": 9686,
[...]
